const Word bin_dense_wt_7_0[] = {0x2643995f09ccc7a8,
0x0f850665ee01f639,
0x77dfcb28c9bca120,
0x9a41c8d987cde307,
0x72015f8fdff63e48,
0xeae2788be7ce00f4,
0x42c889167b8e2518,
0xa7a16d060e2b5efd,
0xbb71764e108e650d,
0x78cc1b8bbbd03f74,
0xf867d60a16685c86,
0xfd81030deb094d12,
0xc835dffe708b6934,
0x71ff79cc09f13ee3,
0xeb3cf3b1399b1d14,
0xab26c3628a0e0ce7,
0x8c84f7da788ef8ac,
0x1a6fa77ecd6f1303,
0x5ccdd28aac53f98a,
0x7c8346ebbfcf42d8,
0xb5df2324540c960d,
0xbf6273f7e78c7f5f,
0x462237ba6e22de3b,
0x9817dc81acc60019,
0x82c28f0c6836b399,
0xae6a67461cd3bf37,
0x60ee0fcfb77f1cde,
0x5436ef0d943020ce,
0x2988f712f5aa1261,
0xfb73dd9ba06f61f5,
0xf6936f79d7f9c177,
0xecfc3223108a7536,
0xdbe1d0b3c2c357ff,
0x82b041593fb19c21,
0x4a0184ac6a9077bb,
0x17216f9bc8b490eb,
0xf0dbcc106cf71dfe,
0xdd133a1dadf01246,
0xbfee0089f9f2b10c,
0x07f7906b800de8fe,
0xfbffff00e650ce43,
0x2e5dbfc5dad90a2f,
0x906417b4b368455d,
0xcd1efa328011cf4f,
0x2e7f7e088c28ceef,
0x1a5d18b4d0031502,
0xd0857fdc09189abd,
0xebbbf0ba5a3283fc,
0x5ecc2c93ceba9f90,
0xb51a03fc7109ebea,
0xeeeb9cffbff97f71,
0xc47bc4006128dff6,
0x9b3961217fc85e2c,
0x698a4f164f83648d,
0xfadcb11e67eeee40,
0xd1ee00084dd85252,
0x0ad9056dd318a008,
0x0a4d20b6c0109209,
0x894fff77f7fe85ee,
0x79cc7bffa44c6e4c,
0x6f1af615129a4017,
0xd5c7976dfd194b06,
0x3a6c001240faff60,
0xe6c1abae07fcc370,
0x9ff0ef0de728b8fd,
0x6013f97afbe2cf3f,
0xfe8de2c8f970ff7f,
0x5ffe8ccfb6f1e798,
0xf1f02f9d1f822658,
0xeb011f398042c298,
0x9e69bffdcfe17619,
0xecd2730ea0400631,
0x110d5de600ffd883,
0x4f86f6196763fd1f,
0x572c2339416720cd,
0x70dcf415eef9fe09,
0xdcf56eea006d89ef,
0xb3d7a3008012cb6e,
0xb7f24dd4f663166c,
0x26eef758ffbfa13e,
0xc3dc85a5ac3b21a8,
0xa768cedc1503fde3,
0xcde0ed11763074ed,
0x615bbbfd201d100d,
0x7b9cc2ec923f8dd8,
0x2c68e91fc6c39f81,
0x1444900f4bf8bdf0,
0xb29152f63146715f,
0xc19fbf75fffc0f23,
0x5dfff9eac30c6001,
0xa7ff13b0e09b6340,
0x5f77865c8cd5068c,
0x373966cd02eeff7e,
0x8170b001d30c6e00,
0x1fea8eb7fc6dfe09,
0x7fe800986c17fe98,
0x8bbe8c9089a77bfd,
0x788fffcf4a020a87,
0xdbff295e00e70be4,
0x00607bae7415e10c,
0xdecc33819f77b075,
0x3df95d318d3cfba8,
0x373c28c5b3bc2fed,
0x91bb5ac5108a2110,
0xdfff1db64453c007,
0xf990800e179ca6a4,
0xef88c532e81fe9de,
0x7e850018161c00f5,
0xc1bb1e7d0f187833,
0xd5fa501b1717e241,
0x57e1d3e740fff32e,
0x1774167507a64c89,
0x920245676fbafb38,
0x2ca53cfb03be0917,
0x3136bb54a45917f7,
0x659aed0725b32d5b,
0x8311f10141d6350f,
0x85d71462bf628118,
0x8e040018d88c6188,
0x6d4c890c8d7064d8,
0x67cc0c1ae3b6df9e,
0xfecc3a3762019817,
0x0523fa14df4e0413,
0x2b80939eac88c6c0,
0xaf15e5d802b49dd5,
0xd97265e49b1980a4,
0x1fff21d59177c4cd,
0xedf94e7de11d9a34,
0x3732240777a4fa45,
0xe35ab9d8aeef9fec,
0x313e24300ef6e973,
0xf42e2b12fef2b971,
0xcceb691b77d97610,
0x3958df7610f1e366,
0x5897465c4456fd55,
0x00028104f747d5d0,
0x8ee47a2105d7bfcf,
0x0d32ee3f46e40ccc,
0x0000efe2490a7842,
0xb7ffbb95c87286dd,
0x19154ceb612b0109,
0x137fa16401177bbf,
0xfcffc5806753854f,
0xf275d1ecd7711014,
0x5c029908ee35e501,
0x71413f83731c4673,
0x59a9ed0063f0fb7d,
0x163919f7c1718803,
0xd011e84a017f7000,
0xcecd020319fa1424,
0x1f658cf6ecdf504f,
0xccb37bfbb1b74ecc,
0x8af74f79d76f6da7,
0xa977c008ff8cd169,
0xa49f3a660110e7f0,
0x2031e000e8113b8a,
0xffbd00859b7d837f,
0x40f82da201983333,
0x788248f78c0f8e08,
0x8b6f3ff3feaef49b,
0xc1bf4d0c44db3eb6,
0x5837af0500f389b4,
0x6d5f499fe3ff4010,
0xd3757ffb65b0610c,
0x05c0fbcc8957ef63,
0x582f45a7e730d08a,
0xc2994de47748b519,
0x511c032e00f5416a,
0x35795511f46209de,
0x0b30fb8e0bb391c4,
0x409e19d7befd571d,
0xad603b7808c75030,
0x1c1eb259223243f1,
0x000ceb9290003192,
0xad97eed0be60fffa,
0xf5d603c513795c9e,
0xed701c407fc056e3,
0xdb98de9314564bd6,
0xcee16e77a8bb7314,
0x2284a79c96ef0e0f,
0xc5422fa4f93b1c38,
0xe78143c44010d7f3,
0x41808150ff5928ad,
0x1eab0084773e122f,
0xa1321008022376c0,
0x11ce6cfce1844360,
0x92e64a185c8a281c,
0x4b9cec88d513fcea,
0xbd60bb27b8935063,
0x59c1cdcc77531d20,
0x57c6020fb41d6f37,
0x91594dc60c324473,
0x4362d0c4ad1050ac,
0x5335c60afc9cf035,
0x454104af75a97681,
0x7a91480004f177a3,
0x973dd165271222e7,
0x12e6e62c17048ef0,
0xcef28a0a938322a1,
0xba205fef800b4098,
0x41355864f78fe08c,
0x777f73e1081b7f79,
0x9dfd2206bd328513,
0xe15788b0559909c8,
0x88acf00c7cc63693,
0x6cfbf3319b28371d,
0xe897188c5fe059c1,
0x896c6832e99cbec9,
0x6d636c8d48e20f68,
0x886d33b8a282bd86,
0x8271d7fba356528a,
0x742afe174e0f5ed4,
0x3425734fbd08073a,
0x5940f1b680624d01,
0x0788ee5c28b3775d,
0x0e7fe600b7e0f20c,
0x67336327dcda108f,
0x0adef77504609b61,
0xfb536a737ebbb04d,
0xdffed6e70c59b8c9,
0x4233974aec01ef3f,
0x2830d82f7fa4d8f7,
0x0851ebd0df664097,
0x5d904009f7d12131,
0x08d1f931d31fed4e,
0xa746f749df771700,
0x048cff99d45096ea,
0xef63f182a2156382,
0x5e088455191d69a4,
0x2b00e7f771b17b7a,
0x5dd7f846be24f7f1,
0x35584b31f9a5cf27,
0x9eff40be20affa8c,
0xc10ec0d010709618,
0xcff8d1723987eaff,
0x3ec1805fcb75b0b7,
0xdf68fceea3af50b7,
0x91cff8f33f995405,
0xfeffc13d74cef545,
0x2bfe4fefd711c82d,
0xc99e67f4db8c87eb,
0x04f3a8ff027fdd1b,
0x6575f93fe8ecd657,
0xbb33fffdfe224af6,
0x3748e15fc58cad6f,
0x2f7f502088f7fe75,
0xf771d090c76f3280,
0x465f20771029dcdf,
0xf1b8e04b9fe03fff,
0x723c77a27b287773,
0x42a1fe9afaac1ab5,
0x0f70929b66ebf9ff,
0xc8316d67fbf19df4,
0x8af611b67fdc36ee,
0x3ff3d13edf7caeff,
0x8ce6ed5f50c11eee,
0x547e2f00160d5622,
0x3d761996f3ed65e7,
0x032b376408bfe8ff,
0xa80a5372ff3a22f3,
0x19db8928af7bc0d6,
0x3ceac26309fdad1e,
0xe40e527243160cf7,
0x84d2fbf4577f981a,
0x7eff8848ad26f4a8,
0xab246cbc01f71448,
0xe808fc7ef75fd243,
0xbffbd83f60a64cf6,
0x2e4d74c17f3315f6,
0xff4a38f37f16e736,
0xf1ef623ba19ce55c,
0xf906f3ff800e1313,
0xeeb2ff93083faa07,
0x38840989fa7348ce,
0x19f7fd52657791b1,
0x5f09300cfff6ff0a,
0x444759b26fc4f305,
0xd50067661ff4d368,
0x17fc6957e0aed047,
0xdf7fff47f31c7edf,
0x1a7f0088d86728ff,
0xc0997507fffadfec,
0xe024586ffde1ef33,
0xd00512382037c991,
0x7af59deb77d9846f,
0xd07ccededd4d5bff,
0xf96da888977b9b7e,
0x933be9ffaffa3840,
0xf00e60caff5dfa2d,
0x40f29d1d0ae77915,
0xb0666461d3fca16f,
0xda2ebe77ecf71808,
0xad035b00c0bb9fe6,
0xc846e287204e02ef,
0x7d6f8909d0ae0ff7,
0x87ef6190904e7316,
0x9b1d2d3385b6620e,
0x410c8ce390f8f7e5,
0xff8b0e70484fb542,
0x58feb13c0e93d83c,
0x60b3847fedd28035,
0xfcff8bf96ffd4046,
0x11b6fef601b84816,
0x4d074a3be13af233,
0xd97ee5138ef4599b,
0xb8ab55db0b6f8401,
0x328bc98554dc9a3f,
0x4428107efc09f7ff,
0x100159d355471c87,
0x28031823af6719df,
0x880c261cd98c4888,
0x514d89ff0d507ebb,
0x3314640757a5bf7f,
0x7e36b2638a2a12ce,
0x320bf23ecf17710b,
0x01fb866bda801046,
0x34f9f8914174d790,
0x37b31930f7d4d00d,
0x6f61016f098e6c13,
0x58368cc2631ca000,
0xb110040004b7198c,
0xe0ca91085def17b9,
0x1f30f70c57f9cfe9,
0x0df5d316e7dce5b3,
0x60d869b95e83ee97,
0xb9ff37ae92d3e30d,
0xddb7667c709dbe71,
0x75462ce5f313566b,
0xefce3340152f9bca,
0x5f30c8f367e3b0bf,
0x3204e7ba189138ad,
0x0eea7607ccf2c61a,
0x80fc6c2311bffed9,
0x01b346ffc878d337,
0x6dd1640b666581ac,
0xf6709fac7c7a0023,
0xc822fff3150babc0,
0xe201ecd779120544,
0x3940894c7c82e6fd,
0x9fdd11ef28688827,
0xea00fe6293c8c104,
0xeb41550f51ffd418,
0xffe1b524ec333870,
0x617f3f3fc27fafd5,
0xdbf59df34f798eff,
0xdd3ffdffbefd96e4,
0x6131f2b97089e364,
0x62049020f0851bc2,
0x5ffdcc1efb3409bd,
0x42ebb2953ab8633f,
0xffce08748811d780,
0x2e81ffd726fe2a44,
0x4156ad4f68708b81,
0xd11fcd95cd930276,
0x037ff8179fec10c2,
0xb3dddf87c6776008,
0x85dcfb7d11618ee2,
0x5007b52f4cff6173,
0x4dd89d8e6c004546,
0x3660e6d564fb7e90,
0xe1e071019b465da3,
0x5a2b3bc6e4242838,
0x76c04a8d57f4fdda,
0x3134dae8ce063e83,
0xc57f23a840768e61,
0xfe1aaf8e2f6b5cf1,
0xeea18a29f10cb152,
0x42ba4fdc34f93ecf,
0xebe17f86bb311043,
0xef78301092c4dea1,
0xf10bbfabd6562840,
0xbb412e1880a08681,
0xf1b3ac4c9e612ee8,
0x57919db7373708bb,
0xdc50bb75b9d29ce5,
0xd7a8f86365cdaf63,
0xb9ffbf14c4f104ce,
0xac628cc15188269a,
0x13f5b5e13e78ee2b,
0x503df7c98da42ac0,
0xb37039c17017dd08,
0x37398d41d4cff865,
0xcd801d063466c50e,
0xf65c49b77a0da7f0,
0x920fd260cdbeaf9b,
0x4cbba7093c08d471,
0x8dc90971506e5519,
0xb349e7e5fb175d0e,
0x664d56e0e0230951,
0xdee9da64de0c194c,
0x57809fcec87365df,
0xda2c2ffcdbc8296b,
0xc9021f3ce265b8ac,
0x27e1071373cdeea1,
0x63b4629f2118dc00,
0xd824de5441ffb331,
0x7c423b6a208474c9,
0xe9f9e409e66e1458,
0x6ed4883c717b84b0,
0xd7ba5a6ae531fc30,
0xdc847b55c0135c69,
0x592ca5eb0ea69b6d,
0x3628d8a890d1a59b,
0xaa265ff0563730c9,
0xbae69e8374362de8,
0xd72c42601b2a3029,
0xc40041b3e1ac81ba,
0x48a4100ddcd15320,
0x9e81430e2a58b71f,
0x29536b25bd1648d9,
0x5970a121c6478bb5,
0x4001745704da6d6f,
0x310fe822fdcf0728,
0x1c1108c056e0b065,
0x7370d774e7410620,
0xdd7fc49c90a25eec,
0xbfdb266852cc1c01,
0x3c131bb0de04c77d,
0x73e2d262fc1ad84e,
0x490f2b2839c190f8,
0x82ef74e46f554c18,
0xb728b45bd32f6fe3,
0x5062026b5cbd26ef,
0x5cff0f646f02eb11,
0x16003332058dac80,
0xd193ec932f78159b,
0x0440913a5ddfce43,
0xb42edd0f1823c617,
0xdbf6e006ee6731b8,
0xefe30773cfb0ceb5,
0xcd223111f0ebd779,
0x015e4db70409823f,
0x759703d3fb0b8f16,
0x2e4c2721cd3ba911,
0x699ce72944550ffa,
0xff217e42e59c8067,
0x4e0edf016400f55b,
0x063527bcb6139e32,
0x3f006fccc8100040,
0x3a00eefd04602d68,
0xd810ddf398644aa4,
0xeefa82cf3f2a472e,
0x01ffc91d7cb1892b,
0x676622a5cb99b034,
0x140ba9b2b6f1dfa3,
0xd6135cf322eaa900,
0x447c8824f90b8a78,
0x2927f099dfff0106,
0x33c71525380a1a3f,
0x480435f2666355e1,
0xb13faef36117d5d1,
0x2a0a4c03fb800257,
0x3b6099c6e00d4ef6,
0xdc8374f2ab78be61,
0xfebf36830f9a0300,
0x53d2fefa24f6bd42,
0x0c71a293f965b908,
0x8ef68c42ed8e90a8,
0xa30a6692f035af29,
0x4ba2c0cc61614496,
0xf14c78047710d0ef,
0xff88de61ce40f4d3,
0xa6ac0640ec39bb00,
0xce1051b11de947bc,
0x8d19fb6acd1d5906,
0xcb7427d33cae8199,
0x4e543e0c3994f67a,
0x40a0cae8eee0da9c,
0x16572f35fd8aa55c,
0xc2d32c490f7f38c6,
0xf623e755dfc5a5c8,
0x2a25f50ea7394e66,
0x86a80a27b085654e,
0xe9d3278fdfd4bbf5,
0x5bb508a1e0f45fc8,
0x4107ef72382e012d,
0xd898ba90371e05da,
0x0a452bb5e9ddb9e8,
0xf6aaf1042bf1f9f1,
0x6029000f23a49054,
0x261d2034ee8d8098,
0x996bcbb91bb8b719,
0xe82abbe36f08ffc0,
0xd7ecc703a4f4f814,
0x7b60e5a8f9c2840a,
0xf30c90c8028b2e7c,
0x0f9deccf5162de32,
0x0e7c2bf3d9c491de,
0xf73f5dec26b3cfed,
0x1f38748805006f82,
0xeadd977f98080ebf,
0x2a04689c053562ea,
0xfae31c67b1107ac7,
0xc9b65096b505d049,
0xcf764641d012f32d,
0x6b7f6674ce3509ec,
0x6ab2bee58810ef7d,
0xcdd205d7a37fceab,
0x3ef390abe569d37f,
0x35763f9403336cff,
0x06f95136c7185c2b,
0x8aff3f0beeee1a01,
0x57fd4189e76ff788,
0x2cd790881cab32d0,
0xef718f49fdb9a890,
0xee5dce2acf0ccab2,
0xe745ff95c67d0fff,
0x2df08ea90408ffe4,
0x3708ce078b3068e1,
0xc3ef9f36700d766c,
0xaf77d004eb71adf7,
0xc0026e66b1b0c5ef,
0x71fbaf0b7300874a,
0xeeb2b99f876d7acd,
0x7bbbdf317ab8bbae,
0x77ecef3737fc06bb,
0x5fcecd08af704703,
0x3d48ca7311762ea7,
0x122b545ec650bdcf,
0xacc5280cb4a51451,
0x3f94ac9eed524090,
0x0808eedb44d2c10d,
0x1e001f716140940c,
0xf1defebdce866f74,
0xfbfd1dfa43a6b1ed,
0x877fa050f108eabf,
0xf6bd67711d9830f5,
0xac6ee67f7762813f,
0x70020e78f47faa00,
0x73d61c180af67e66,
0xdfb77d008731e74b,
0x508bf82feffcb908,
0x40df3d6fe68e7c10,
0x154b0a6b3604974c,
0x4c7f103a80b41665,
0x907fcb3ed005dfd0,
0x3bdd15defd7f4445,
0xfb9ca902dd08036a,
0x203f1010b988fc32,
0x8340600dfcff4810,
0x744fc54bcf55edbd,
0xe8b594eea94c7f7a,
0x0a00609bb7eb7ff9,
0x972e3aff468f180c,
0xd01fa800011bf3ff,
0x7ff94c0da0bfd188,
0xf9eca1d859bf9831,
0x0931affb5eb8da09,
0xff023b01817f8519,
0xce2e089700c08194,
0xaf4e280301023019,
0x1bfe00beeae8a7ad,
0xf791eb63a3754bf9,
0x0119ff99cec627ab,
0x10251ceb80434251,
0xe966fdfd54e85ac8,
0x00e65cc9ad1cbbe9,
0x00ffaf10f034770f,
0x3a77efc968048b1d,
0x6f9fd2f8930c2bfd,
0xbe6bf2874688c9f7,
0xd7fe5def377f16b8,
0xf3160ce61ec889fd,
0x7155070c1120cd76,
0x4f65d47dd56eaac9,
0xec027bb306085ff7,
0x28de091cf75cc5fe,
0xc9fe700cfdd978ca,
0xeb1a897d4342b081,
0x007f0a7284bd0ec0,
0x0bd7dc8ca507a5ff,
0x77e6c063315b0333,
0x0b99bca5efbfe07a,
0x198abba3ded651b9,
0x9f572d9671661df6,
0x62030cc895c71030,
0x16ad6019efec00ca,
0x91437febd77c2019,
0x423056ee32102f21,
0x7f795ccc033ffd64,
0x11356d80612ecdec,
0xdfec333f6c37efb8,
0xbdc3bfa5ff21fba2,
0xd7e82244203b95a4,
0x131ff779f470ce06,
0x258491480130b75d,
0xdfbbff779f158665,
0x30f78d1ce7daba8e,
0x009668f4e30323a8,
0xe275e611a0f4c62e,
0x225fd510e7f177a0,
0x0ce8b710774f3ae6,
0xa1112738fe23989f,
0x07742e7063d8ff53,
0x0d9529df6000dcc8,
0xc441e5df2fd705ff,
0x35ff8fff4656e6d0,
0x7bbf093ea6e6c110,
0x4dfc960b1c64f7bd,
0x0085063c612c1131,
0x7f8e3f65ced79a92,
0x859abaa3c060688f,
0x270652432b7374ac,
0x2e88c7cc22cc4e9d,
0x7721ad671028ff1f,
0xc5f54cd60286afa2,
0x0060fcc7f3aa7737,
0x77f31cb06f7e0900,
0x6a9c8bd2ffbff9ff,
0x3fbf768cf11920fe,
0x50ece87e0860bbad,
0xd7e480cc25037002,
0xd278f7f7e1ad40c7,
0x68405930c8ec5df0,
0x0000000000000000,
0x0000000000000000,
0x0000000000000000,
0x0000000000000000,
0x0000000000000000,
0x0000000000000000,
0x0000000000000000,
0x0000000000000000,
0x0000000000000000,
0x0000000000000000,
0x0000000000000000,
0x0000000000000000,
0x0000000000000000,
0x0000000000000000,
0x0000000000000000,
0x0000000000000000,
0x0000000000000000,
0x0000000000000000,
0x0000000000000000,
0x0000000000000000,
0x0000000000000000,
0x0000000000000000,
0x0000000000000000,
0x0000000000000000,
0x0000000000000000,
0x0000000000000000,
0x0000000000000000,
0x0000000000000000,
0x0000000000000000,
0x0000000000000000,
0x0000000000000000,
0x0000000000000000,
0x0000000000000000,
0x0000000000000000,
0x0000000000000000,
0x0000000000000000,
0x0000000000000000,
0x0000000000000000,
0x0000000000000000,
0x0000000000000000,
0x0000000000000000,
0x0000000000000000,
0x0000000000000000,
0x0000000000000000,
0x0000000000000000,
0x0000000000000000,
0x0000000000000000,
0x0000000000000000,
0x0000000000000000,
0x0000000000000000,
0x0000000000000000,
0x0000000000000000,
0x0000000000000000,
0x0000000000000000,
0x0000000000000000,
0x0000000000000000,
0x0000000000000000,
0x0000000000000000,
0x0000000000000000,
0x0000000000000000,
0x0000000000000000,
0x0000000000000000,
0x0000000000000000,
0x0000000000000000,
0x0000000000000000,
0x0000000000000000,
0x0000000000000000,
0x0000000000000000,
0x0000000000000000,
0x0000000000000000,
0x0000000000000000,
0x0000000000000000,
0x0000000000000000,
0x0000000000000000,
0x0000000000000000,
0x0000000000000000,
0x0000000000000000,
0x0000000000000000,
0x0000000000000000,
0x0000000000000000,
0x0000000000000000,
0x0000000000000000,
0x0000000000000000,
0x0000000000000000,
0x0000000000000000,
0x0000000000000000,
0x0000000000000000,
0x0000000000000000,
0x0000000000000000,
0x0000000000000000,
0x0000000000000000,
0x0000000000000000,
0x0000000000000000,
0x0000000000000000,
0x0000000000000000,
0x0000000000000000,
0x0000000000000000,
0x0000000000000000,
0x0000000000000000,
0x0000000000000000,
0x0000000000000000,
0x0000000000000000,
0x0000000000000000,
0x0000000000000000,
0x0000000000000000,
0x0000000000000000,
0x0000000000000000,
0x0000000000000000,
0x0000000000000000,
0x0000000000000000,
0x0000000000000000,
0x0000000000000000,
0x0000000000000000,
0x0000000000000000,
0x0000000000000000,
0x0000000000000000,
0x0000000000000000,
0x0000000000000000,
0x0000000000000000,
0x0000000000000000,
0x0000000000000000,
0x0000000000000000,
0x0000000000000000,
0x0000000000000000,
0x0000000000000000,
0x0000000000000000,
0x0000000000000000,
0x0000000000000000,
0x0000000000000000,
0x0000000000000000,
0x0000000000000000,
0x0000000000000000,
0x0000000000000000,
0x0000000000000000,
0x0000000000000000,
0x0000000000000000,
0x0000000000000000,
0x0000000000000000,
0x0000000000000000,
0x0000000000000000,
0x0000000000000000,
0x0000000000000000,
0x0000000000000000,
0x0000000000000000,
0x0000000000000000,
0x0000000000000000,
0x0000000000000000,
0x0000000000000000,
0x0000000000000000,
0x0000000000000000,
0x0000000000000000,
0x0000000000000000,
0x0000000000000000,
0x0000000000000000,
0x0000000000000000,
0x0000000000000000,
0x0000000000000000,
0x0000000000000000,
0x0000000000000000,
0x0000000000000000,
0x0000000000000000,
0x0000000000000000,
0x0000000000000000,
0x0000000000000000,
0x0000000000000000,
0x0000000000000000,
0x0000000000000000,
0x0000000000000000,
0x0000000000000000,
0x0000000000000000,
0x0000000000000000,
0x0000000000000000,
0x0000000000000000,
0x0000000000000000,
0x0000000000000000,
0x0000000000000000,
0x0000000000000000,
0x0000000000000000,
0x0000000000000000,
0x0000000000000000,
0x0000000000000000,
0x0000000000000000,
0x0000000000000000,
0x0000000000000000,
0x0000000000000000,
0x0000000000000000,
0x0000000000000000,
0x0000000000000000,
0x0000000000000000,
0x0000000000000000,
0x0000000000000000,
0x0000000000000000,
0x0000000000000000,
0x0000000000000000,
0x0000000000000000,
0x0000000000000000,
0x0000000000000000,
0x0000000000000000,
0x0000000000000000,
0x0000000000000000,
0x0000000000000000,
0x0000000000000000,
0x0000000000000000,
0x0000000000000000,
0x0000000000000000,
0x0000000000000000,
0x0000000000000000,
0x0000000000000000,
0x0000000000000000,
0x0000000000000000,
0x0000000000000000,
0x0000000000000000,
0x0000000000000000,
0x0000000000000000,
0x0000000000000000,
0x0000000000000000,
0x0000000000000000,
0x0000000000000000,
0x0000000000000000,
0x0000000000000000,
0x0000000000000000,
0x0000000000000000,
0x0000000000000000,
0x0000000000000000,
0x0000000000000000,
0x0000000000000000,
0x0000000000000000,
0x0000000000000000,
0x0000000000000000,
0x0000000000000000,
0x0000000000000000,
0x0000000000000000,
0x0000000000000000,
0x0000000000000000,
0x0000000000000000,
0x0000000000000000,
0x0000000000000000,
0x0000000000000000,
0x0000000000000000,
0x0000000000000000,
0x0000000000000000,
0x0000000000000000,
0x0000000000000000,
0x0000000000000000,
0x0000000000000000,
0x0000000000000000,
0x0000000000000000,
0x0000000000000000,
0x0000000000000000,
0x0000000000000000,
0x0000000000000000,
0x0000000000000000,
0x0000000000000000,
0x0000000000000000,
0x0000000000000000,
0x0000000000000000,
0x0000000000000000,
0x0000000000000000,
0x0000000000000000,
0x0000000000000000,
0x0000000000000000,
0x0000000000000000,
0x0000000000000000,
0x0000000000000000,
0x0000000000000000,
0x0000000000000000,
0x0000000000000000,
0x0000000000000000,
0x0000000000000000,
0x0000000000000000,
0x0000000000000000,
0x0000000000000000,
0x0000000000000000,
0x0000000000000000,
0x0000000000000000,
0x0000000000000000,
0x0000000000000000,
0x0000000000000000,
0x0000000000000000,
0x0000000000000000,
0x0000000000000000,
0x0000000000000000,
0x0000000000000000,
0x0000000000000000,
0x0000000000000000,
0x0000000000000000,
0x0000000000000000,
0x0000000000000000,
0x0000000000000000,
0x0000000000000000,
0x0000000000000000,
0x0000000000000000,
0x0000000000000000,
0xed669610cd0b6591,
0xd4207ffe200c95e8,
0x00e6457d38e1ee4b,
0x46230ac6dfee2026,
0x249e327562752e7f,
0x4ce0cf2a7e78fda4,
0x882749ca452423f7,
0xaecb570848206e4d,
0x2a49accb1131010a,
0xd591cc330d573c43,
0x304c8b243f80ef38,
0x21c2ffd4de11a058,
0x4d21110c11229ed9,
0x3cc442148061be7f,
0x8fc70af9efc09c73,
0x7cc89831bcb39eef,
0xe800840156c0367d,
0x98526625d0c99c55,
0x51cf44d1232dd5d2,
0xf26e6e2319407b5a,
0x09a4714167dfa7f5,
0x9e3d40aecac5b259,
0x512da74100624637,
0x54b34068b33510db,
0x05f4c63340280054,
0x4966b0b1696cc386,
0x7d03ca26a379c857,
0x8866807aae350482,
0x7ff4db698e7d3640,
0x76c331bdfdcfdfb1,
0xf8b64622173795f2,
0x9b2f011be6cc0ff9,
0x24e922e6eb08cc93,
0x2830c807ca750888,
0xde6595cad4f77cdf,
0x65861d10b4a08783,
0x4c5d10117b616ddf,
0x03003712aa0198b7,
0x008968461103206a,
0xead4bd74208e5d22,
0x05a8019c5175ece7,
0x8a2065cd4c8e648b,
0x5eff3d96f26b2912,
0x9e57d9c4b4693726,
0x48d7738dfddfc4c4,
0xc4fc54c811006045,
0x132c662ebe27dd11,
0xc02d08e23bde73c8,
0xe0c310464a8a5822,
0xd04120ecf633f9f7,
0xc8609fb0ebf4f868,
0x2f3181408ff7e00d,
0x6bf58cbdc5081c59,
0x01d0c51bb5493102,
0x34be993c7708b58f,
0xcc26414fda8c7fca,
0x1922691bf6e0580b,
0xd14dfed78821a3b1,
0xa7300407e88a8fd5,
0xba799813a06468c1,
0xf1fb08a6508f2fce,
0xb6ed0d2c98263f4f,
0x96dcc531382391dd,
0x773584cdb29168d1,
0x0cfe6ec0739468a6,
0xfbfd164c5837ecb5,
0xe3689276f58b32b8,
0x3a58b7ee0460afc9,
0x4fb2c21eb680538c,
0x99bf8ac410e7fec8,
0x5c4a8a499520dfb0,
0xdec1b83a866311fc,
0xbd95f34e8808fdb9,
0x8f1d6b110e48eece,
0x46b4ca9751b077b1,
0xbfffffc3cc56b6df,
0xed6cbc724bddae69,
0x2856c594065c1bd8,
0x898ffc86b2de3709,
0x463f5232ff37c470,
0xd2bc24ab27c90781,
0xb7fc9f4bbba3090b,
0xa9d09a1b45b6ae79,
0x0f8057c820f8dd29,
0x85d3109df66c74b5,
0x66829507386cd867,
0x6f429c2004f6b2e3,
0x082717aed665fac2,
0x8423947701579ebf,
0xc19e3b93ef561861,
0xfcf1ed5a66e05fcd,
0x8e6457903c5a7c78,
0x4427b1fb5ea1dd96,
0x0178e78e59581f0c,
0x04e3beda6c5beae2,
0xd6d00e84ef60a74c,
0x4ecf311fef9b1aa0,
0x7d7786d5ac6bd42b,
0x8c363e41009f53e4,
0xef608a6e96472fb4,
0x158ed6f5cc3fce65,
0x535cab1ee730f6c1,
0xd93ebbfafdd35f8c,
0x5ed8f8bc2fec9cfd,
0x05764f7717cbf270,
0x8ec9b2fb3f508e51,
0x37e587f951860780,
0xfc2465d851930f91,
0x06a625ea66888274,
0x1038007f041686d0,
0x0c09299b54a0705f,
0x2052b2bd61750eff,
0xf756aac8e7f454e2,
0x8352a2675df7ea77,
0xd8e5c8e25210e7d5,
0x9ff30ceb02fcdab6,
0xd4892afe1d21477f,
0x1f4450341fbe69e0,
0xdae477c418df8af7,
0x3ee256a515a3986b,
0x3ee3979cefcf08d0,
0xf7625826a5be9aea,
0x448baa7277f113f4,
0xb7c631674157ae68,
0x6fb742cfaef14dcc,
0xf7d1b370ad088fc4,
0x543276745657097a,
0xea2a9e783e6802bb,
0xff9d600e66b1bbbb,
0xafff502dd0f2e28c,
0xea82a200f32a40ec,
0x3fb3cfaa2660ebda,
0x7edf1d3bee33d18d,
0x3ce1eaee6e112349,
0xeee23ca870911a21,
0xebcf7be2c691d7c1,
0xdf9e6f78e27a2e1c,
0xbeecfc033fede459,
0x7b81a25ad0457fbd,
0x7efdfa58904c005e,
0x6e6764218eff2f60,
0x2bf9a641bf6c6588,
0x6b1cf921c9daff11,
0xa208173f62e03e06,
0xf5ef77df6dcc011d,
0xee3398b284747f19,
0xac927cd87440ffc9,
0x2d07279b77b9bee3,
0x471dfc9959289066,
0x5ba6c0e43f6750c4,
0xcc6a2f39f7391b01,
0xfd8fee31dc80068f,
0x3fc2543908988483,
0x1ec09f9e0b3e4ecc,
0x79df61dc0098a519,
0xf198aa3fd9bbcaee,
0x26153070120a0aec,
0x0be353288e988701,
0xeee5bf1bf7b62a47,
0xff01fb817e06aca2,
0xee4e536dbdf6fd83,
0x27f3ae2ece18dfd7,
0x3d9d4fcfa2c8ff22,
0xff8214cd8ef08830,
0xb9dd2eef2c09a6c3,
0x3ffd8ee6efdbd645,
0x1374eb8b13da0310,
0xbfee33236688ee1d,
0x67e733106e875f90,
0xad1f8c2c1fe72bd9,
0x3c0ebdccbf91de01,
0xfe89eeb323103e5e,
0x2fdba0c86fa97672,
0xbe5d90e52bbaff8b,
0x8c9f0f1f69d037f1,
0x074ac7376e0f1362,
0x0a1686fcba70ef7c,
0xe2ff11c985fbfcdf,
0xbd076fe2ff090218,
0x53196efe7437cf3d,
0x942a31367e7327ce,
0x37b67d1741c4c08c,
0x9580bb8f92892206,
0xdcbbecb12f7f8d04,
0x0f07ef31e66081c2,
0x1409c988474113ff,
0xc618bf7dffe17f58,
0x31b6bd2f1f08acf7,
0x2a8f6726e940be75,
0xcc87ca778004cea6,
0xd0107fff0e9308b3,
0x36e7ee1951207a0b,
0xd54c11ba06f7067a,
0xcc7541de5f733948,
0xc8b3c9b6efd0070a,
0x30e58800146900e9,
0x090f9a0a196f8772,
0xf04d46b2d99ffb0d,
0x5b303510f34d3f49,
0x3316ebfd8fc688c0,
0xd69300ae7f7f0bf7,
0x15ff0db49eb9e116,
0x500341ba19f989f3,
0xcee0979d1bd9f97f,
0x07d8aaee61887fd9,
0x2cd8b8a7adb32ee9,
0xa6ff2837fe775895,
0xa0228e2860cd6122,
0xe2c8395c827f0f34,
0xbde42002e59d5bf9,
0xfcd0b578354c5259,
0xfe9681cdb78a7082,
0x9b19ff0290bf55b3,
0xae8d8021af764ff3,
0xc91bc9453da45111,
0xbffd833c8db7cdd5,
0x2fb5a05ffecd3aee,
0xcc10a9aa94b39980,
0xc4c313f513cafc53,
0xbd8996628df26b3a,
0xbd17f2935b0351bd,
0x884e9305ef4913f7,
0x6f6f45b662f85723,
0x317189947bcdaeda,
0xaff746cf8ff4d475,
0xa4a3910b84892d91,
0x9fde77b0b29de4c9,
0x9e3c7100e97bd848,
0x748a6469ff7a544f,
0x87f112e595766777,
0x06512cd32568fb56,
0x0a0242f771f359c5,
0x0a8dd7d7071d259f,
0x16579508048f0e83,
0x1c1b27874def3f7f,
0x37959d332fd1c60a,
0x51917f1280ec18e8,
0x488ef9b8fe8f3701,
0x882a2aadf81a2b8c,
0xf6804ef40e8fb196,
0xdf6e894a0ff21eb9,
0x24fa009303ccbff1,
0xd1f115cc93eb4756,
0xb7ebf714ffedfa08,
0xa07f8c2c0332938f,
0xc3573ef5f1a9a77f,
0x3a770f7514f3b97f,
0x8c4e90ddd99e8880,
0x023bed7505d0956f,
0x4e92d6c7733df7bc,
0x8812418c33e41e59,
0x14e53ffdbea4176f,
0x58cd9b36be68577b,
0xfebf830293e51f1f,
0x8a3e85cdff28af0c,
0x930afa7999969ba8,
0xbfdf53037e7d6170,
0x084d4c221df60183,
0x1121080083710545,
0x88a8dfc0142bafd9,
0x3ae60c9bef099106,
0x9cce60064d7f183d,
0x73f40ab5209c523f,
0x60446854aeffb34c,
0xea09a8c172c93b71,
0xce6d47e7bc6f2d89,
0x416cfcd89808227f,
0xff6ee00c809f1573,
0xcfff0068afdd70b6,
0x6a044545c0f2048a,
0x88086deedd3126d7,
0x813a81cd32af7030,
0xf1ee6ffd008c809d,
0x6e0c902a1310e5c9,
0x8ecbf00096004f2b,
0xdda789ff543f8104,
0x4fbedffadc709911,
0x93ac483668f8418e,
0x2407392aeff11f7b,
0x7f6d9a6c929173ff,
0xd31380ff804e5608,
0x8aa956340f2b0274,
0xc3f77bdd39f9b307,
0xbfc83db7d9b84a1e,
0x1488081710c8c87d,
0xa0d43ec2bffa1186,
0xa2cd7dfe0e4f3013,
0x00886d666131feca,
0x7a1551c110b2e67f,
0x487d4d642fe8c81c,
0x04115d6f100dbe00,
0xf651e508004cad74,
0xf163246fe518a631,
0x9d26c8296b1a74f5,
0x5e6c3f9643689ff1,
0x7bf11faf0f784cff,
0x572f8e784ec81602,
0xedf36011cb0c5179,
0xc90480e0ddbf77f9,
0x12607ce7da94d812,
0xbfff0f307bf86ca0,
0x909e360d96c07307,
0x8085a91e97616488,
0xb6def7ff3eab6868,
0xd3333fe63326a754,
0xf2376d80a5eeffea,
0xffff4840052f9100,
0xbeeffebe6b39ff21,
0x2600f39951bebefd,
0xc610425ddc27d937,
0x41006e11f0cac091,
0x0411f4b82f06c00c,
0xcf200ef5802e0010,
0x10fa987da7b35162,
0xe842bee39a3cf244,
0x2953eee25ed888ae,
0x06badef736173e14,
0x88317911dc99c81e,
0xd573feffcff80c28,
0xf120bee1127f7f0b,
0x6866ee476ec430bc,
0x1b2884405aa54027,
0x802832f7d709eb33,
0xfc7326ff4648e223,
0xc833b627f0b7745c,
0x593ba357cc4d3dc4,
0xd35be30a8efa4620,
0x3f8d9ed230c349bf,
0x8c85b6608c8c7400,
0x2f103a82b72b322c,
0xee81c0a741f484ca,
0x4d1079dcf6e4ec01,
0x4d76c5bae5396fcf,
0x001156dc22cd96c8,
0x1647ccc6e641dfee,
0x5c16a239bba20459,
0xf210a5e71059238e,
0xecc304caff386e51,
0xdadcff773680aa2b,
0x214fd4c06a3e5e36,
0x600d0006b74b7c0d,
0x708625c68912ecf9,
0xff08def01a608367,
0x006e17a58ce49ae0,
0xa601aad7d6141437,
0x943ff7c3e8c05441,
0xecbcca4ce4891e44,
0x03568670780354ea,
0x9f0445d64b1054c5,
0x91f8e7873b516e04,
0xe833b2464533d601,
0xd57ae2beee6b878f,
0x1ec6e40d60ba9be5,
0x3440e0f13d7f562d,
0x83d15820bf767f6f,
0xcf6473f326fee987,
0x4e8e2d905e9add56,
0xc440262df9780380,
0xb6911bff8e6e5e00,
0xf6fbf8ce10ffe22b,
0x06cd1eb3740b9263,
0xcc587ee3324db739,
0x4c7b45e9fd6044c4,
0x12e234cb126c2bd3,
0x0a62ac8a3efd0328,
0x102ac3fe9f9b85d2,
0x6cc9bd9f1602f616,
0xac86203a007e2fab,
0x7ee5b17c8997ece9,
0xade084ecf9394c63,
0x5262c722771c5741,
0x4a04c7ed00eb0cc7,
0x5dc07627263446c1,
0x164c8a89192a6d8a,
0xd874ffc637d8c6b7,
0xb335e7db0051556b,
0x4cddd8200f37d3a7,
0x3115155d28d974e9,
0x748020319938b331,
0xee40f527e07f6413,
0x6fc58f48fdba454e,
0x46bcf37046cc7fc0,
0x167b4db5020e09f2,
0x22afa2a80088bc6a,
0x9811ffc0efe23399,
0x7da3a68750c5ffa1,
0xd05f4147bff56f34,
0x082768839cbe9583,
0xc06b68998bde519b,
0xee08778c8bfe1505,
0xa6bde77f3d01cbf4,
0x3b890f6ce0994885,
0x8dbdaff6f1094723,
0xc660c080ffe4abd5,
0x59bfd1a558c58d0b,
0x6ef0bd70be1befff,
0x3f7781265ffb874f,
0xb3b2efbf215bc80e,
0x4657e4cc6ec6b009,
0xf7bbc7f2ff6fef7c,
0xd7b748c2384aff2f,
0x2343912e5ffb0096,
0xbcca83e733011f46,
0xc2789e1fef5e23b6,
0x508bbe7d87b7f114,
0xdbbe03cd813b9643,
0x9c05d818017f43fc,
0x141c3ff732fefff1,
0xe010f5ddf2dca571,
0x488659299ebc6f71,
0xc07e6814b0cef452,
0x7765ecaa9fc69542,
0x44185a82e834efbb,
0x112b761094088d11,
0x4df588dcdff49f71,
0xedecccdec386da4a,
0xf713809695be4da6,
0x63000f5b7feeb81f,
0xf772bffcbfc85087,
0xef525df13f076d86,
0x4cfe3abc78c7b40f,
0x37defbf76df61fd2,
0xf73dc3a18ee00bb4,
0x4e7ccfcd82f28f55,
0x52d076249b2fd6fe,
0xb332e27ec8e27f2f,
0x207793bfb4989018,
0x2afeefb4341e1f3f,
0x51e03bbbec665137,
0xef5feb45215e3f61,
0x60bef9942d101dbf,
0x0defa8d93f34c10c,
0x373360035f712bac,
0xbf8a2b39e6ad000b,
0x003c4c7f21b17605,
0xd995aa4bc2aedef1,
0xda1acea876f7dfe4,
0x905ec04af7142553,
0xaa8e0f7bfe0117c3,
0xcf54cdfdbff446e2,
0x5917e34b07f33efe,
0x20da35f4bfe2c368,
0xfb9b58d82ff491d0,
0x3bfe9178bf53ddf3,
0xf7ba753abf20b101,
0xffd0e980195dbb13,
0xdf5a4dfafd65b71f,
0xc8c045a7767f26d3,
0x632f0038215fcf5c,
0x077f1318a7fb627b,
0x100d44e1fecd34c0,
0x7798420fde326fbc,
0xa2faee23bfb66f48,
0x9d347efd501d2d4e,
0xdce7201c21fab462,
0x00f0400a5488b54c,
0x7fa2b1802bf9cf54,
0xc1cf9e295e629a3a,
0xdfa872eaa9f63a6d,
0xa102a2f62fb33f51,
0x40aedecff46610d5,
0xc186153993f13a7f,
0x3138602aa7e16a0e,
0xfedea847208a90ae,
0x84ccd8a5d574607f,
0x987e33b130ebeffd,
0xd509de44b1dff089,
0x6bff21049bd0924e,
0x361adf8e40265df2,
0x85d0ded753e66fd4,
0x0dce2334ff938588,
0xafe77bec3d80a20f,
0x7b14906e05f75ffe,
0xbce3e46f69bdb600,
0x0610bfd73b3a7d8d,
0x5ccc0bf649fcb283,
0xe07b119efa33c4e7,
0x26cf61e134ea31ee,
0xb3794aaedde268ce,
0xf371539c12496779,
0xf4ae27683e6bb2fb,
0xbefb28a645eeb9d2,
0x791c830b1099094c,
0x949d42ee8777d438,
0x75c0cbfb97e1b0b8,
0x8db3ecba4ca4d233,
0xc0bf890af54df533,
0x09ca0af0b13200a0,
0xed77eef767f98d91,
0x4447866047e74081,
0xa4807f23def1f46e,
0x9c01b1779d66ecfc,
0x77ff48cd429ccbf6,
0x13d2567653a173cf,
0x089dfcc28529466c,
0x5b84c706b08edaaf,
0x8c106f7fa242ddd7,
0x54ffd8ea04ee3241,
0x8558309d4f4ebff1,
0x81095e75ba001002,
0x07aa1e01461de0ea,
0x7df26df911d6fba0,
0x7d0114fa0df9a723,
0x57e64b8f4f4c1f18,
0x34b910b49cdcd951,
0xc60ebbe662bd0843,
0xeee8cfb6a3c16919,
0xe171c0505c9e7bf5,
0x614fb1f300e74ad7,
0x0aeb076df4feccfe,
0x388342ad728ec22f,
0x214f88fedb8079f6,
0x43f066930472001a,
0x718eccc53e3fee39,
0xfba22975f1f79056,
0x193807e05fde4bc8,
0xebb0bd1fa01440df,
0x135730f0422a4c0d,
0xde87e240060346f5,
0xd5e647b3c4fe0cf0,
0x5eec341778e883be,
0x4e3a6c038d79f3c8,
0xafd64fc41945b594,
0xdcf0d25fe60dcca6,
0x7a2f4b1d7ecf9698,
0xcaea15de9266b980,
0x091704ef76bd1bcf,
0x48554c150f730600,
0x1ec001dd33ff455b,
0xf6ce5759f99d6903,
0x96d2ec1f595d2f3a,
0xcee01bf71211e8c8,
0x88532de74398d4d6,
0x2fb360b69732401b,
0xccfe018b84252b18,
0x08610756ee4baee0,
0x8a2b2e7c7df3330d,
0xce1e87c6b63f8bf4,
0xfe54792f6cfc144e,
0xeaea2b7364045f94,
0x7ec2275d0e0f687e,
0x4cea838c9c0655c4,
0x98f3770756ea4ef4,
0x8fe5a83b2eb12ee1,
0x5f9fc5f7ebdd8910,
0x303880c5d9bab2f1,
0xea368031c8efec82,
0x2948e7626e8cb4ae,
0x5ef31ffaae317e84,
0xfde7243efb1808dc,
0x882bcece8b2de41a,
0x0b92055b6be23e51,
0x997d80162b9a2004,
0xcceb0f9ca3e0df18,
0x930cfbfdc483c9c6,
0xcece2050707e2bfc,
0xdf5d08624dc360b1,
0x5810a40bcdbe33d8,
0x07a27d32c0ed55ff,
0x5651032cf800bca7,
0x5818a7b84850daf9,
0xf63cff004fdb8664,
0x0fe468e68e820683,
0xe7a8927803b48c02,
0x01cd4c05de50039d,
0x5fcddfb277933a58,
0x5338f1d5758df873,
0x027e2da6dcf32800,
0x10cd8fcc7f3f712c,
0x8fb11eef08f0c516,
0x19e637db4590adfe,
0x4e76b056dff3a94d,
0x31b3aba5ca7a6d70,
0x6dc85644aedc68c6,
0xce4ea4313c4c86eb,
0xfd298ff75c3989dd,
0x17a8a29eb954ad7f,
0x8a895fe88fe23923,
0x3ea0fd80e8ea3361,
0xbf7ac0cae87cfc63,
0x86ba6f83f85fff00,
0x7de1991bbfe26d0e,
0xdd6039159128a322,
0x22113a7d3469b6e3,
0x7f23c15c81a6bfc8,
0xd9192e37f080b4c6,
0xbfbb622681e94dea,
0xf08f484bed42c20c,
0x070dbe78080efcc1,
0xbfef3559bfabae00,
0xdcb5f2ad56b2fa18,
0xefaffd5c037670bc,
0xfaf67391ed2b839d,
0x6729ccaf50178630,
0x934ad74b50edcdc2,
0x6f0b74e1edca61cd,
0xf730bf3ed5f22adc,
0x9df53dd1b5c06356,
0x0e0a93a8fb218238,
0xff5c794dd02c4a1e,
0xd2e45624fdee7fe1,
0x1880363bfeef0318,
0x7bd8d7e6abbdf28b,
0x00cabecdb274f829,
0x7e3d5b07040c077a,
0x76d530e185ac709d,
0x4fa903b8415f0a22,
0x214a7a4533cef7ac,
0x136b7f7789f0f73a,
0x93802e4aa0a0ec70,
0x8196de0f06afa394,
0x906ad42ee046b248,
0x198fc731ce7d640d,
0xa7b6a9dfd982e508,
0x633bd79df008c3dd,
0x03d8df3c3c32bae8,
0xefd10000a3444306,
0x0484073a28cfae33,
0xa8143c445bf91e19,
0xf118baec27608687,
0xc91f3fc8b1daaee6,
0x6382c8e55ea90993,
0xddf52a5a3bfc06e9,
0x939b0e648e682100,
0xd5c5fcddfd0dc05a,
0x0f1710ddf67ebf5a,
0xfd31597caddbca19,
0xbe54df619562113d,
0x72091aa2a9f9c251,
0xffacef91ef56bd1c,
0xdb426e3dce9aac75,
0xf3a2f220c1f0979e,
0x8f68be206c47fe19,
0x867282c02e6e78e2,
0xbffff3c27187f948,
0x3280d35cfde98e28,
0xc3f3fbf01124ddd4,
0x92023fd282081f18,
0xa2d576ae41521bb3,
0x4f57f2313626b792,
0x08c8430400a3cae1,
0xf375c32b888bb8a8,
0x672052d0138f3a86,
0xccef95fe719648e6,
0x9750d46e09c2d8ef,
0xa4f42362e9baecf2,
0x3cde2f8f31193767,
0xc675dc2e81f6eeef,
0xd9ace407db881219,
0x07ff8b81fd0760c7,
0xf9c0b21e6fbbb723,
0x61d1603207f2ef50,
0x5aa398d32f5c0fa6,
0xefe19723778c80b9,
0x4338656893027bff,
0xa08c83436136964c,
0x375fb3d933b50101,
0x1f4e534028d3b2fc,
0x01f07da99c3e399a,
0x27e051e635c69fea,
0x9b918657cddc7ee9,
0x6ccd70df3d81a900,
0xc3aa8d26f788138a,
0xa0a2003a27cc980e,
0x1e00e9a259f6b02b,
0x16c0521a36ca59d9,
0xbbb8ffd65c80edb3,
0xa33748e4fab7e4b8,
0x440afb7f29cb6556,
0xb269f4c20cd8deea,
0xde51dcaf7623667d,
0x91dd92d314ac4844,
0x7a49965cb3676815,
0xf300c7e9fb09a6c0,
0xf3e4aec60ab6abc8,
0x112e1adafd7be5e7,
0xbb39d8bbf18524c8,
0xfbff586ed7cb291d,
0x569e9841ee08dc8c,
0x9c623236801b4fe9,
0x6fb42b0a68a8df88,
0xc94f6d2e9c67cc93,
0x76c8fa5de8b87384,
0xbdc638382ae473e0,
0xf6c401a88a21f96e,
0xbe1b359bcf8b863a,
0x97eb2de07ee205e3,
0x5e563b709c43ae88,
0xd890c8a690c8d755,
0x57b54dd29f3d7e21,
0x7338ef7e14730242,
0xa5e388be2466468d,
0x332e79034442db9f,
0x762a88ef7470a8bb,
0x4da8ff226deb3286,
0x3217799253323d61,
0x829e7fbb194c8e56,
0x91d9acfff89926db,
0x7a2cc9f8db73345f,
0x7532ada08821b583,
0x0837e605e7ab28eb,
0x65a220620ace63e2,
0xacc44b90ea71562a,
0x30b53f0292999958,
0x4459607d31768010,
0x408a195c4d85b916,
0x10d8c3d64003a08d,
0x8adc5b56f7d5bee0,
0x14cdce7191855b91,
0x212d204dafc625cb,
0x40a2febcb08816f3,
0x21992cdf313f0099,
0x77a31f5d8176abd4,
0xd1d523220a98d006,
0x5001ffe9a8389bc0,
0x098b98c091997f14,
0x7eeef2cff6632f3e,
0x48828045a09b4fdc,
0x7abc611d5c597c21,
0x683a5228603d5f7b,
0xf9f8710354885998,
0xa2c72c48089b2ce4,
0x01601089003f3019,
0x1dc170efad996a00,
0x54102138f2bb3655,
0x5cbcc26646808312,
0x68c0104773f10986,
0xff70fd5659ee3882,
0x31387378dd7248c5,
0x401df207f96998ff,
0x116a42083fdc1101,
0x011ae76ef2db02c4,
0x2c871308f7762c8c,
0x000e9b1f7f2d68d1,
0x106b3bb000b96377,
0xca66d990a7f138c2,
0x847e2cc59091b119,
0x1010891e511781b0,
0xe719ef0205552937,
0xd0c78086100205d1,
0xf35dd371136ac777,
0x8e05be997c0da481,
0xb2bbebf55b85e0df,
0x47d9a810f9ef11dd,
0x7264801105915328,
0xaea845c0991ed05f,
0x4c27078bd5c15491,
0x1d192e925588c582,
0x361300a92781dfee,
0xb3d502c16fb04059,
0x290e08009edf0290,
0x737bfff28cd01025,
0x0084fd660264c768,
0xff64b24d77e03f70,
0x7950671932740814,
0xab500d15519c53f2,
0xb0eb3c452180441f,
0x03bf919b00fd058a,
0x1dd020468a75e01f,
0x676ee2b3d1d10b14,
0xad45bd560099c0d3,
0x46436ff600b73c9d,
0x10c4910203033a9c,
0x71593058a927bf62,
0x971322f4e83444cf,
0x210a91d4eeb14844,
0x7f33d59a7f43629e,
0x731a0edb92a9693a,
0xf528145c40e710e7,
0xd62f603e07dd4338,
0xccc4effe8c94f156,
0xf182a90b1cd786e8,
0x0810bbcd801f0a0f,
0xfb5ddfca318caa22,
0xf319f518d6e74a00,
0x6f18feba31cb6ee2,
0xaff604518e17e4f4,
0x3dbd1926810d88e6,
0x5bcb38b74ffa1fe2,
0x5c810cfb1e9b7331,
0x779be7364182f7ed,
0xbc5001ef9da70a85,
0xdcff798eb37470f6,
0xa0132aabdcd13011,
0x02f3a935df690f15,
0x731e6d9a1896f8ae,
0xd561b5fd3c44d480,
0xfd2e73c4b71912ad,
0xb13bcaa672e8129a,
0x664d95c19f7638cf,
0xed5fdf67fba0e585,
0x6f6090d86ffc4717,
0x3972facf30ef00e7,
0x24000ac4814ed886,
0x59cb376b08cebd91,
0xfb00a2ff4a773db9,
0x793fb662573cb5b9,
0x0ec691476f11da9a,
0xa3fbeb75203d1740,
0x9d7791b57ee88c53,
0x8cf63e8e8ee3fb12,
0x8400279b029d53f5,
0x68905ec088c178ed,
0xf837aa97fc31ca41,
0xa50e0ee17afbd031,
0x9ff8b06cb9c18105,
0x2e4070dbbfe5d958,
0x9c1375e6f0245944,
0xa349bc69021bad8d,
0x3b188dd0480b4fb8,
0x080b7be67ce2e522,
0x331e9f60a7e5cc9d,
0x53123d028af0e6f3,
0x01c1b5f33fe0359b,
0x434a03df731cab80,
0xd8e03ee6c00f0384,
0xc909c94087193dab,
0xdc8e4e0bb9931d2a,
0x7dc2116892e3ae07,
0x1b2e1793cd485c41,
0x804fbc7886bc56ff,
0xd96e7de911b686fa,
0x7f7f2eff0f718e0f,
0x533998d50086b0d1,
0x0a3f4cd1afe6ff7b,
0x490752f0419378c4,
0x5ebeb018f7ac5f28,
0x069c21e1c0eec976,
0x9f01132cace153b7,
0xa3aa85c2e7a2bfc7,
0x2c128d7e6f36a82d,
0x976cea11981e39ee,
0x25621c8b4ff9ef5c,
0x7f3776faaaed6fe3,
0x98b8103f7b770cfd,
0xca15d0807fbfdf56,
0x1096019ef7efbea8,
0x5899c7fb417ff1bf,
0xae6c106ae84dfb3f,
0x021fc36d03798009,
0x98453ffa7bd113c2,
0xea5f165a63307739,
0x1e2506fa0887b477,
0xba7fd43bef30bfdd,
0x2e69c87c7ff480f6,
0x115b70b36bdb9414,
0xf31128336fda60a3,
0x6747bd73fffedee7,
0x8fff88399d67e0ea,
0xcc18bf376fe72309,
0x43d37b07c3b1df20,
0x5031d37cb89a6850,
0x30c4b37bf301b924,
0xaabe27c38291d6d9,
0x1d2ad5d9fdcf9f75,
0x0104003bd64d5fff,
0xc1e8dffac336ab5c,
0xf3a680aead0992a5,
0x6e5090219839996f,
0xef73d1c7efed9016,
0x1a78ef3f6e56efe7,
0x1529808f50088137,
0x57fb7f1cfad2ffff,
0x76e14f7ca258ffa5,
0x2aa3eff2751f9cf9,
0x0271c8ab4dff6f9c,
0xfe3fbf78be6ed206,
0x5123d614af2b4022,
0x2b68fbbcec012a8a,
0x7099e1ac1fb93b7c,
0xca5ff205f93b3ca1,
0xcaf287f9af525553,
0xe92a00b9dc643ffb,
0x0bb01cfbddba19b9,
0x73a83cfe693b317f,
0xfc04dabd09bb55bf,
0x0ffd63445952198d,
0xfbf647db217c7bbb,
0xb2f3e3fbb70fe4b3,
0xeddb001e73301ef0,
0x32f6f5817892de35,
0x7f7f2905ff57741b,
0x92b8dfe0ae77fef9,
0x3c7aa06b0d01ffed,
0x418f099ee9450d22,
0x37d9a1e0c7e87766,
0x0015fd369140d61b,
0xdf51e6cfbff1572b,
0x74a2917cfff33a88,
0xf759befb2ffdc122,
0x17f1c7e5f7938881,
0x383f737b8eeebfb0,
0xdff2aa3f697a01e1,
0xc0b3881b19b74026,
0x9ee7c770b4234174,
0x81edc1a4d6bb32db,
0xc0fd3c2e2d8cabb3,
0xc450d4d4f3373ebf,
0x99d6558e8d10cfaa,
0x3267f852e0cce1c0,
0x817dfd2210aac317,
0xbbdccf9cf3b32104,
0x39985490bb2c87c9,
0x2a9268e7108b00e6,
0xfe34eb71fb0b7b90,
0xbd446ecc3ae24152,
0x1130382dbf54b9e0,
0x4ffcff3fb80cd164,
0x2551ed0e31131bda,
0x00811563b5471fdf,
0x08c53600c8a06020,
0x348a6ef97ae7646c,
0x93efccf6af7a6b84,
0xa07795542b3b1124,
0xffb7a5102f1bcfbd,
0xc912ae8edffb4087,
0x9918af00908f1791,
0x318b42693c5e5d95,
0x0503380cedaff3f5,
0x8f55ebefe30feea9,
0x1548a976ea8d2bf0,
0xb125dd7f11be0920,
0x5d1a0944fe848955,
0xf100ae05a137b708,
0x61add993d586b1b9,
0x7c8ff11ba50c6185,
0xf16da2b3e1b24713,
0x3ad00b563a4ce8c7,
0x93b35801cbd44ddd,
0xff31b05fb4f1ba92,
0x09e55c9700a0e6cf,
0xa2fa73f8d9677b40,
0x3804e7f11d131009,
0x26c4cacc1ff75e92,
0xebe244a371c0c1d3,
0x589d608c1bfb3956,
0xc786fff6978b0dce,
0x17fb7f0bf1bde983,
0x1ea853a4004e0728,
0xe506d09e9fc4ff8c,
0x019c1e1736fcbe61,
0x754d3a245e82ff10,
0x2eadfec3711f2ae5,
0x54aa88c610f38152,
0x0d4df8cf5fe311d8,
0x0e890810aad59ff3,
0x2db29b53b9eddb00,
0x9f886017de3f4a4a,
0x6056e8e3f764838f,
0x40c3bc45c51c5b18,
0x1f14a49570103c60,
0x46b7317f52c04f9e,
0x9917ff3e1054b810,
0x4cc16edd3298b3f7,
0x91ca71868ff5765f,
0x5115b9d19dcc0e43,
0x68df177af7705f1d,
0x3dd43e1e1104b01b,
0x041e54c5cd037ff6,
0x1b507efce35eae89,
0xec196ef9a188d9c2,
0x8264b31d4ee96dfc,
0x04987571f8e299fd,
0xfd79bfc08887fe40,
0xad537e67e7f33f10,
0x1b2eb9fda791d8cf,
0xcb33be80982a089b,
0x39153b7d600bf8d2,
0xa72e7329d1374efe,
0x8dd543abf78915c8,
0xf4ddffaa6762889d,
0x199d99f02dd33f10,
0xa5c0bc8e7740db1f,
0xef8e90d9912b719d,
0xfb87e99bb18f7623,
0x6a82f253513e53ae,
0x7fbe31ff81765988,
0x14f11178a1193695,
0xc10103f33269c019,
0x1d59f0540188f288,
0x999c9ce773b530f6,
0xd5ce676fdcef3b5f,
0x000089cc3bf6c6eb,
0xfee9aecc11e9748d,
0xbe18029f9ff30ef5,
0x8d9929dfdff589db,
0x5dfa0e8cab9fd818,
0x9933734b433b33f2,
0x3f3fac8de580cdd5,
0x2117cc9c7f982e38,
0x377a2baed1eb4023,
0xc42ba9f0eeca1526,
0x067dbcc514e0f9fc,
0x8111339f0019111b,
0xc513a995cd534304,
0x702d6eff5f52f841,
0x701bd8c9703bf540,
0x8b862af439888f3b,
0xa59d8c0e630adbed,
0x4249ced4fd1f4219,
0x3e3e919020bf01ab,
0x26001a4fcc5989df,
0x910a4b3769850001,
0xb314c688a40ac81b,
0xd7722cff0f8c3753,
0xdf7695776fd9c540,
0x38ad7ed2921fe410,
0xf7fc0a04075ba8b1,
0x6d06be694908704a,
0x57c3993371b366f4,
0x91a4db8112312655,
0x19951510b17b99ff,
0xec8279df2301ff1d,
0xbff1c9dd217fe922,
0x3ce634488af72e12,
0x8d2332610e475288,
0x21779b8d0851ddb5,
0xc8c93dda087bbeb5,
0xba16b4f2f80b330f,
0x200ac2f5f7a12068,
0x4b4d1f48581aa5ee,
0x800c03fdae045105,
0x162a949f3373ee8f,
0x1b1a52fd8b3de12e,
0x713f363c4f34e5c8,
0xd47d5efd45cd24dd,
0x65acfe7718ff9c01,
0xebface6e3ee7f64c,
0xc133cee4cfdd3e6e,
0xdef75f5f73f6b0a7,
0xeba29f00a97c0c4f,
0xce5de1096ce7d010,
0x05f4500b6b6f3fe7,
0x5d06764aff8b89ff,
0x0548952eb37dffd6,
0x8088e12fe75ef5d8,
0x0611ec4f11217a12,
0x7790e04fdf2bf66c,
0xfba73892fb1d7123,
0xffc3c9d14017c006,
0xc7f7dae1fbf8507d,
0xcfe75ff732abfe6d,
0x4b2bec518adf10b7,
0x0a73bae7cd920e67,
0xb9d488af67c60870,
0x20f5f628fddcfd1c,
0x006ea1ff22e24d53,
0xafeefceef6f3751b,
0x9a3efe5b08c44ced,
0x5142966e7fef088e,
0x7f2ffdef3ffebaff,
0x557a2c4529e5ed71,
0x307db9eb1a904451,
0x667c2cee6e08e2ff,
0xffa0f37ff9bf586b,
0xd4117f482201ff72,
0x10f811ccd9b6d740,
0x6dc0073fc1197ff3,
0x31a4eb0340d10678,
0xf1cf6ee57255fc84,
0x98f182d14ff73411,
0x8ae65fee4f0b7cad,
0x0d6580955008c2e7,
0xc405f7a47e8f7eb1,
0xfb92193f6efdc601,
0x66898f28e67b0455,
0xe6817d9ff44700ff,
0x7374c531f5509a7e,
0xf3fb444ce31995c0,
0x348bbfe50074b036,
0xab77cac89b7f5e10,
0x7220e6ec00aa710a,
0x49ec937644cee9f7,
0xf10dc9c7ce5672c8,
0xb3f899640fefec18,
0x60ef783bb90007a4,
0x01f71d572b32b691,
0xfbb772a4e8bfef9a,
0x1d4cbe72afd7eb25,
0xdb6aefb7cf2ac6d9,
0x0eee6714ecd9dd45,
0x43050430d08ef8df,
0x9f4ee666a008e91d,
0x8e6067aaceed020a,
0x1574fbe7400948cd,
0xc2a62b3fe23ec4f6,
0x8c96dcda44fbf425,
0xf9a962f1dbbdfce6,
0xdbef9c468cde0284,
0xff01b792328aadf0,
0xd7ff5d64d6cb29f4,
0x2f05a472539ce082,
0xa1ca109133ea01be,
0x73499e20601595f4,
0x54fb1df3496129d9,
0xdffb757693899bff,
0x2d424a4cdada2488,
0x6cc22dc41ce6de6c,
0x3187fda486f1fd8b,
0x11aedfb10145ecb2,
0x709f9f9dbb155c77,
0x39e697262c15afdb,
0xe74b16a92cbb9951,
0x04ca1413ee5fb7bf,
0x11114c2276095767,
0xfc5354cd0d7200b1,
0x32e825768ce18ccd,
0xb867d19958fc54f6,
0xf7e810610bd55775,
0x71d034953d9b007b,
0xdcb5d4d8083fc024,
0x0077d8a2809fcce0,
0x23e9409c8ae880a0,
0x8a5f8c71021ca8e9,
0xa4e9c7fe94b50af8,
0x6ce46683a1c07a60,
0x1df3f5d09e958615,
0x16e112bcc399d7b9,
0x1b7665d01d03d919,
0xcfca0acec3e6c1ff,
0x10810934ef6d4890,
0x662cce515d858e1a,
0xe868fcecb771d1ff,
0x6c580df6165f4ba2,
0x218eb15408168fe6,
0xf148818afdfc0df3,
0x008ddd77c5df4715,
0x6efd7f1103cee68d,
0x12804e5091103d67,
0xff3f8ff70060adc6,
0x3777c1fd7525dfd0,
0xa71ff10a0c5a3621,
0xb515aef6f92bd767,
0x6f336f54000ca2f9,
0x26906372419f29d2,
0xfd371d935ff745df,
0x16ce68a0844ff4bc,
0xc9588e6ff61d0813,
0x88b4b8197c8da6ef,
0x609dcba504c3ecd9,
0x68b180921c5fd39c,
0x0598c34a50049644,
0x82ffdd470c25ab6f,
0x289f8770b9fe5232,
0xd4b9c59277a7002b,
0x79beff5db6cf04bd,
0xcbb41062f36a1fd9,
0x56b98c25b9a67f83,
0xc4d060a07de168eb,
0x75e0b038bb1dfa62,
0xb3483895bd93cdd2,
0xc5723dfd7411a2dd,
0x8b81cfbd0efefbb3,
0x008cf3565b161018,
0x428b22015589f22c,
0xfe7c233a230eab83,
0x857fff6a182093f8,
0x290b233dc7b44148,
0x56ce1012aebcef08,
0x0f0afa7f93558dc8,
0xc1aef1dc07feb2ae,
0xb6417b49fb718080,
0xed915030e77a818f,
0xce7ab8d2b5055a2d,
0x932ef5d5008bcecb,
0xe601bf080559191f,
0xf1f7d32c88c7fefe,
0xe465babea9666c0f,
0x8263fffe8ff379d7,
0x73655e8088c5d1f6,
0xffce476fbf78dfd9,
0xe9107d32b777d8c0,
0x7b0e7e098e2aeff3,
0xf9c416e25d1b2c45,
0xef98f0d3efbce6bf,
0xcf614909cde4828e,
0xa882592fffc06aa0,
0x151d6defe410b50e,
0x7ccd005bfa8fb9d3,
0x800096ec55afb561,
0x6ef5c9b5c5e03f8a,
0xe3bd4a190101f654,
0x84da9826f7a80c08,
0xffd79887fcc8498b,
0x8cec7ee680cdd202,
0xffab2f5fb6f20045,
0x97b5006d838bf14e,
0x8ff7000f8803638a,
0x17fbfe32273f9002,
0xfbe889370675c2ce,
0xdb13159a27194338,
0x25ff007f7762db14,
0xcfd1554f6f6fc1d7,
0x5a71efdf33137c40,
0x088ee726db9bf766,
0x97a3135fa9ed7ed7,
0x8300d460fef66afe,
0x20d6004bffd30ff5,
0xfa8bbd97a98c0fef,
0x10cb41138215777f,
0x7b3da28c1f331ac4,
0x608f080c7cae2412,
0x34c9a99bff3e26dd,
0xc8d006d45e5f00ca,
0x75b810c68a00c2dc,
0x26fbdecb0351477f,
0xcdcef3d1f723189b,
0x62cf19ce09fb90a3,
0x9515d011160cdfc7,
0x7900e5c2889959cc,
0xf71d7111eff3f612,
0xefb7fb3710021324,
0xf74685c4fe68b7f1,
0x3bc87e7a01d7faef,
0x001b03ebf308f308,
0xdcde3910dd0cced5,
0x3bc56300dffb5312,
0x29c7dc837f32ace1,
0x92110a0317cc650e,
0x88314db0672d0348,
0x6e60ad00dd2ef0bb,
0x02d73c355effd2b6,
0x5ca42039b9d073ae,
0xd1fec305d7ffff99,
0x5b2c8eac7df0c67b,
0x163f9cc5b9304675,
0x79be82c4d0016076,
0x1ff7638b70183723,
0xcf9ed9089dec9c83,
0x075947fc4b66c000,
0xf9147775d36117df,
0x057174ad6ff98ac7,
0x054c7e2c8027f5e3,
0x420b2654f7e0c856,
0xaf07e000c4453f38,
0x70248fdf6ce6fab0,
0x16f0d6f05400ff04,
0xff9608fdc853c580,
0xbdfcdabb0bb13efe,
0x512eb9e4094eebf0,
0x1652cdf64511830b,
0x6a026ebc00337326,
0xc25c58a751650eee,
0xf60609badf9bc28c,
0xf7d070e138072924,
0x909a466480009df0,
0x7b1a7e97b758eaac,
0xa28dffe6b00801c6,
0x7aec1f718097afff,
0xffe90aa01fee98c0,
0x2663906fff31bfb2,
0x8f6e560309a3e4fe,
0xbbf27f3ee4088a60,
0xa29d46199cb98ffb,
0x1f0dbba0a91327a5,
0x35700edbc771bd7e,
0x540f7dd4fc40bfb4,
0xb9dfd0b3be2457fe,
0x7d3b9db3cf913bf7,
0xfb100a25b79a706e,
0x1fe1d1406b606b83,
0xaf748e0de5fd0af3,
0x3012a5140da0d5f1,
0xa1c7f24cf284bef2,
0xfe307136fe212efd,
0x40cb55cdcfef506f,
0xdccdfb03dc60777b,
0x3c7ef5e80725ccc7,
0x33785a92248ec910,
0x3f4e9c8060c50465,
0xc1409b8970cfb59c,
0x1dee7fe0af71ad26,
0xf6a8c13b8adc0042,
0x8b7ad8cf7f6ec146,
0xaf6cd37f7f8c9c34,
0xdf7ff33287f2182e,
0x2d3519a759feac58,
0x78dcf23810c0a9de,
0xd14c5ffb0eb095bb,
0x41800e1e3ab7c275,
0xf62d620094c1faf7,
0x8176a18ac1dfc113,
0xfe23789bb204fd5c,
0xbf9162882224bbaa,
0xff617efb0200b089,
0x1595a0103441b500,
0x746ab314bde08140,
0x6ee5e7b200e77e61,
0xa3153020251ffc73,
0x3bf1a973f76c3c02,
0xcce6796ba7171170,
0x6ee4299c153ba3bf,
0x6673f16f80636ac5,
0xc76dfe869cc5ca70,
0xe192d19f903a7c48,
0x9338bbf695db30c1,
0xee73fee9488d8593,
0xa7be1dde6f125d68,
0xcf5dfb3d5e803f30,
0xf9c0455eff2eb0a9,
0xe6a36ef0e0006289,
0xc420117f591dd82f,
0x7da826f7bff344ef,
0x7f2f3ba72456817a,
0x543f1bff4ffb7eab,
0x8a996eb8f40f7316,
0x73cfae1a79ce7579,
0x3b15efcc9d238fdf,
0xac657c6fcc5bd992,
0xd31cff49f009840c,
0x891f06dd0a9a1156,
0xa8f58efa3990068f,
0xccd8ff8cdee6b773,
0x9c740dc02c231acb,
0x7b45e70539d8b6aa,
0x28e2601815dbe5db,
0xfbe04e6917df5941,
0xffb891b371e2865b,
0xff42f39453487190,
0x73de7537937abdd4,
0x7fd5060164f2be20,
0x0465c5183b9a7be9,
0xa407486f19bf7564,
0x3283fb3e1081bc99,
0xaa7e779e3bcadff7,
0x8026ea2f7ec1ff90,
0xf2dbbfef30044efe,
0xfdf3986ee2170e10,
0xf1377dcd93037ee2,
0x15aa55039d56bce6,
0xd7cfabd2396e0251,
0xff6384797ff097f5,
0x0c05fe79fcee0a7b,
0xedaebbbf984623be,
0x5117172188e39e31,
0x97290c0dcfb4e4b1,
0xdbb0b8e2b97ee91b,
0x94418c18bdafda60,
0x7e8867a9e8ac6c70,
0x93543ee46f8e1932,
0x177b3b84d7fa751a,
0x4cc3f1def408cdcf,
0xdc4f1ff29b42e4ef,
0xf6acee3a35528623,
0x8d6c7cc00f6331b8,
0x773b3d870184cf61,
0xe7b88c633f777e63,
0x80a74d0600be0023,
0xa023bbf883f375d3,
0xc64cbfa940ff8084,
0x83290d467105caff,
0xeb820b4c39fc980c,
0xa9bbeb7255d74f30,
0xaabb18debbb4ca0f,
0xd8abd6b0d8c7cebb,
0xe6e181b40088df1f,
0x33f7d33437bf87ef,
0xbb7c42d6ad325c48,
0x2e0144806e06b810,
0x27f7a676e676de7c,
0xf2f3b142aa52f612,
0xaf41a487277152c7,
0x98d9917f7321856e,
0xf8644cabed7e7017,
0x72a6fefd443f3115,
0x9fded57f64a21249,
0x1515e4ca49fa02f6,
0x1c14333fbb37ffb0,
0x7973e387ee8d24d1,
0x4bd75ae04cb9fb79,
0x80ea528879e2a6e0,
0xa76061eedff5914b,
0x7510c6bb288d873f,
0xd43a880af411ad30,
0x49cdc384f05b9e3d,
0x51ec00d303ced46e,
0x36127e4c913ca5c8,
0xf3a35a2e6d6fb02f,
0xffdbff78bf445442,
0xc97e9fdd319c2107,
0x2bfe713a9b45b655,
0x77bc71beff7645f1,
0xa7155320346b1b81,
0x6234b7dde23cef52,
0x4654e00b1b77ddfa,
0x3b1e6326dde8eeaa,
0x7ef53339015f3390,
0x398eded0285712b8,
0x69fcec991273ccc7,
0xcf31ffdd2f4881fb,
0xf4ba13f939123ebf,
0x37f9b1e23fc073fd,
0x3766456977411825,
0x91c00b94f67518ea,
0x7183e1c727e14e00,
0x0392e5326aeffcf8,
0x3f56ecaa6ee6ff7c,
0xc9920c4af00609db,
0xaa00af42cd448fd9,
0xaa20033eb7f1cf26,
0x2856abd2a777a6b1,
0x89ce91fc3ffae27d,
0x3b9a11c87bff3159,
0xfb4af714494bd566,
0xf3b219ba3dd891a8,
0x67d4c480118d694a,
0xd6fe14bafb21cff1,
0xa9c0c021b56fa271,
0xdf10bfc7cdc6f599,
0x04eb4ce7560cf721,
0x9aa440e67935eff4,
0xa867088000ef14cb,
0xd55e4190ccae1932,
0xc638ffad33a35c07,
0xe39dc7f5d945fbd0,
0x6308a7ecec1c4274,
0xc5bdbff27b62028c,
0x3b26050eabb84d1b,
0xbdfc0745cc6693ce,
0x6eeb3dbba73ffde5,
0x8671e1a6a94adb16,
0xb07f2a06968e7ece,
0x9f03966a6fb33028,
0x2723cff9ef2b7fc8,
0xff394922b15effad,
0xb19ae6cd7f9476f3,
0x7bf2653bcf942f26,
0x617cd603778c67ef,
0xd98eff2118bf743a,
0xf28d03e0e43b815b,
0x1b029d1c33f35b76,
0x35ffb9ce7bfffed1,
0xfb1be40c38cc20d1,
0x58c2dfa448ced010,
0xc1e97b80b05cde23,
0x33256469fe8dc903,
0x4510d8ac8d8cf73b,
0x59b87b40751e2431,
0x6ffde29d5dfdd7d6,
0x181c49faca96f05e,
0xf05218c28e58dec0,
0xaf381f041e8fb439,
0x7fe09dfe7de97c73,
0x6f72fdf13b3d4793,
0x6bff331614d92c0f,
0x161cfc21affebfd8,
0x775046439c9037a5,
0x32b4edc8eacecf02,
0x2912cf749017fbe6,
0x238e733c54c7fd17,
0x4f6fa5b8e64aac92,
0x7b5d8ec40ef61284,
0x758e8131be831e3b,
0x7d9fdd813946b2e7,
0x613e6b0470520bbb,
0x3eebe8dbdfb8bb80,
0x2f4728f3dced9898,
0x9dcac989b742072f,
0x13356393d1d9f306,
0x743dee1a7effde7e,
0xbb5eed71f4fb2bfa,
0x705e4d0ceb061ddb,
0xf832340be6421dcf,
0xef96ccf580b4c3aa,
0x7c0f6b54819b90fb,
0x61d855dcbaa82396,
0xbb9359c67f792571,
0x7b5e11b38de3fc6f,
0xbf987e3d3f19dc21,
0x5fe475941081b600,
0xfe998f30ed6f6f29,
0x8d8055147a7b24bb,
0x967c4504a72de2bc,
0xfffae10dc0754760,
0xafbfe38eaf06ea1a,
0xe61f7a3f618c710e,
0xf6cccf3d03f780fb,
0x90084e06d0a9adca,
0x0c5fd4d6df510b31,
0xffcedce68647ffff,
0x3fab7f6a1002e73a,
0x2e3c13f3344f4ee9,
0xc649309244156c26,
0x4ef7808061f8ac79,
0xfadc201986fd46a6,
0xaf75043067dcebd2,
0xebc2c00c9068bd28,
0x81fc98ecedfb019f,
0x7e2f3f1b9f8fc5ca,
0x7e82e4c40238f97f,
0x2f30ffc54c0d0e78,
0xf0ebd9d89f34576a,
0x66f844918df3f188,
0xd0765193cb70fc6c,
0xff7dade70f982af7,
0x687b2131305880e4,
0x950f18e59d11de17,
0x7681f628cf0223fe,
0xe9306efa7508cec1,
0x29b7cd293bd7dfdc,
0xc008fde113b2310d,
0xea28421700fb0088,
0x8092c2bc97f48f31,
0xc5f5d1337a3501ab,
0x476df88997e75762,
0x146977a61fc6f6cc,
0xf6750f7e00081ded,
0x0bbf2088909be537,
0xfd48dff4e49983fe,
0xf7f9f4afa1fd84df,
0x1298fffdfa6f0008,
0x7bea3006c6ce51ec,
0xcfb326c97084fe62,
0x01dbf311b271026b,
0x6efb82edb07c4680,
0x00eac9bc052233a2,
0x82a86530212d1bff,
0x8ff52298098bddbc,
0x52009a6b480269f2,
0xeef3ffe8ccddbef0,
0x1cf4ea2bafef7ec5,
0xb03d967521ddb088,
0xfd2124cde91d47eb,
0x36fe1976670733b7,
0xde6b7206ecec08d4,
0x380ed3e7193186ff,
0x8628ef60004d1048,
0xbfdc3188f9309627,
0xe2f8deed1bece3af,
0x8c9fafa1201d0513,
0x6028b2a28ef7204c,
0xd9381fe52096f7fd,
0x462375033e2db00a,
0x078cf008efe8feec,
0x03d126d4ea99ceac,
0xfe0cefee18889b4f,
0x2ae6f5690802cef4,
0xeb10a000e884531e,
0xed679c917ef4ff27,
0x41da8c75cb0a612e,
0xefc07d6cf8ff1589,
0xa000dc511811be6e,
0xdf6ffdd16e1a4e7b,
0xdb039b7a18450d7b,
0x050af62bad182113,
0x3934b315040f3fee,
0x8ec4ffbf77038a03,
0x89fec0139ae1f73b,
0x1d538371ffff5d77,
0x0460fdfd285d3d77,
0xe402c1c2e0370993,
0xc8f4431ade88b0bf,
0xe797361e42518940,
0xd570004b89939941,
0x14fb04fe3721cfff,
0xefe6410082607d33,
0x23c7cee83db5209b,
0x611b99e79a677a2b,
0xe91cae4804ce9331,
0x567b6fad293bcd19,
0x44a933019c9ff737,
0x44e256017b805d75,
0x7700bf765953ad84,
0xefae7b930ddfe7f5,
0xb89fad3eaf708076,
0xda75e708a6f3801c,
0x1df2e00e0f6b6df0,
0x7d3a873977f5411f,
0x7fc00529af668800,
0x38bb510188f5948b,
0x7e7e3bf5fec844fb,
0xfe789fe4960a3ed4,
0x4480ecdd94b2cee6,
0x7598b134afa7cb13,
0x98bf10fb73187fc8,
0x7938fb0e00fd12a1,
0xb7898e8880039dbb,
0xfef933bb28e5b198,
0x1c5b0bb969205714,
0xbcdf75fbc7ee9411,
0x3eb39dd7a5df937f,
0xd48b677ebefc5568,
0x0d118aff7c876fdc,
0x7ffe5c5f714e0f7c,
0x04fea35ffeefda4f,
0x2e3c22760603eb15,
0x4862fbdf7a253517,
0x9f16fc54297266f6,
0xcc1fa00a5f81577f,
0x99893017071c8154,
0xdcff194800890fee,
0x161e8adedcc82d93,
0x1833f661f37bcc83,
0x8bff6a76dff88e93,
0x8f9068ed4877519b,
0x148d4129e7dfe3b7,
0xe880ccd96e7f0c0b,
0xd13d9280dd6c9f04,
0x36602202ef76cc86,
0xa3a6b84b6c8fd100,
0x941102a7d1025ee7,
0xf808989e3b7335cf,
0xa33604a07001d1d7,
0x05fdc383ef439ed1,
0x73e43dcf42007295,
0x88c887e50b7c1584,
0x8888e5a72919d747,
0x6614e5cfa67bde9d,
0xf9fe636e0862fefd,
0x03e613338e81e020,
0xe5ca07ba09b5f94b,
0x89887219c99ac304,
0x4232c8c020037324,
0xbe1124016fb3b1be,
0x343f31ce59314ff3,
0xa71141477f7de264,
0x3932933a433a4ded,
0x31f9b38a7021a61f,
0x23f00cf402015039,
0xeffabd5bfd88a2ce,
0xf61a9109628668fe,
0xdbfc2a386f55c505,
0x33038900abf903a3,
0xbffd1d76768e2060,
0x1b3cf862c7712d51,
0x0e2646aec00b05fc,
0x82bdfb80f8ecf904,
0x8004b100d1e1ccc6,
0x06d9e22b314fc77d,
0x4e6e0e4dec858a97,
0x6029e82b5b20e211,
0x51483350653dfac2,
0x0017bccfe2bd97f8,
0x73b297264332cc99,
0x02c42f3708aca64e,
0xa18850914190c297,
0xb7df7bfb030d3700,
0xdd362c915f00d840,
0x6e77a61678cffc29,
0x6fa240897f31017e,
0x682f10c23ecde2ab,
0x00475ee2f6e15c13,
0x68d062719d8f9009,
0x8f04d6c37cfe5ff6,
0xc86c467012d8e3ed,
0x4ab484c1cf923a90,
0x89644d43f00e3500,
0xa2d5ff7a8f30ff9b,
0x9900b7e23f004088,
0x51d59d83e9e2ee33,
0xf73e034e80614006,
0x3ff108590da31073,
0x53801b2101b0c01d,
0xb47b4f343ffbba30,
0x509a7c99de843007,
0xeb66931af1064980,
0x665e9d3dab42ddc8,
0xf633eed800b7b864,
0x161b7bb54881dc8c,
0x4d470fba1611e349,
0x57dc3b1f700ba011,
0x9215314826b95633,
0xc0b751eb90cd2e63,
0x51b97faecea25cb9,
0xed636efda382ddc4,
0x41f5b995d866a8fe,
0xd0986ce710fc1bfe,
0xe0d4e0ffb319f906,
0x7f7e7f3b231e2d8e,
0x9b33417ca80404cd,
0xd98373e6eebbbdff,
0x78b7337f5b0d9a76,
0x7bc946afa9fc4a6c,
0xe9f3774d7315907f,
0xe467efe6fe76087c,
0x900fbd770304cd4f,
0x7177dbfe7f77ecd3,
0x5eaa13b7804c3bdd,
0x08cd3005e00d661d,
0x121650f708b2caec,
0x301cf0da82336da0,
0x76ff9b49577e0057,
0x700f27fed0edc044,
0xbefdf74030d9f616,
0xb8fac0f751d545ff,
0xed22ad4ca9eec37c,
0x5d05b6e4984ade75,
0x529c72265447faab,
0xc4c2f3a7cf33a2b7,
0xffefe9d43801ff5e,
0x4e4c1ff54a273765,
0x4641c336c673e9e4,
0xddf7bb2ddc76e7d6,
0xdfd1fb623bb03dff,
0x5db92a009072f4ff,
0xee6f2771ff291020,
0x614eb8323e9a61f7,
0x8a744ad5e12f5d18,
0xccc738cdc6ec4086,
0xf00acff70fd01448,
0x4c0fc0575036ff6e,
0x8287092a7c095fa6,
0xe7470626b814f845,
0xc67bdf88b01bbe3b,
0x769a44534bff6f6f,
0xd90836f72dffeadf,
0xaae634fc5117581f,
0x1c0a72f415886c0f,
0x6c6eeeecfe1b5117,
0xf2ec4ff3426730f7,
0x5889ff749c0d7951,
0x779f0a19ff3c56e6,
0xe4cc28ba8c4c59cc,
0xda5f906ad431d87c,
0x4aaefc8b780ee0ef,
0x1d76f941fc7fdbfd,
0x62bdc0c3f9d9f4b2,
0x7cc2cdcc017e4d04,
0xfcee10fed120e74f,
0x33ef83650d8f0b7f,
0xb4dfe8964d636cec,
0xff7f78c6caffddf7,
0x7bf76833b80effb7,
0x70b7a8cff131ebfa,
0xe2d280c2f9dece7c,
0xb0b5837f1be07542,
0xbfe0fc37d0ffa47b,
0x8bd351bfb503623f,
0x0006fc6558902ef3,
0x777d791f8a731430,
0x7577db42ca7e7c07,
0x25b7cffc57dd6b8c,
0xfbdf017087cc007f,
0x4601deb74098be7b,
0xffc2fd587f46ceff,
0x9cae90031b8d502f,
0x2342e413a2415110,
0x8198fbf7043feff7,
0x9052ff93b373b2c4,
0xe77f432d34f5f75f,
0x5f9783911bbd1026,
0x10e55ffe684605ff,
0xe57340c6ff4fd9c7,
0xd9c58405cd9d9037,
0x695110015650824e,
0xce483ed5f53ed84a,
0xd8bfcd55d150acfe,
0x64ba51a1706ddf2b,
0xabef6ef769174100,
0xf203b9f0b0139f2b,
0x0b7e4753dd8eefb7,
0x01cac5a9a2c3dd1e,
0x68ec222670036e38,
0xef7ee8aa238cf4ff,
0xeb20fe735d32e8f2,
0x7fbb3333190a8a8c,
0xf19d257573d29216,
0x7671231b67e6c246,
0x9c74d1063a3400fe,
0x33776e7b13775425,
0x7dd38cfc7767089e,
0x10ff32263d1deec8,
0xfe8e69d379612034,
0x2257ff5f867d928c,
0xfdffcce984af6fff,
0xc8cc7692f607ddb7,
0xc8a7117f1936740a,
0xb003bb508195b6a9,
0xcc97f7ff0101bc99,
0x332f49a73ae82754,
0x37d100f9cb402b76,
0xc88f28118fa762fd,
0xff8d8051e077f8e5,
0xd016bf13c09dc1ee,
0x67a286f8bec2850b,
0x4dffcd3cb10ecf7c,
0x82da273c0004dbbf,
0x2bfc7a5411079209,
0x4003b3b852050afc,
0xc2b6b15464a3e6dc,
0x6b7f14817fce7a4d,
0xa9083162bfb8b0d1,
0x573d5184d198ebe8,
0xbbca8f9a374d3ef5,
0x12f94793f3c02923,
0x9efe203fe7cee433,
0x7e440ab8042fd16b,
0xc4ea80886619b754,
0xc8e6b68be6df2030,
0x2f7f8a2ce7ac2ec0,
0xe36e200776fe75cd,
0x67fc8faba9df99c4,
0x23b581d5f77cc5f1,
0x5ce084688de985ff,
0x1cdbcfa2fb174197,
0xdce9f3213c6d365d,
0x0211ee688d31fe6d,
0x9cf7913f07687287,
0xfba6eec5a02d5904,
0x3358bc80d5061670,
0x1e25e6fd07d14781,
0x771ad699ff282fa6,
0xdff18e8ef970cbcd,
0xf7334f2f66ebf291,
0xdc316c5af58bee41,
0x76706a59ff20838f,
0x968089aaf72041ff,
0x77024b1079800b78,
0x84057ce1794a8a4d,
0x4880fccab99c261f,
0x174bcc0df2c451a3,
0x487b8283a75d8365,
0x7b81ef2be6cfb380,
0x8ccdc63e7f1a2f53,
0x0066bf24b260ac8f,
0x76d91641f3a03d6d,
0xde41360830111601,
0xb90320d59e590d01,
0xe1b0320eea317b02,
0xcd60f8714625f4c2,
0x57022db12fee0ceb,
0x451f44e43f43ba0e,
0xe4af8173a5598b65,
0x0eb58d8168e89b60,
0xe2fbe7c081529ed8,
0x5d0b7618ce3d6725,
0x6fc9d4a90ca6a824,
0xafb6ed805a0cfa24,
0x5205b5e0ba007817,
0x4f63327c7333b886,
0x1ca2d224b4201eec,
0xd31971ca7df7c440,
0x7bc592b9e6c5c739,
0xac80d988d43b5735,
0xc080d597720e70e8,
0x0068d764f948c9d5,
0xdbaa5507445ceaf8,
0x2a98d0c197bce733,
0x0e776f0bd6a5fe20,
0x076f4fbe6346c040,
0x5331c22afff17201,
0xe5f74b249bdad998,
0x9072cce04f7953e7,
0xc8b53f2f42cd8503,
0x9b64ce5c0568ef47,
0xde20d4b5c3673fca,
0x3189fb369adf5b5c,
0x9be5f697f207aafa,
0x4c04ce00ba0e7645,
0x05133fff7978e284,
0x3559470153a2ca06,
0x1644d35a043bb410,
0x6f59bffc96867204,
0x6b05bd9bbeea9fb1,
0xab934625756db20e,
0x107b8a629aae7493,
0x6ee02cfa8b9e2078,
0x665b522c0e88b23c,
0xec20945e14b66269,
0x0da34463d7fc43f6,
0x6502d930cf3c4d3f,
0xbf7ba6af2a304f21,
0xeff7be09514577df,
0xab5e3389eb1fdfc3,
0x22de0082cee60a84,
0xcfcb66826f33b4d3,
0xb2a1802d7f2affb2,
0xc24f67f39faf7235,
0x7e0b7ff760abd128,
0x83f3ce25dc16f601,
0x9801b039fbfcf656,
0xcd7e5627e0973809,
0x447720541dd53741,
0xfc536b858ce43f7d,
0xff82159a2b7faaca,
0xf01caa3176b9f473,
0xbb1df46c07e1505f,
0x3e854824bc6a9732,
0x8e417b75f50e0113,
0x5280091cd32a2e9f,
0xfcd6151e20870983,
0x560a08e56cb4f449,
0xac99db0656b1bfcc,
0x404935b746779478,
0x2a7723c9320e0382,
0x4b2211acfd112d22,
0x74efed20b6a745ac,
0xb06f89ecff00fb31,
0xe03e530c014dfb8e,
0x47b7953766572f60,
0x4304fa8d2d435d34,
0x4e7b0c202ef32fda,
0x92b46ef37de6dcaa,
0x2add11fc74332715,
0x51d7fd1989d26154,
0xc421d671e9007615,
0x03dc7b1b53196d88,
0xa21186634d232395,
0xf681fb8ef7982c16,
0x3f8cf2319f735ff7,
0x7cf28b0fde30ecb9,
0xa4030c536d2e2eb0,
0x0e096fb8970db9d6,
0x500ac400ff22b5f9,
0xe9ee4d99fac68fe4,
0x34af19c2df333e85,
0xbc40d99fcac08d8a,
0x671d5cc6c908fe08,
0x0e3731a4721146af,
0xdf7dfd43c7501dcc,
0x0daafff6037321e0,
0x7af3cce406e9066b,
0xf98767116bd39b3d,
0xf2cd7e806f3851bf,
0xff002c2d7a9bbef7,
0xdab2b811ce00f61d,
0x4ae4d0a447e0c8a6,
0x6c638e0c03073e73,
0x06b4f1174439a731,
0x26e0ea157b19b9a7,
0x0cf062c18d11cde4,
0xfbb09906c0e6ffbd,
0xbefded55a6573a7a,
0xf65e3d55208cc0a3,
0x75fcd6f72291959f,
0xcf143a101a13c5d4,
0x7453fd7f5e37bf1e,
0xee4b1bfeb88d6dff,
0xcccc62f4918a52ba,
0xd8ff81a9c6548658,
0x8ce77e74d6e658bc,
0x00198850c9ffecb9,
0x8ddea390aebfee3f,
0xe60bda893eddea39,
0xb0cfe48c1cdbad09,
0x80f70032cfe96ffe,
0x4c28ee0a24bf7980,
0xbff798ddc101019e,
0x05e867fbd5f28b4d,
0xefd1e51d19ee7f7e,
0x4b7e66704d8f73ff,
0xd42230922f7f46df,
0xda14d4d4004e9277,
0xd07ce825100fa010,
0xc5a00035cb3bd7f7,
0x347c3f406a05a6d9,
0xef3bef566a09eb9d,
0x16fdc382aa53faf5,
0x8d82951ac05882c5,
0x7984361b8b762d03,
0x14ab7a7b47b4e391,
0xcfea6075db9b612f,
0x0404680167b96f5d,
0x52e63a754dfbf44f,
0xfa282a3c8c446705,
0x62c0edfe8483d75d,
0x809f9d0c196ecefc,
0xf49de1bf0aec5c81,
0x858ddebd5c991844,
0x5efdf8928cfb537f,
0xd7a8ae6492bf19fe,
0x0ed8f44c21d2e5ff,
0x1dffc96db1150000,
0x1006c7929e7e1501,
0x6e42adfff9a8822e,
0xcfec6ff7102c4000,
0x380af7621885887e,
0xf37dea77efe10f25,
0xf5df948bfead75cc,
0x89801672903eefea,
0x6c8fdae7599084b9,
0x1b94946fa27f59fd,
0x2c11e357adddceea,
0x85dc9f781035d1fe,
0xd6ffce06b86cc6c7,
0xaabf749fd6e0522f,
0xb97ff6ff32a76cff,
0x5dc78c9484e19067,
0xc89b30658ce28157,
0x600e6e1f3039ef10,
0x45cd44d907cd9ccc,
0xd01cf89aab80ff04,
0xb6db5b37e9747fe3,
0x7e474ed9330c2266,
0xd86dcacdcd3b0800,
0x0d90b1179051e9a4,
0xcf77d22ae20bddf2,
0x938e1d5dff8af996,
0x217e01b4314b73a1,
0x435b7fe7f91c01f8,
0x2046dcce2ffd3631,
0x47cace47fab5702a,
0xff976a76146ce729,
0x1afe73f42ef413c9,
0x00005744f6966e05,
0x0190fa60f4f88ce7,
0xf7ffeea0a176c332,
0x203320404ff6ffff,
0xefeb24a54c644b46,
0x0acc0cb3fe48967f,
0x2b2300c11d7778e7,
0x5fffcf712062ef7c,
0x69ac6ed4239d01a8,
0x9cdcafbfe8c65de4,
0x04ca0000413ff7ff,
0xdf7462defe3bd301,
0xf1ef33fc43008cc1,
0x18988010d1dd80e6,
0x95ed4af103085e11,
0x753f7f72062a0cc8,
0x8cb66058e639feb2,
0x811c8f29b7d1060f,
0x028ee66497f4084c,
0x4760fb1feff774cd,
0xc07059049b04ae7d,
0xf27f401053b7177f,
0x001610e2c0ed16d0,
0x8e77fd9bdb7076d2,
0x004ceff20c20fbf7,
0x221700903ba42dff,
0x2b0f133188d937a0,
0xedcac99b2d4d28e6,
0x29f8ecc5dfe48004,
0xeee441f0daccedff,
0xd121aef7b99d5ae2,
0x96fe566f97cc1b28,
0x127eb2c8e9338088,
0x0809eece4b76b577,
0xa200b9f375af7ec7,
0x3ff560100000002c,
0x736d42022845c032,
0xc735f7589de9c753,
0x0c7497ed3081e9e5,
0xeb32be71a75fdfa8,
0x831c7686208407af,
0x36b001c45a470338,
0xa4f05bbf9e533326,
0x84de034b3e09d37d,
0x477ee8bc7d0664f6,
0xa9fb23107ceed223,
0x6f7b86ce629022b6,
0xc40467310819373d,
0x014c9b300077777b,
0xfdbe47ee1102ffc5,
0x184c767d9abaaeb6,
0x45430fc6ffc8d2fa,
0xf77128495d8c75ea,
0x6f6bef6fc0882b7d,
0x0000000000000000,
0x0000000000000000,
0x0000000000000000,
0x0000000000000000,
0x0000000000000000,
0x0000000000000000,
0x0000000000000000,
0x0000000000000000,
0x0000000000000000,
0x0000000000000000,
0x0000000000000000,
0x0000000000000000,
0x0000000000000000,
0x0000000000000000,
0x0000000000000000,
0x0000000000000000,
0x0000000000000000,
0x0000000000000000,
0x0000000000000000,
0x0000000000000000,
0x0000000000000000,
0x0000000000000000,
0x0000000000000000,
0x0000000000000000,
0x0000000000000000,
0x0000000000000000,
0x0000000000000000,
0x0000000000000000,
0x0000000000000000,
0x0000000000000000,
0x0000000000000000,
0x0000000000000000,
0x0000000000000000,
0x0000000000000000,
0x0000000000000000,
0x0000000000000000,
0x0000000000000000,
0x0000000000000000,
0x0000000000000000,
0x0000000000000000,
0x0000000000000000,
0x0000000000000000,
0x0000000000000000,
0x0000000000000000,
0x0000000000000000,
0x0000000000000000,
0x0000000000000000,
0x0000000000000000,
0x0000000000000000,
0x0000000000000000,
0x0000000000000000,
0x0000000000000000,
0x0000000000000000,
0x0000000000000000,
0x0000000000000000,
0x0000000000000000,
0x0000000000000000,
0x0000000000000000,
0x0000000000000000,
0x0000000000000000,
0x0000000000000000,
0x0000000000000000,
0x0000000000000000,
0x0000000000000000,
0x0000000000000000,
0x0000000000000000,
0x0000000000000000,
0x0000000000000000,
0x0000000000000000,
0x0000000000000000,
0x0000000000000000,
0x0000000000000000,
0x0000000000000000,
0x0000000000000000,
0x0000000000000000,
0x0000000000000000,
0x0000000000000000,
0x0000000000000000,
0x0000000000000000,
0x0000000000000000,
0x0000000000000000,
0x0000000000000000,
0x0000000000000000,
0x0000000000000000,
0x0000000000000000,
0x0000000000000000,
0x0000000000000000,
0x0000000000000000,
0x0000000000000000,
0x0000000000000000,
0x0000000000000000,
0x0000000000000000,
0x0000000000000000,
0x0000000000000000,
0x0000000000000000,
0x0000000000000000,
0x0000000000000000,
0x0000000000000000,
0x0000000000000000,
0x0000000000000000,
0x0000000000000000,
0x0000000000000000,
0x0000000000000000,
0x0000000000000000,
0x0000000000000000,
0x0000000000000000,
0x0000000000000000,
0x0000000000000000,
0x0000000000000000,
0x0000000000000000,
0x0000000000000000,
0x0000000000000000,
0x0000000000000000,
0x0000000000000000,
0x0000000000000000,
0x0000000000000000,
0x0000000000000000,
0x0000000000000000,
0x0000000000000000,
0x0000000000000000,
0x0000000000000000,
0x0000000000000000,
0x0000000000000000,
0x0000000000000000,
0x0000000000000000,
0x0000000000000000,
0x0000000000000000,
0x0000000000000000,
0x0000000000000000,
0x0000000000000000,
0x0000000000000000,
0x0000000000000000,
0x0000000000000000,
0x0000000000000000,
0x0000000000000000,
0x0000000000000000,
0x0000000000000000,
0x0000000000000000,
0x0000000000000000,
0x0000000000000000,
0x0000000000000000,
0x0000000000000000,
0x0000000000000000,
0x0000000000000000,
0x0000000000000000,
0x0000000000000000,
0x0000000000000000,
0x0000000000000000,
0x0000000000000000,
0x0000000000000000,
0x0000000000000000,
0x0000000000000000,
0x0000000000000000,
0x0000000000000000,
0x0000000000000000,
0x0000000000000000,
0x0000000000000000,
0x0000000000000000,
0x0000000000000000,
0x0000000000000000,
0x0000000000000000,
0x0000000000000000,
0x0000000000000000,
0x0000000000000000,
0x0000000000000000,
0x0000000000000000,
0x0000000000000000,
0x0000000000000000,
0x0000000000000000,
0x0000000000000000,
0x0000000000000000,
0x0000000000000000,
0x0000000000000000,
0x0000000000000000,
0x0000000000000000,
0x0000000000000000,
0x0000000000000000,
0x0000000000000000,
0x0000000000000000,
0x0000000000000000,
0x0000000000000000,
0x0000000000000000,
0x0000000000000000,
0x0000000000000000,
0x0000000000000000,
0x0000000000000000,
0x0000000000000000,
0x0000000000000000,
0x0000000000000000,
0x0000000000000000,
0x0000000000000000,
0x0000000000000000,
0x0000000000000000,
0x0000000000000000,
0x0000000000000000,
0x0000000000000000,
0x0000000000000000,
0x0000000000000000,
0x0000000000000000,
0x0000000000000000,
0x0000000000000000,
0x0000000000000000,
0x0000000000000000,
0x0000000000000000,
0x0000000000000000,
0x0000000000000000,
0x0000000000000000,
0x0000000000000000,
0x0000000000000000,
0x0000000000000000,
0x0000000000000000,
0x0000000000000000,
0x0000000000000000,
0x0000000000000000,
0x0000000000000000,
0x0000000000000000,
0x0000000000000000,
0x0000000000000000,
0x0000000000000000,
0x0000000000000000,
0x0000000000000000,
0x0000000000000000,
0x0000000000000000,
0x0000000000000000,
0x0000000000000000,
0x0000000000000000,
0x0000000000000000,
0x0000000000000000,
0x0000000000000000,
0x0000000000000000,
0x0000000000000000,
0x0000000000000000,
0x0000000000000000,
0x0000000000000000,
0x0000000000000000,
0x0000000000000000,
0x0000000000000000,
0x0000000000000000,
0x0000000000000000,
0x0000000000000000,
0x0000000000000000,
0x0000000000000000,
0x0000000000000000,
0x0000000000000000,
0x0000000000000000,
0x0000000000000000,
0x0000000000000000,
0x0000000000000000,
0x0000000000000000,
0x0000000000000000,
0x0000000000000000,
0x0000000000000000,
0x0000000000000000,
0x0000000000000000,
0x0000000000000000,
0x0000000000000000,
0x0000000000000000,
0x0000000000000000,
0x0000000000000000,
0x0000000000000000,
0x0000000000000000,
0x0000000000000000,
0x0000000000000000,
0x0000000000000000,
0x0000000000000000,
0x0000000000000000,
0x0000000000000000,
0x0000000000000000,
0x0000000000000000,
0x0000000000000000,
0x0000000000000000,
0x0000000000000000,
0x0000000000000000,
0x0000000000000000,
0x0000000000000000,
0x0000000000000000,
0x0000000000000000,
0x0000000000000000,
0x0000000000000000,
0x0000000000000000,
0x0000000000000000,
0x0000000000000000,
0x0000000000000000,
0x0000000000000000,
0x0000000000000000,
0x0000000000000000,
0x0000000000000000,
0x0000000000000000,
0x0000000000000000,
0x0000000000000000,
0x0000000000000000,
0x0000000000000000,
0x0000000000000000,
0x003000980155ff58,
0x00a60166ff69ff75,
0xfdb3fef100f6ffaf,
0x0092ff8201350025,
0x00c9013d009601ea,
0x00cc0097fff900e4,
0x012e02d9ff11005c,
0x00700194001dff0d,
0x0000000000000000,
0x0000000000000000,
0x0000000000000000,
0x0000000000000000,
0x0000000000000000,
0x0000000000000000,
0x0000000000000000,
0x0000000000000000,
0x0000000000000000,
0x0000000000000000,
0x0000000000000000,
0x0000000000000000,
0x0000000000000000,
0x0000000000000000,
0x0000000000000000,
0x0000000000000000,
0x0000000000000000,
0x0000000000000000,
0x0000000000000000,
0x0000000000000000,
0x0000000000000000,
0x0000000000000000,
0x0000000000000000,
0x0000000000000000,
0x0000000000000000,
0x0000000000000000,
0x0000000000000000,
0x0000000000000000,
0x0000000000000000,
0x0000000000000000,
0x0000000000000000,
0x0000000000000000,
0x0000000000000000,
0x0000000000000000,
0x0000000000000000,
0x0000000000000000,
0x0000000000000000,
0x0000000000000000,
0x0000000000000000,
0x0000000000000000,
0x0000000000000000,
0x0000000000000000,
0x0000000000000000,
0x0000000000000000,
0x0000000000000000,
0x0000000000000000,
0x0000000000000000,
0x0000000000000000,
0x0000000000000000,
0x0000000000000000,
0x0000000000000000,
0x0000000000000000,
0x0000000000000000,
0x0000000000000000,
0x0000000000000000,
0x0000000000000000,
0xfd6ff1fc8f2beff0,
0xd3841f21b8e0fb94,
0xfd274d19271c3750,
0x7c11e6229e2f7e45,
0xdfffa15c5f807ffd,
0xd8a3014ae47e5f71,
0xf9870f5300b69b87,
0xf1c151ba3bff5350,
0x01dea9c70042f0c2,
0xa707787ccde26428,
0x8b8207b9ff75c8c8,
0x0e779efb864068f0,
0x083bfebd9ecb1601,
0x838e273fdc1a7d93,
0x52ad521c83ecdbfe,
0x0edf70008ff744fe,
0xf724e0901c2fdb36,
0xae0e2bfb3fb73872,
0xb2c0d018eafefd66,
0xee60f560f3735f77,
0x42226bfffe3a1090,
0xabc2ebf6001e753b,
0xd1b7239143a037b9,
0x3af7dfedfdf8f144,
0xbf8d23a8103f9d82,
0xede6ceebea835c7f,
0xb31228c7a52fec59,
0x7bf88950bff916f5,
0x90ccb9202e3eb3cb,
0xe9c87f79f673a31a,
0x5ef202eefec6721f,
0x5fcddb886a4dfd9e,
0x3411d1550584c473,
0x294cfe61f7e5b84e,
0xcfe270ff233e9e6c,
0xc1b3efafaffb801c,
0x280e77eb1f12fc55,
0xfffbb3bcbf2b9095,
0x30093a4ce3fc7eca,
0x977025ffbb266be6,
0xfcd729fdf64c3df4,
0xecfd116fffff4661,
0x9da2ffc0c19c3e9d,
0xcb0029358924837d,
0x55aeafdfb739edef,
0x97fe5200bd6def20,
0x022ebe6008887205,
0xca6b06d4bfef7575,
0xbc900808e81df946,
0xef97c3b913ee4ffa,
0x9bb6112aceb76dbf,
0xfd00e1beef6ec2d7,
0x8049d72e0cc002f3,
0xdb59eb3029855e7c,
0xcbff805f0376d7c2,
0x97e9832071bbd406,
0x7d88e9e4de150bb1,
0xaf3327dbfc131bcd,
0xf09bcd0690245081,
0x008688516ddc39ee,
0x4c23f123ffd5b04f,
0x84732ffb7fb21648,
0x5dd37bfad0aefbfc,
0x2f64ff9c8b01380a,
0x4cbd32fc6d4d0818,
0x4cb053dc34f78b3f,
0xf8bce064894ff9bf,
0x4fe83381f9b6337a,
0x0207243fb3a1488f,
0xed776fe702b80d34,
0x5494524cc557ac6d,
0x5aa87164df1cb97d,
0xb9deb98c86049f9c,
0xd05e3dd0ecdc12fc,
0x366e5670488b13de,
0x944868c6de5a72ec,
0xff46ef3b11ef1899,
0x7745fc906fcb9418,
0x227eab61033605e4,
0x7af55491dcb45623,
0xe89e5dd6333365a4,
0x5906b9183fcaf713,
0x1ff4054d08d05dc9,
0xc1bb46e08c8f4880,
0xda4c084ce8b4c868,
0xbebde3b257f8c9c1,
0x668c16ebeec70e6c,
0xa9042254e35f62b3,
0x10902de4876b7c90,
0x24cd1104dd7818d7,
0x1440606c66f32500,
0x08131cff63006fed,
0x46c94ce7f7136c87,
0x729e648ace250c7e,
0x7ad91ac001d36d84,
0x326726129f59ccca,
0x0721808a0c734021,
0x137462bb03962003,
0x433441da66494815,
0x5f4f02f7cf590678,
0x31e630042a424561,
0x43a34eb433d15c6c,
0x730aa120f49be402,
0xe58deed099f7b989,
0x97849b2000836ed5,
0x7fc74b8071047091,
0x67e44f8d20a75e76,
0x900f144a919a531b,
0x1c578fde979b3598,
0x419a7f291f46c72d,
0x2673898f6a71cdfa,
0x795a91be38118813,
0xca0158ae6b2e3dba,
0x1860780adcc91177,
0x6fd720c9104a0cd0,
0x5fbc9d6f033734ed,
0x92e6c98d9f396d9d,
0x87dcccb781b82091,
0x4c931313005c751c,
0x191400ceb9d2de74,
0xbba4244eba4d58f7,
0xbe5046552e7612b4,
0x89f65577fa2d781d,
0xffcc37239248ccdb,
0xf7137cb80430c741,
0x7507310a00e95c15,
0x636be57b1fa10610,
0xc12482a5df370516,
0x0a8e3002bf7ca018,
0x1b13fbf650a227ff,
0x5312e0484245f57c,
0x9fff00a460873a2d,
0x3147565a60245226,
0x69d1e270a0df76ec,
0xa00816088e59fff9,
0xfe7a2161908f2f6b,
0x92d7ef6701337efb,
0x6365d7fcf701a1de,
0x6447922261b2fff3,
0x7466064a08080eef,
0xb7e28886bf203300,
0x16e80091cbb8f44c,
0xcb35a2030f8ab54c,
0xf6ea7f0131b396c8,
0xfbdf5c0ce772f1d8,
0xcdce9792d9bb1fd0,
0x3f4f3f758abf81ca,
0x906486015ede2e67,
0x1d540c057098accc,
0xc7f432e467e6c7cf,
0x540042cfcd083028,
0x07e7f37e2c9967b3,
0x76c45e80ef6109c9,
0x129e10405fffe530,
0xffb5e62770000155,
0x00aebef70f62e81f,
0xf70f5d7e92001302,
0x33f68f4817a9f098,
0xe3497d932081e76e,
0x01b9e75b7bf5efef,
0xfefbe0717640f167,
0xc773108e20801400,
0xdf3ea7bf00cb5945,
0xc800a0094019e109,
0x0f22117f6f3aa2d5,
0x28b7f28262a4f29d,
0x47ff2efae8810001,
0xf63ca0530117808c,
0x5639fff35e83f77f,
0x2ee76ee9350316a6,
0x8df76f6ee80b1e73,
0xe74ff3bb1ac477ff,
0x2f887d32e7b01040,
0xb1ff18093fb98877,
0xf4c076ff0b3bbf78,
0xfce3880b2f87ffad,
0x180000186f693651,
0x54e0102cf9fb23ff,
0x5140b90dfeee4622,
0x4fe888d0c1067a0a,
0xb6c890cc51985860,
0x3feeacfff7fc0016,
0x39ad6d2f0276e302,
0xf42ced40c98c3014,
0xab0ad7032ef9df76,
0x758134006627ca30,
0xcd6db91400286448,
0x08c06017624afdfe,
0x12ad08001180ff30,
0x01d814a04438e10f,
0x7f7c903deb290009,
0xe0308024c334c810,
0xe8f6076cc1af36e4,
0x82424134b90b7ae9,
0xe4a3338e268e191e,
0x63cc34ec5c9c2fb9,
0x6ff7a3e843acb12b,
0x5dc74e7d6fe8e816,
0xd1b4a805fbeb02b8,
0x9fe971e658b0e126,
0x6d1b299edb0d8982,
0x05283e60e4fbcc07,
0xfe26185affff74a0,
0x3e2e500c5caa85be,
0x199dfe3348bfdb6e,
0xe711fdfbcd9d4ca7,
0x818b9f1dc3ec0293,
0xcea0c1474981149b,
0xe63bfee03b0dfa63,
0x4491cdb80ddb0f7c,
0x991f060330f2792e,
0x33539d0a59db66ff,
0xc080be0d7e269ee7,
0x391835775c8da7b8,
0xdf16c1eb6c99008a,
0x14fcfcbbdcfcfc55,
0xfd2260805f040126,
0x279f73014ba29bda,
0xde705eb29c7fa7d8,
0x205e7752d5a20c3a,
0x8e726a009fd474aa,
0x6435c37a47240eaa,
0x8ca9242ad9730a21,
0x3237174eee6d7983,
0xcf66cf9ce1772bb2,
0x6cc4f0fcfa3ef26f,
0x63cd6f9ce617f7d0,
0x1d993ce7a1afba66,
0x402c4f80f62eb0b1,
0xb81bb4642e929578,
0x4bea21b78f889faa,
0xe72e77d6b8ac03aa,
0x47c743c8d5da5808,
0x5ed0ae662d9badb3,
0x64e7dece3d2650ef,
0xc2d16094930bafb9,
0x2477c0bd790d26f1,
0xc9c3c8479c59748c,
0x1f911fe218be5d7f,
0x8d51158a66ecbb76,
0xc5b20cddc16cbb6c,
0x58dcce8bf88b80cd,
0xd8e76f245a1d36e1,
0x40539f2fb0f1d3a7,
0xf579b1c88f33b605,
0x0c6f34e0c032f53c,
0x0bf4075ef1b62754,
0x2fad1be16c885563,
0xf0ec914a48b7b7c3,
0x98f1d9ad3254834c,
0xd583e31f357fdca9,
0x573b447ec53ab1c8,
0x17faf02db9220e6d,
0x75887777938b4908,
0x033970bd5ecc9ac4,
0x504b93ce14ab410c,
0x9f68243101fff827,
0x87ffa9c1fdb00567,
0xe710b2a9bd1de6f0,
0x23c11c9986c8eca4,
0x00e8d629a9e30022,
0x4ff8605913cdc22c,
0x80281429c4c8904f,
0xfeff971257f113a2,
0xeed0649322b8038f,
0x0bdd1f2b2a0c8381,
0x6d9075e31573eef8,
0x2720ff16da3ff5de,
0xc72da0157c89877e,
0xa9770050e16dcee9,
0x619b72310d604e3c,
0x19116b3cbc816ef7,
0x83bf02af20c4c41c,
0xdcd439c23cd1cb7f,
0xf1a6c98d4a61e21c,
0x3046e203a8bb4357,
0x87330511867deffe,
0xefa6c8b3f9d81400,
0x000c501bc0b52108,
0xc692bb74e6d0e6cf,
0x4ef60d9f67168100,
0x12a48c4392bf1103,
0x1d1df25d6610411f,
0x007b7bef1f7ef111,
0xb99526ff1300dfe9,
0xeb3fd8c3905e741c,
0x10dc7b89700a554f,
0xe1b2d73b1fb3ce61,
0x1addb7df6164ebb8,
0x7fe208900018fff1,
0x92cd7ddd63e75ce7,
0x3600c85b113155bd,
0xcf1627733e9497b7,
0x0836fd0090371e5e,
0xc6ffde3ebf178ffc,
0xd131521382f1406d,
0x6255e73f6fe567b6,
0x7cc814562ab7cff3,
0x70cfec12edb0a6f1,
0xe7e7f3805fbeedd7,
0xacf00df0010ec88d,
0x2fb2e7ffe2f88dbf,
0xe191e4fe247e00dc,
0x226ecc0d5ef69f4f,
0x0773540da040c9ee,
0x80000c7e1526a072,
0xa7d65d8027c9cc91,
0x88aee01442c1ca4b,
0xf3d05250cd10f3e4,
0x0e3a84c4489cdbca,
0xff49e40433ce5ffe,
0x1c631026f884ea88,
0x88b131772a033569,
0x2201881081364ee3,
0x7080fccb49aed2b0,
0x187db886ea8d31ea,
0x9cff9cfb1966d6f7,
0xf87bc8878562b818,
0x47ee77f7d7fc6801,
0xc849c0601102f108,
0x41f1d7661b3a7baf,
0xa66ff3fb6febf0ce,
0xd812aeae0285646e,
0x620c4d751b66f57f,
0x827fa094037bb94e,
0x6889d2642b4de0fa,
0x0a9cd43c45b26eb7,
0xf4890f0136e1820b,
0x438680358d883309,
0x8f8a6200c76f9b01,
0xd9acadc11d6220b9,
0x219c10252298f3a9,
0x7110784f107f3e78,
0x041632f207370058,
0x281641b077317011,
0x069c9183ef2f3b39,
0x47b8c033d774062a,
0x52f4a07c065e30c4,
0xf833c486dc6ee6f9,
0x647799ef7ccef9fb,
0xe6c8c3599d230373,
0x631e3186da84bbb8,
0xa875ec96e1da0f01,
0xbbf39117d2e9b065,
0xba9564dbd938c4ab,
0xae07628c628efbef,
0x9116abb3060408f6,
0x433710059936f22e,
0x803586a543351cf2,
0x9988664f001d8ee5,
0x303866b3067a3608,
0x31427b0948962354,
0xe0884a0cb8ce9f88,
0x7104626828002091,
0x236f6122988f6f31,
0x8a227f20455b06b0,
0xb1234003b33d77b3,
0x13c18ca0c118c0ac,
0x7388bc8425ee4a8d,
0x129c34a1e8a10012,
0x71ef6d0c18822010,
0xc333d708002b8134,
0x53f0e13bcccefb87,
0x63985c337cecc778,
0x06431e3f73b86dc3,
0x3d08d3e37101ea82,
0x03958b10e3cae788,
0x713fb4ab007531e0,
0x8a20e73f4f14683a,
0x233c42906ce95224,
0x83e0deb6411f7009,
0xb8cc8f982ebaa163,
0x127707b38abe3042,
0x71a61bba7ea6462b,
0xfec67f1395ec3902,
0xe3e073855609a989,
0xe9b2306979800ff0,
0x012d8e905d774f14,
0x4c1a676f3c7abff6,
0x0228be327ba6c011,
0x0db9aac39bf33930,
0x23b3af2ca17b4e31,
0xf321d5b8abd40f99,
0x641fb54d0061071c,
0xba816e02fff70000,
0xcfe77348c4abe573,
0xfab99000d7390908,
0x27e7c9a5a102109f,
0x10be7bc07bffff83,
0xe89577dab88fee66,
0x771073a096c0ef6f,
0x6a7005a0811a5dfa,
0x040148170c62a7bb,
0xfb4d9100556017d4,
0xc8029829ef57ff5f,
0xe706de0ee600face,
0xcef31f3bd7f31a04,
0xfe61df80cffc968c,
0x8aa5f6b83bb267ce,
0x67030fd55282d1a8,
0xeccf4cce33bfcc3c,
0x9dc61012e58d8a90,
0x424d0af901141009,
0x008430dcff10a007,
0x03c000649ee92721,
0xf88deff3ed146ef3,
0xdaf2f3131caa5006,
0xf604673fe9082f01,
0xcb481085bcc7db1a,
0x6a7a17704bf8e8c0,
0x9c68d3ffe3fb3931,
0x937feefc7f1adfff,
0xffeffa7e3501bd10,
0xf3378d8c62647118,
0xfed16fe280cab00d,
0xe213bf181e4dee7f,
0x5f74b89f3653f133,
0xffb33f9fa8c22e7f,
0x172159b628efed8b,
0xf6ff8117efe8c5bd,
0x5d957191c9224c06,
0xc9ff5241fcfd1818,
0x75e23e6a088b79db,
0xedb75412038dff97,
0xdb92fadc2e316e73,
0x5519ec70e933fff5,
0xbf7f8a2bd0d0f969,
0xdffbb306dae7dc01,
0xe2889a88bf36999b,
0x4131dff55088dad4,
0xc090b61a111aa5f4,
0xbabe19186887d696,
0x4813139d1d4c97d9,
0x9a006c3ed5d32330,
0xe7646013c44b3f83,
0x46ff950681812817,
0xd6fd6e83900bbcfe,
0xc6fdf5afe0c00bff,
0xf810602001cfcfcd,
0x99c88340d1ff5688,
0x0121efe2ce77cff2,
0xff4282e6f42156f5,
0xf7fff2ba52bce775,
0x89c6ffe7ffccc209,
0x5f1f5ffb0899a2b7,
0x000e3f7fff71f77f,
0xa2fda08e7f443031,
0x177caed3b3114b94,
0x3a5ef72dff77a221,
0x4fed36097fbe019d,
0x3f7fbeec101fde17,
0x23133508f001c716,
0xb1a0dfffff979884,
0x200c4042ddb72121,
0x7faf2127158cdd93,
0x7d3210fb9a045ad9,
0x77bc4015c06f511b,
0xafffe649e4f8e005,
0xc003e2eeba97f191,
0x72b9003b6e7f251f,
0xb0f3eb1fdecfd767,
0x2d32df67ee311644,
0xac99cb732ed6799a,
0xbeffa221ad7faa11,
0xfde5248fecc36f90,
0x69d4a8495927f420,
0xe6b9a19e83679990,
0x7c11322de77ffa4b,
0x3313887cbe6545f5,
0xa508abbd26e3e748,
0x39893737f1d890d5,
0x8a03e3b62728eccc,
0x8b7ed745c9f7c609,
0xffeeb77b310affd4,
0xf0fffa331a17f0b1,
0xc7339c1084f5f7ea,
0xf7f696912f21922f,
0x52666b1f6bcb1aff,
0xdf9e898994ad9107,
0xfb11d55030a3b8ed,
0x941bd7170230b17f,
0x2fcf0905c8656f4b,
0xd814e8c1cd328fc1,
0x2e2aa211bf76c4dc,
0x49066e7208dca009,
0xeb482353d82aa7ef,
0x44ad0e4ea5f105ed,
0x61e719531185f517,
0xbdfbef89b601f1c1,
0xa458b4bfa024c269,
0x280098c7067ce808,
0x6e507a29f4fee4e4,
0x3bfe0d00e4a9eb3b,
0xbb3db159efb4ba08,
0x01f77c81e4ed9008,
0xaac11c4d2dcad4c6,
0xee6ce37ab107d857,
0xf7efefeed9f1dc8c,
0x0cffd0894428a9a4,
0x53092908d64cb86e,
0x2014f1e911c010b1,
0x8187f809f90c4988,
0x46ed1809cf7e8df5,
0x17f300c838d407ef,
0x758101eb294fff70,
0x0426bedeeaae7e9e,
0x699d0888c5d4933d,
0x846f7fa7d0fe3991,
0x35673d4afb7fccca,
0xa89ebfff7f6effd8,
0x8193f1889dc69410,
0x95bfd86f1a50c808,
0xa05187bc1019700e,
0x5edf70ce372f2cb0,
0xb890c7c9b2c561bb,
0x2eeeaefd5ffc1034,
0x5003def040f9fa23,
0x155fcdfd59268abc,
0x715f96a00ed7eebc,
0xbff2bf07066f39ff,
0xa98711f9d53d091d,
0x4c919f5655c3f4dc,
0xcefb3e0980bf0053,
0x80a2c3345ee395a2,
0xc45ff25e81268eea,
0xf3e8038117563459,
0xb853d5fb2df625da,
0xfa068fff172a9b5e,
0x00260bf621101cdb,
0xf3fa1700d2de3da4,
0x181787b4108f0a6b,
0x18de547c409f2eb8,
0x6f40808f1057a323,
0xd73f2605b9ed00e1,
0x97feb098eadd60a9,
0xbb99100412cb25bd,
0x224d0cf3e4c118b8,
0x281eff60affcc564,
0xd909c1fd1cf1f82e,
0xa8e9d6b5000fea03,
0x49118896e7c8b37d,
0x208fdf94dfed9579,
0xe305c4c4001413ff,
0x918a2022bfbf10c1,
0xe91a71abf8cf51ec,
0x437f1676108819ff,
0xb335ed9b5224002b,
0x14ef004174d177a7,
0x37b33fc0604992a9,
0x0a07604fefcfab49,
0x8378f230f4c14f75,
0x25f9ca0645fd3039,
0x50004b6467fd80ff,
0x9eeb8f0f2c82ddfc,
0x3591857e17df80e3,
0x93df7a1eb68c943e,
0xa2ad087708be4f02,
0x20cec543e2e808fd,
0xf4303a1b64f10d66,
0x8c5fc5646f167498,
0x547710fea1cbe9f8,
0x7f6068a104ff8021,
0xef7ff01b045b3f40,
0x0fdeaff1114f3afe,
0x548f4afc7e66fbbf,
0x58bd0411c398567f,
0x0104d83ff8820006,
0xab9f5dd572688127,
0xeefb207ee20458af,
0x828f94f3774450ba,
0x067117735ffdc69a,
0xffdf1eeec11c74cf,
0x075de7ae0408e8c1,
0xfcffbc46004954ad,
0x407f14fc8ce0fc1f,
0xf5b2964c13ff6bf5,
0xfdbb26362668198d,
0x791e6c611889fb08,
0x0dfe5bf132a719dd,
0xf3d73f5e88473174,
0x4260abf79ecb8ddb,
0xfdee8fdd0aa0a163,
0xff667b0f91ed2268,
0x2fc90d461cd088be,
0x1c8503389fd52948,
0x83701d6024db5efb,
0x8ff93a59144f13d9,
0xb1543830dc876505,
0x05d87f4315a25d70,
0xf14b0be8d5e85537,
0xd572cfe22ebd82c3,
0x4527d1c41cca0809,
0x753291e7bb01aed5,
0xe42344d577d6eb69,
0x114c638e7dd0acc1,
0x91f23d1cfdeb3480,
0x5593dfc157f79c5d,
0x1488f371ddf21193,
0x18ec524e198fdb2c,
0x2c9cde8f4ccff921,
0x0c3188419d8ecc36,
0x3345cb4314bd34d3,
0xe250c6e6b8cf25c4,
0xb247ab49731f04d6,
0xadee6bc0c0571dd3,
0x439510d90d059d74,
0x2e318cde02f45318,
0x89b5984cdf9e904b,
0x6c732b31307707b8,
0x7ba1ad464bde7b17,
0x59c337defa1f35c0,
0x0af717348b8c08a0,
0xb9cd0b8ec77e7406,
0x4af9cc09337d0047,
0xcc4aedf6da1fbcd5,
0x8a8ea004accd54cb,
0x2ece13543f701923,
0x530e232001ed9c81,
0xe0c5af8a18911ec6,
0xde85e07fc3094111,
0x94e5b8df00ce31b3,
0x46c2e7ca00806cdd,
0xde772f8608118c8d,
0xbfe7c0f59498f900,
0xd0a282faf3faef7b,
0xde00c8cfadaf0b1c,
0x009bc33f221398d9,
0xf53df7350ce91397,
0x28e7617b0cf10acf,
0xf8408ecce2600de4,
0x889813762091133c,
0x13557b75c441149f,
0x30c30ee47e94ee8e,
0x9aef3dcf51dc25c6,
0xd54d76c492db3fc5,
0xc3c78af277a9accd,
0x0541d624081459d8,
0x61636ae8f99dccce,
0x11f8cc759edcff19,
0xfe0868daf1054095,
0x5d81840067045cb0,
0x4890ef6243758bdf,
0x3a1b64f870abc200,
0x3ebec8340033042d,
0xcf580cc333bde9bd,
0x301208a163f48457,
0x1c981dfea253bbfd,
0x7d09c055f002b939,
0xdb75849a2c7a9eec,
0x7f5a53649fdc4efe,
0xe8cc03676395aeed,
0xc9d4a7c2267246f7,
0x88130158956530d1,
0xec8a0888509c2819,
0xaa2100f46bb5f064,
0xe7bbb10e4ce5f162,
0x8b80f0e263fc61b7,
0x1c9d0062ccabf710,
0x0c5958218c634013,
0x19d27da0fa002891,
0x8fbcc8da03264c18,
0xca9079b26936caea,
0xde19935ea30308f1,
0x890c683e11737788,
0x0899b2e180498fa8,
0xe3cb75dd5b704ffa,
0xca8c23683aa32e62,
0x36f2fcc32128a771,
0x333b8d216e818ca7,
0x4451373866fc46a3,
0x1fed817d87934c87,
0x3c004741f5e18ea4,
0xcdf4c80098076cc5,
0x866d5530c46b4094,
0xed99c21ec388aa28,
0x03ffc236fe5e5652,
0xd141c50081ad1c32,
0x557f375788051c74,
0x091042406a0000b3,
0xec7071407dba335a,
0xe2fc4f358801ced1,
0x89544f3265109852,
0x3a77415a40fec833,
0x36cf5c00687fdd0c,
0x76e530e0ff55d191,
0xd51eaa5a4ff29081,
0x0e8c3129e7d7f973,
0xc17211ff2c2a7b90,
0x009aeabf0806880f,
0x1f7011f89d8b6f80,
0x7ad74402100efdfc,
0x5acc403210908762,
0x08ff3db31f23cc4b,
0xe2e178bf5addff71,
0x4cc6159601cfb439,
0xa560c5f035742df7,
0x4d31668843d94880,
0x1b7ee4f30cc21336,
0xc441d978fa6a2f7a,
0xa28b9f75466bfa32,
0x10115c0800901355,
0xa71a7bbc36c4377f,
0x1bc00823339a0598,
0x46eca646c442c832,
0xb031db05ef7c2eeb,
0xfede5f07c8c77ef5,
0x0dc43175dbfc9065,
0x7fff510e3ba04a60,
0xbbfbfa6ced90d4e8,
0x04cdc72d5fecb841,
0xdff973ff83ebd748,
0xfe60086fffdbfc77,
0x8029a00d313faccd,
0xaeeda448086f1330,
0x767ebfdbff4f762d,
0x102b2335cc2ffc5f,
0xaee9b7116011bf48,
0x73e4cffdfe7a1c9c,
0x3ddf9aa8025d319d,
0x55f98f747fdfc2a8,
0xfdfb5b7b1db82146,
0x33016fdfb8755fff,
0x9463ffaeffee7fa7,
0x5fbafbd3ffafbfff,
0xfbff12fa3b113644,
0x23653b31c67dfef3,
0xaf370f66b700eff5,
0x649fce09001b367b,
0x40c8ffeb87faa05c,
0xfffa1313eef6fffd,
0xfffd9e960048ef2f,
0x9f6bfd128298fff6,
0xfeff1b7deb6ed0bc,
0x7e7f13b3440033dd,
0xf30c21fe5fec5eec,
0x8b9d1ccd8de07c67,
0x2361ef996eef77fd,
0x83d7ff2a4976af78,
0x76e16fce57fdb15b,
0xba731ddffeef0cce,
0x3a8b884ea6e56f34,
0xcfb81afff7fb5dcb,
0xfeef77fb5fbfaf77,
0xfe8cdb8cde404dd3,
0x9da0765d67d93d3f,
0xf3efd2e0c7cdf007,
0xcedd88ed0bce7dcf,
0x9fe5abfd33681acf,
0xf8d22b2fafef3337,
0x79a39a4090bf699a,
0x87ffe1adf7aacfbd,
0x0c467bff597f1c66,
0xa00df1009efb0256,
0xff32304beec5f6cc,
0x0049afc530810106,
0x5d73744b377dc112,
0x7cb32d7eb4331957,
0x9cf9ed3a7e77b99b,
0xb0fec2e8eb3f16d8,
0x9e0efb7fdb5b3067,
0x7fbf260ad711f9df,
0x889301498eec37f6,
0xf18032a78c560664,
0xd324ffffffa9b917,
0xbfa71665ffefab5f,
0x81df31b17eff957f,
0xce3f0cc66b7acefb,
0xb3339edf76fb34cc,
0x371370cd6fdb7086,
0x3b7b042031b864aa,
0x30df7755f2315f45,
0x00a87ee10c44202b,
0x5b0edd51f877413b,
0x1306db944372a310,
0x16fd515d307d7e6c,
0x021339a7d6ac3463,
0xe60fbe4ebb1be5e0,
0xee338d20acfe330c,
0x7f40f73306820dbe,
0x204c126d179651d1,
0x7fef0f4883603f97,
0x1329020403e02709,
0x1cf31fe5fc7b31c8,
0xe32093cd44336b8c,
0xede03e66339900f5,
0x19b1e716a617eac9,
0x9dce02314401622d,
0x1ecc255eb1e575d4,
0x39dce6133a369190,
0x9348ed1b780a1a8c,
0x0eca4acd141b6133,
0x305ca22bee13c771,
0x5d398e63bf5a3934,
0xb07318a078cc9fd7,
0xcb40ca8ce8f94e47,
0x92e4460979bbe448,
0xa3dde351599e3d93,
0x1681e4c64b1d9713,
0x0403364743fe3210,
0xae8010879679f732,
0x5d483dd2ba2bdd36,
0x7e1dc72e0e530f98,
0xc1b63ec01349b2bb,
0xfbcf8690c1811ba5,
0x7fe93b34283326f9,
0x029f453037f63993,
0x38f4133b19f37611,
0xc584427c8d6c6052,
0x33a2738cf4116d11,
0x214e62a8fc27ff0c,
0xb3ea32bfbab366c5,
0xf1b8a6c6af91d20f,
0x82b3866476ed6c8e,
0x660433148ee0644c,
0x3819612877378aa8,
0x138c0577862a7a03,
0x39b7a3e801bb6d91,
0x6335003363734002,
0xb231a3507618822b,
0x25b853fe8e577e12,
0xface0011f1772ed0,
0x87ec3423f4d80232,
0x0c92f6cc62037834,
0x1dd77417c237d11a,
0x3d9f7cf770a9dea8,
0x78fca033aedfe2f7,
0x060bc0111c6d1155,
0x21135bcff343a478,
0x3f917325361bceb2,
0x356760cec2d9c367,
0x718cb9b571776adf,
0x767d05c8909cb90a,
0x37250997008bfe5f,
0x8ad861d00ba813e7,
0x49c6ff75204667bc,
0x00742a8d5cecf6df,
0x020c86b1f2716838,
0x131cf8bc16ca4efd,
0x508a33b0a00070a2,
0x87e6fe5ff022238f,
0x88f884f17acf05de,
0x0553fcffd8c401ef,
0xdeb7c99c1be524ff,
0x7337bfcf15a912fa,
0xa8dd81f5fea401bc,
0xd44d9842148efbfb,
0xc1db930cb6668884,
0x1225c85db5421101,
0x99bedb11ce8831c6,
0x51ffe64bfe97d90f,
0xf99c38dbbc768f19,
0x8c81fd0200b402b4,
0x4577231c881304be,
0x37920419a80fdf05,
0xc9b0593af5effb0e,
0x4ffbfe8d0aaf51ae,
0x691f900bc177c465,
0x8e3ac80645d40000,
0x827fd872bf84804d,
0xf3980e09dcee12b2,
0x0df27719c8c0def1,
0x0d73c80a3c9dbf11,
0x52278a138821ebee,
0x9cc40a77099c03ff,
0x5bd2afe67fd94301,
0x0ccb6072846df5fe,
0xc58d2a3fad6b44fa,
0x8d52a85e2001efbe,
0xd3226f6c20b5b071,
0x180ba5ab884607cc,
0x9eda8c88d21f026d,
0x03ecab66f48c48b8,
0x0c62e77fd95e13c3,
0x301179804274192d,
0x00234daded3990c3,
0x00aafc6601bdb03d,
0xcced14c319afbe71,
0xc0ca0d4a8b0132e2,
0xb00fa3677a0d11d4,
0xff7b0aa1c4a69834,
0xdd7e5d0bc4e56875,
0x9986d48715bcc193,
0xff84bfff97fee278,
0x80da289f6c3acf8f,
0xa9113b0db28ecc19,
0x1933485ea219e5e6,
0xcf37b72bb3500ce2,
0x6c3df1196a094c20,
0x4301877021a01087,
0xaa83ae18110c9090,
0x680895882b8999ce,
0xe2fe671380a2149f,
0x086ca6dc2ce0dcbc,
0xd7ce818d13981400,
0xf2bf3bf790f7d358,
0xf07663bb704680c6,
0x98095cee606d84b9,
0x4fd7088c00a3a263,
0x7080d108dc7132d3,
0x06fd392509ff4893,
0x02374121e1cce0ab,
0xc86e917a0231fe88,
0x446e0c89952724ed,
0x4612214317fe2fbe,
0xd81a982c13399315,
0xc29c9fd6bd08f7f0,
0x3f22c7bf224d5e17,
0xe4895824cfa8bb00,
0x91638c133dc9bac0,
0x1a69d801074cfc35,
0x4f27e450bc7e4a4b,
0xea286dc304cba3e2,
0x52490c6721539932,
0x0339d17defe93122,
0x1fcf05ac29db843b,
0x8360149606efc613,
0x4d6fcdcc84b884a3,
0x9804c886f498450a,
0x4c8636515aca55fc,
0x183184599093ea91,
0x7b0d107485316d3a,
0x7a5910ff095ad0ba,
0x7a20f120e84a8ccc,
0x68f76e0b53488c0c,
0xf2578e6891091891,
0x4fb10e9fcc687923,
0xf08cfdb48b689711,
0xead2a88d16e9de23,
0x2101dd0b70cb0131,
0x52f1851c63bbe8b9,
0x020f17570cc5dd3f,
0x7c1002f340c89167,
0x06631022c8374ffd,
0x8e334536e41d1c2e,
0x4b4383a0d11edbf3,
0xc40d00b783f5106a,
0xcc9091bad503f205,
0x10c6c808980c818e,
0x00648feefcc30932,
0xb733c29b00cb13f5,
0xb4718cf382f888ba,
0x7bfecc8594c033fd,
0x7e784a8a0d700cf6,
0x60ec812e36e12899,
0x5cc593d45bf10543,
0xee3c04081043132a,
0x48cfb115af8c9cbb,
0x0e58c9360077748d,
0x7c12e2ea703f1c06,
0xa6c714ce708b848d,
0xb8a1723808ff5f00,
0x1829ccaf06a24210,
0x9f278ebf082e4cfc,
0xe201d8b0cec1dee1,
0xd540802323e8cc14,
0x099c6c0dd34c34c2,
0x11ec0d9e1cb38ae0,
0x45ee150e408ef9be,
0xc16c026b7698ce6f,
0xc5ee218b535cd110,
0x0618e54ef18a750e,
0x7c884bcdceed9e10,
0x08c06e1e764f59c4,
0x51160fe81b27f581,
0xc60bb816c7396ec8,
0x31517fe4ab66b1a5,
0xe509bac482312003,
0xd761192cac8bdcd1,
0x4808da3001f48040,
0xd30b4465d7fd9fe4,
0x03dd3a24209d91ad,
0x88f7b24f62014411,
0x405d544c84a04008,
0x768637613a760119,
0xfee3cfc901b70764,
0xb80cbdfd40aff918,
0x5450bc7490241afe,
0x421a6422b6aeced7,
0x40f6f67a85001596,
0x79dc6e66b99823ba,
0x7cf57ef752818a88,
0x1a74f0c1883994f6,
0x7fe5911828341174,
0xedea7cd480817d7e,
0x19385094e9dde26f,
0xc40800da6544012e,
0x237f2fffecec3c3f,
0x9c6086405191a32d,
0xed473b18c0a2f731,
0x166080004c02ae6d,
0x2210456f807f3bee,
0xef482c476f1c2048,
0xe31e40be5f8cd4a1,
0xcf3fcc127070fade,
0x0d18033eb3b466bd,
0xdeef756c088eefb6,
0x70188161b1e8b048,
0xe14090a500d8d845,
0x7b1a358d618c6411,
0x0808b104fed1f002,
0x2235c8cfe7bb9080,
0x8c9693ede702efc1,
0x010077451d08c813,
0x1933009c5ef503bf,
0xef4d4009c8cdf400,
0x54b84fd0f7aafc00,
0x83a23e10f6819109,
0xe53470230800e9fe,
0x80036d3b77365be9,
0xca05c804bfcfcbc3,
0x768906f651a81a10,
0xf14633741d10930a,
0xeeff0ef027446ade,
0xd9286604ea2c7efd,
0x1893c0ecac3f0080,
0xa1d46e911733aa87,
0x002c82c0a28884bd,
0x137d0406c8c84cbf,
0x3eeeff79ffcbb50c,
0xf47328770f0e4513,
0x6e91e620f092695d,
0x0b0398c5580c0cfb,
0x419f0454a8a21dfd,
0xeacab7e5a458abff,
0x772e8f957950a7f7,
0xfdf77b1dd779aa76,
0x73c9f7eff977567b,
0x3804101923f72a35,
0xd064923bfe6077ca,
0x6510a8b012772648,
0x300f15414055830d,
0xe6f9852ae277e9dd,
0x6863118460449ab0,
0xba264c26cacc68cc,
0x018e7f65c8fc9389,
0x10d11dee775e3930,
0x80f7a48ce7db9f6e,
0x3f6ff2ce873e88de,
0x7b104ae621f3003b,
0x37183ed3fbe4a3a7,
0x4a36d413085cb03d,
0x33e8ea17ff77959b,
0xda61ab5f4b2f7ff5,
0xeec40604591ef23b,
0xd51b3337ec7e3565,
0x96ffe34e6c1ceced,
0x084e6b08c676ff73,
0x416b375c3201c561,
0x9fdcde379323f188,
0x6b70ff244194eeec,
0x35d19b20fb81f11b,
0x723b2089fcfeea31,
0x3b1210fd9becbf78,
0xf8b8dcee137df35f,
0x4edf1b5dececabf3,
0xb86c7773316736ac,
0xcaecd8b71388faa1,
0x89334b9142ee72f2,
0xa231500539f57470,
0x3f70790dcf724578,
0x9da627032126161c,
0x52cef3a3d8ce31a7,
0x91b0d7549960aeff,
0x1371eabdba57537f,
0x2aa5c07e7f7f5ab0,
0x0dbb44dec2261536,
0x6812b7297c926019,
0x61233f04136f0507,
0x5f74ed00c4397cce,
0x3c7cedfc8514b890,
0xa39fd08a10fe9120,
0xee3bb27f93441c99,
0xe6ff6c6e60c78a63,
0x7baa5f7af7f5cb3b,
0xc9b4deff59cc2101,
0x008c80d1e21abee6,
0x889d6430417d3bdd,
0x7022e35ef8ecb279,
0xf78b08a131becc44,
0xb5be8b8c2333b2ef,
0x84de2ff68cae7809,
0x8f84b3346445936b,
0xfad10170ebfe66e6,
0xac7112aa8aa6a8ad,
0xefffb7d3ebbb8833,
0x89266b0dd5ecbb73,
0x82a91f0088327367,
0xf3693601b2eefa45,
0x84864809c09fcdff,
0x719ccfaa08fd7cd9,
0xc6f20011e2a9239b,
0xdcfe004f68b16644,
0x3dc64a0648cbf7fd,
0xd9dacc1370c25cdd,
0x695f1933c0c8fc02,
0x415228adeb1e2b2c,
0xd073adda1b7b61fb,
0xce87cc5c7573d536,
0xb5d3d93607375c49,
0x7e0d8c0a01f23bde,
0xca4016937b9d6089,
0x77f9842614e3b71b,
0x6d5d4611f1973f76,
0x5101844a32d0ccc1,
0xf2556249ef196b03,
0x8c14bbbf81049ef3,
0xa600bbff32f7804f,
0xf020260730ab6ff5,
0xe9ff7dc82481e2d8,
0x0277dec855258284,
0x419e4c99042112db,
0x124c40a12533b7da,
0x8fc0c7918cf08d98,
0xed6711bbdd73e462,
0x99d150ebdae10b7d,
0x0effff16808ae999,
0x4a59beba0a6e121b,
0x468f26327ff69800,
0x0126b0a81dc8988a,
0x8ef13c124db9ad7b,
0xd57716ce6448ea5c,
0x192a47378641eefa,
0xc56e9e7cf71df16e,
0xc581e3cfdabf8b5a,
0xe8d380ec59d1d934,
0x9fbb620810cbc443,
0x6dd721f50806d354,
0xf0b36e455087c451,
0xc5138e014106feff,
0xad64c1334ccc2198,
0x9c5c4d252449d660,
0xbacd5884481f99bd,
0x59a1c1c48c45512e,
0xadcf86137eb9ac01,
0x490285353b83fde6,
0xd4e2e8c5738adf5d,
0xf0359b88cccc9ec7,
0xbd775137e180e5e1,
0x0c4fc09c98bcf6af,
0xbdfb78d9b064509b,
0xe4c3bcdde845cf91,
0xfee8533f8032a3e6,
0x1d3f81f431008c81,
0xed82ff32c2a3ec1a,
0xc7e04d11c119972d,
0x20bc34611b3340ed,
0xf240f389c7c1d733,
0xc917c821c0187ed0,
0x82c088bb3cdcf779,
0xc51aeafb0a42d103,
0x9c5b398cfe5b387c,
0x88a7a46ffa75d8e4,
0x5793ed09d2c2f52c,
0xb80b7efc3bc0954c,
0x941ae476831fc544,
0xa5cdcdcaeb0a64c5,
0xa18396d48e699483,
0x2850ae81d70e2444,
0x0fece361af894ffc,
0xb4f277c7bc9aebc1,
0x93e6e3b3e830820d,
0x5d3f7deae6066ffc,
0xa300f0391980f931,
0x88c0f0361a27dc99,
0x7b80f9f0fe219bef,
0xf5969fa4c7124944,
0xc538d34bd4808f91,
0xe59b77bdf0b3de9f,
0x2dcd87396608ff82,
0x6f56fda0d123d1df,
0x62b4c7c084523eb2,
0x34f0f721ddcc2274,
0x549b38ecc830de87,
0xfff45e3567336c20,
0xeb238daeefc9b770,
0xe4867192e78f562e,
0x691aa498610fa68e,
0x04fa8ff965d17e66,
0x1216edaf3e120475,
0x7fe8bdd3680abdf5,
0xd58bf46a8da2b6b3,
0xbb576e8a166b9f63,
0x1f23e18345409dc4,
0x865db5acfce84500,
0xef96737cce06a93f,
0xd5848c8ce1fc9ad1,
0xff39e226edc2635d,
0x54a396469eecb5f0,
0xfb1c7cd7fc738009,
0xc9ff35b91b246c7b,
0x9d8ee12cf7b3f022,
0x53a1ba00b58a7109,
0xd7b1db0c46ba28f5,
0x3d58fff460b41292,
0x140beda09ef78cc8,
0x6cd5321195fcf23a,
0xd12ae8da6c4c18f8,
0x56bc7727b1b7e959,
0xc63f8029ff04c82d,
0xb8c8d7323ed8535c,
0xfe38aa00cc8c9e89,
0xff76fd838cbdfbca,
0x051e49c74965ee73,
0xc9f4d8520414c0fe,
0x2702a06eefe8e6fb,
0x815d28c8ce647909,
0xfc784c01926ff7fb,
0xf67afef2894cbf3b,
0xa002b6bdee001d5f,
0x7523bf336fe0e1bd,
0x30b04fdce046ff3b,
0xfb3a3d89ff3d2d48,
0x7919ccf1aa88a147,
0xfbfaedea8fe11ba5,
0xefbd8f49020c8639,
0x3ffcd1419f344316,
0xf3380909f8d79cea,
0x380f7f5bfb18ccc2,
0x870f950c55d2029b,
0x91ec11041ff9c091,
0x70ff13b9b78701b7,
0x8d89bf2acdcf433d,
0xb91f87fb4e99c3cb,
0xa7fc379d33fe9c92,
0xcde01f0f6cca55ab,
0x3bcb69422ff08a11,
0x177738e57fb8436f,
0x5898539abb0ff61e,
0x1d0110402adf193f,
0xfdc5137e21cec28e,
0x3d2f7a473612369f,
0x9f30008f3601e7d7,
0x00be8098403feebf,
0xda4983ea133f35b2,
0x3b3f9c8c92623ab5,
0x65b7040aab5fd37f,
0x171c07b8808822ce,
0x95b6997609b80c40,
0xf1f3ef9fc0f0c8b7,
0xf606b444556d0d0e,
0x17cea27f141bdf43,
0x7e9f3f3f59c81917,
0x1335dfe51f6ec09f,
0x6fc7ef2cac0e5edd,
0xd0c41bf63bb2672a,
0x031dc6ea5bce7896,
0xb1bcdfcf747a9335,
0x31b78cbf6096e60b,
0xc33d133811950b19,
0x11b1937c81acf9ac,
0x1cf80bd7fea9f662,
0x749d2289ce3dcfd6,
0xaf880ff7bdf50935,
0x40beeb4f752808a9,
0x910f88366e4f218a,
0xb9ed37ff625ecd4f,
0x58ce10826260408c,
0x5339d81b033858e5,
0x0aff5d2c7df12147,
0xedd26bb9d1ce3c67,
0x2bb4377dbd933108,
0x38f74d82348aadb9,
0xdb9ebddf020008fc,
0x45b832dff8dfc927,
0x0b5f073938841624,
0xd994fcde26e4220f,
0x13a91b3e1fe38171,
0xd9e8ef9a48c09b69,
0xb1f1b7edffdf72ff,
0x5508635f292fbefb,
0x632e268115489fc0,
0x1f9b0022bea52a5d,
0x02dd03ec8b7761ba,
0x0c39ebff099e1b19,
0x0a7084bda53f48e7,
0x136bdd63d7ef0baf,
0x209eaac8584f8d36,
0x1d88b70ea9bfbccf,
0x0f76ed74801fc047,
0x83a5f97377377fbb,
0x6368441d9eff8fef,
0xae330c15072a6808,
0x88c1056b021ca60e,
0xfb0c340d102c7697,
0xee40f324f771eb82,
0x109004c71546a71b,
0xffb4210255c53114,
0xff21410116f3468d,
0x0089300211ff0144,
0x08a4ac0105e65100,
0x409b25bb883f6058,
0x0803a11008016500,
0xa08df11540061666,
0x4b5ff867af4eeba1,
0x40159ec21eb39012,
0x1014aefdf7fe086d,
0x5800efe7088f1918,
0xe304ff762c8fc4d3,
0x32756a8ca3ffc3bc,
0xff9b9dcf6311192f,
0x7001013f3a317933,
0x890b3e1488a1b022,
0xcaff910808047710,
0xc7134cc4014081c3,
0xcaebfeca5dc60008,
0x4decdb1962098dcd,
0x11e63ff600864f33,
0xea648e04f9b305e4,
0xb9f0a010cd4ef77d,
0x002f7b3bf5004098,
0x64c70a77dcc5af9e,
0x9091bd406ddf3915,
0x8414d7bc2cb894dd,
0xc87fdffaefc11bff,
0x1cc0e600699f5334,
0x487268fbffce2d8a,
0xc9a78c0108d1f649,
0x9640f6e6902e808b,
0x30581c6423f9eced,
0x8c385be6f6cc7945,
0x1924206367418b82,
0xfc0158cc08f04781,
0x58009953899cb445,
0x7ba2eebb5fac208e,
0xfaee874f51dfe977,
0x3aa4174176e8fb15,
0xe050dc50bcf3994d,
0x91632498bbd098ff,
0xf0837ba3ff4d91eb,
0xbda4f9d9bdfc4ed4,
0x8ebf40de0109edc8,
0x380100843f07879c,
0xcd988cbc00c80bff,
0x71812d00c40371ee,
0xd7ee4000e3fe00e8,
0x0e860198f26b309c,
0xffff01260111a148,
0x808d61d9982497f3,
0x6fec16ff9cc26e00,
0x8875a2f31cc4df5c,
0x6ff31fe3efde4941,
0x849dfe15bdb8f779,
0x21b7780494f2ff09,
0x13333fee77132186,
0xc7050856c00bff5d,
0x391241e4967176ed,
0x57114011e0e928b1,
0x5e788aa204ff2665,
0x07fd01c9cc49207c,
0xfff20abd21021bed,
0x408d5000e9f361ee,
0x1033ffd160e71336,
0x08333edf7fd24b77,
0xd70dbeb3ed1e75b5,
0x4efff92a72e40beb,
0xc9dffff3b7810bff,
0x473c50e08e8ee848,
0xf881217790063e03,
0xc1bc5dfd506d88e0,
0x694d4039e9a255ff,
0x22c6a97eb77f00ef,
0xacb1c5f1081b0ff8,
0xa99f981d62a83ce6,
0x20d81d3f00e1557f,
0xa6196089a501fa93,
0x4bd3cc49d2cf1140,
0x019c48b800b3bfcf,
0x0df53feb7cf07643,
0x5c092979f2320bb7,
0x90100cc4fed7103c,
0x0a43a114efbf852c,
0x219c806877f93809,
0x0a29d5ee32fc4b11,
0x0809b9feeff09761,
0x58376295060bd189,
0x564f5b3b97a3c7fb,
0x49d50188ef9da852,
0x9cc860eeff8e911c,
0xe7c7a86b13095e2f,
0x725118e800905a49,
0xccf667ba0a1924f7,
0x1efb49ae55431e9c,
0x0a17f801410e1410,
0x57317cf718ff3223,
0x3116258dc0831bff,
0x20fc35c4101038a9,
0xc5ffff1ff911b3f7,
0xb52a28062e132448,
0x8453f2ff72cb18cd,
0xc4ffb816a2cd14f6,
0xda8948c7370072e7,
0x67b5b4efdef93f0f,
0xeff17478e49ad994,
0x2880cee0733ef7fd,
0xffa1400ddfc3d7fb,
0xb5f68cf37cf75689,
0x63195b1f8e3bef6d,
0x3fe5037f1cb5bfb7,
0x899bb84e719879b0,
0x7ef6b73603208485,
0x5dd4acc1dd9d9786,
0xf791ffb1788f00c2,
0x51588beb073f9085,
0xf2026048e5911077,
0x80008014dcd177ee,
0x75adc0cf210a0002,
0x972b7ff7be09bdef,
0xcc424329e92798ff,
0x0f110971e40c1e1f,
0xed5d057a00f7510f,
0x20c3cef5bc4a1a30,
0x86411fe4cb78fd77,
0x5881b593393bd87c,
0x47605264698a162a,
0x88900b57af100121,
0x14ccb006e39c6096,
0x410da164f76074cf,
0xb73703cd426b7a64,
0x554218b71f784684,
0x5c824f4e5056615d,
0x1d63a462f25d23c7,
0x1a8861248007300c,
0x620b8c02e8288931,
0xba82b7ec440096b1,
0xc8827980207b2091,
0x1e4a668aff363206,
0xb1304e636869ff01,
0x81044ca92a970046,
0x88def226eeda9ccc,
0x2f3db0976641c8e0,
0xd36882091a11ae6a,
0xd98eaa592047c30a,
0x31dec00ee0093317,
0x984929ccc6c348b0,
0xdc6074ccee302b06,
0x081e0282530cb035,
0x3af68bab84e16f61,
0x37db104ba94f0661,
0xc803418c48121ae0,
0x002ee67e9d44c0e9,
0x49708e5355c64ed3,
0x32e6036e094e480c,
0x091fd501d6c8c84f,
0xb51a4061a89aee69,
0x05efd68c301e1503,
0x28714f813f15626c,
0x0010988b044c3e12,
0x10fadf2bdba26484,
0x8a0708b46fc44f73,
0x57410272a4af1edc,
0xcd88ec9d0086526c,
0x7e89370005890d00,
0x176ac7ffe0506309,
0x30ac4a7c139144c8,
0x2382490fb231c423,
0x35643db5d5ca20a3,
0x919b6d4fe8b744d3,
0x096e7058f5fa2444,
0xfb516f05580c3d0c,
0x8fc05403fbe13c40,
0xb679001ba061b70a,
0x8c4b232f8a39a885,
0x67d28d027913976d,
0x0d07006254870d35,
0xe053920991e0c8c2,
0x1028b08527313b33,
0x88eb4a09cd38b8cc,
0x293631021647db31,
0xa7844ccccc93642b,
0x4530300162d71063,
0x0c5b8433f7986800,
0xc012d25f9eef7433,
0x0f73117400c3fef1,
0x07691231f9c5ea98,
0x8fbbdf3915695a5c,
0x0080bff290892af2,
0xfff7359ebc03b49d,
0xfeeeb90e101d001b,
0x88c35ce621b31086,
0x001d1438dd64f308,
0x0245ce67fcc0d010,
0x9d2e282f931e7efb,
0x3fa2f38073043193,
0xfffff5f3006b4199,
0x2118ecf8dcbad97c,
0x451c13f7a1260fe7,
0xd4ea41c8cc4b6c37,
0x04109136d44d1010,
0x2d3820b0700cd6dc,
0x60fe80f16678f82e,
0x4018c802f7787fe7,
0x60f76f7f002615f3,
0x4e93ff91cc3e0731,
0x6b738089d12b8005,
0xb1fddc11f1f1ffd2,
0x7bfb97a67f6c6154,
0x952ea71e310d8d2f,
0x2b01ecce04078006,
0xfb811c287f9cbccb,
0x119698f2ac7a30a0,
0x3036418074feef68,
0xff687cf709db2667,
0x18ba82ac67346fa1,
0x71e3c3f500049310,
0xf59efe86a016ef63,
0x78302865f74bb1e8,
0x6ed6d251793eee2c,
0xac487efe21f73eeb,
0xeb292ebb010ad4cd,
0xffc1af086db04d8c,
0xc09069b8b920cf93,
0x13e476fd8b200725,
0x20ff6400be741180,
0xc00d302e77cc3c63,
0x9992f798c4684996,
0x00ad6cf22051cc4c,
0x3fd4ad5b3800adef,
0xee60f9da2c224428,
0x43bd6555d44c5319,
0x67e3336fb2e24173,
0xef284646f7b87a3e,
0xc88f16bfe7151fb0,
0xbf9b6fe50c8f91ff,
0x9015ffbb6eee827b,
0x2572794127f39805,
0x61000ad0c8044dac,
0xe76bc5d8f7991373,
0x31b716a000e0637b,
0x5913e9c0d13a0120,
0x7367ee9cddddfc00,
0x4018cc220f76c6bb,
0xa0e4e8c922b1819c,
0x0453f073cff11105,
0xb023a8ff0d730888,
0x08027f8051b93ff2,
0x4c4339fd30c6f7fb,
0xe6190ec16ffe8012,
0x473505a1b098a3f9,
0xf237a3444d900f67,
0x36e5ffb9e1174bef,
0xc19e2365b90e7f53,
0xef3bb290b0b19e60,
0xe13e1f28a724b6e5,
0x5e794534e1b65e38,
0x0e177f5fc220bfb9,
0xf30e92e85be221bd,
0xbcc6c460e1c023f1,
0xf64eaacc0d08796e,
0x4e2309f1fee93e31,
0xa043f981effcfbf4,
0x42a4140053b16756,
0x01421dd01a224706,
0xfe6c7e0a6b337333,
0xca9e7302488027e0,
0x4f484eeca118e679,
0x88600075ddd0800c,
0x915fd5e4beeac358,
0xf38cf9f6a0506e4c,
0x6f8a5f67c6b28004,
0x31446729f7134c05,
0xa7d7e65506a958fb,
0x724a9aead65ead00,
0x30808715f129889f,
0x732f3b106f6fc73f,
0x4b7dd191b0119837,
0x67fdcc4486a87e93,
0x7e893d4680ccf660,
0xee077f091e00d63b,
0x9ce095b10762b021,
0x4dc17fdfa0802000,
0x92b8dd0424bc8bd0,
0x128f802f6fb2790d,
0x461b129f92070100,
0xe0bf0051d4b93200,
0x54fb25420cf74e73,
0xef10c2114b3397cb,
0xfeff1dc426a1ff79,
0x57eadc54f3bfc22c,
0xa31c0122f011f720,
0x9740a54c38d43ee3,
0xed85ebbfff020e8a,
0xe051d7fd2b18bb6c,
0x904fbc749110aea9,
0xb6e8a91ea08e49d8,
0x0144936c8d489f6d,
0x729d64be7502311a,
0x81a3b301efbcfe02,
0x65eabe7f83302201,
0x46f0cbc1e813f040,
0x4eeeffbd2444ab84,
0x91112629106ceeff,
0x8fa985e05751ea80,
0x8218ffb3bcec7c18,
0xfed280c6741c7710,
0xeb9f77306421035d,
0x22f04dc70277ae69,
0x7c7904c800726ab1,
0x02607bfa7f65f70c,
0xdb09b1860f2e80d3,
0x4fb8dfb7ff11a3b0,
0xa0102113d008230f,
0xf88eee4046ee3f0a,
0x00866f00775b204e,
0x00044355bc90f1c7,
0x4806788887f302d0,
0x5000ffe218cc7902,
0x482ca8abb10d1080,
0x9600850e2200c008,
0x4810ce7366ddd02c,
0xa080048f647916ff,
0x69b738104020b40d,
0xed66b01067007d44,
0x00579c88213a0487,
0x2398003815ff5af8,
0x0679e7788ef7ce65,
0xd888cefe84b06001,
0x0000ff5c01e00f77,
0x7010600c6e7272be,
0x00ce4cea1603b088,
0x41a85adf8c947986,
0x8a8cbeec004487fc,
0xa0800080fd190117,
0xef7e12f480237927,
0x89ee3cc0801bc1b1,
0x0808813ff09e0073,
0x868181860d041510,
0xa82e84ffe0f8a24c,
0x88d0066000110100,
0x9959e20101610e11,
0x464100849083fc68,
0x0301c27e508e798a,
0x0000b0407f0ac133,
0x571308bbd0a50610,
0x3b3112000a2833c4,
0x9317123673daeb3d,
0xecef772f9009db33,
0x2cd311210078411c,
0x600c447b3dc5ad01,
0xc16682164954e314,
0xb0008cb4f7f151a3,
0x29533005cc2a4089,
0x448c904dafb0bff8,
0x1208f6061fc94122,
0xd5352054842c1032,
0xefe5500180c55004,
0x30908fd2df0ab801,
0xbbab4590c40384b6,
0xf5df1c1080043bff,
0x7013ffbf73aaa389,
0x8a030000c71481cb,
0x6fd814fc81a15804,
0xe406ebf84111113b,
0xeccfaf76c101c3cc,
0x1f824ecc012002fe,
0x010381b004010000,
0x5034b9116337ac8c,
0x01140000a944c4b3,
0xc9f6704920d02ef3,
0x2fe2feb3fe8398cf,
0x2810c27237000040,
0xf713bf304001419d,
0xa678048c8a8cc7ff,
0x014609862da437f7,
0xaca12ff500899468,
0x6eded3bb1b7e8990,
0x5c8afd3643052a6b,
0x4889c8ee8c6bce1c,
0x8eb390c0f3901f30,
0xa010847bcaac85a6,
0xaa12330105ed7799,
0x50bfb3904d8c2f67,
0xe74ac1c5989fead8,
0xe77615e9fa9f24ef,
0x6e79dafe3b93bbf4,
0x18db76e6021be7ff,
0x0dd1ef03f67fc2ee,
0x8b3513bb773486bd,
0x9f158c9903bf6d3a,
0x66fda12fba4015f0,
0x46fbffda77f69b20,
0xed1f4eef720ffc51,
0x6f03f78b39bb1390,
0x7c110f5121392089,
0xcf6e85e34e568880,
0x7fdeb26562462679,
0x92900265247f1cee,
