const Word bin_dense_wt_1_0[] = {0x0000000000000000,
0x0000000000000000,
0x0000000000000000,
0x0000000000000000,
0x0000000000000000,
0x0000000000000000,
0x0000000000000000,
0x0000000000000000,
0x0000000000000000,
0x0000000000000000,
0x0000000000000000,
0x0000000000000000,
0x0000000000000000,
0x0000000000000000,
0x0000000000000000,
0x0000000000000000,
0x0000000000000000,
0x0000000000000000,
0x0000000000000000,
0x0000000000000000,
0x0000000000000000,
0x0000000000000000,
0x0000000000000000,
0x0000000000000000,
0x0000000000000000,
0x0000000000000000,
0x0000000000000000,
0x0000000000000000,
0x0000000000000000,
0x0000000000000000,
0x0000000000000000,
0x0000000000000000,
0x0000000000000000,
0x0000000000000000,
0x0000000000000000,
0x0000000000000000,
0x0000000000000000,
0x0000000000000000,
0x0000000000000000,
0x0000000000000000,
0x0000000000000000,
0x0000000000000000,
0x0000000000000000,
0x0000000000000000,
0x0000000000000000,
0x0000000000000000,
0x0000000000000000,
0x0000000000000000,
0x0000000000000000,
0x0000000000000000,
0x0000000000000000,
0x0000000000000000,
0x0000000000000000,
0x0000000000000000,
0x0000000000000000,
0x0000000000000000,
0x0000000000000000,
0x0000000000000000,
0x0000000000000000,
0x0000000000000000,
0x0000000000000000,
0x0000000000000000,
0x0000000000000000,
0x0000000000000000,
0x0000000000000000,
0x0000000000000000,
0x0000000000000000,
0x0000000000000000,
0x0000000000000000,
0x0000000000000000,
0x0000000000000000,
0x0000000000000000,
0x0000000000000000,
0x0000000000000000,
0x0000000000000000,
0x0000000000000000,
0x0000000000000000,
0x0000000000000000,
0x0000000000000000,
0x0000000000000000,
0x0000000000000000,
0x0000000000000000,
0x0000000000000000,
0x0000000000000000,
0x0000000000000000,
0x0000000000000000,
0x0000000000000000,
0x0000000000000000,
0x0000000000000000,
0x0000000000000000,
0x0000000000000000,
0x0000000000000000,
0x0000000000000000,
0x0000000000000000,
0x0000000000000000,
0x0000000000000000,
0x0000000000000000,
0x0000000000000000,
0x0000000000000000,
0x0000000000000000,
0x0000000000000000,
0x0000000000000000,
0x0000000000000000,
0x0000000000000000,
0x0000000000000000,
0x0000000000000000,
0x0000000000000000,
0x0000000000000000,
0x0000000000000000,
0x0000000000000000,
0x0000000000000000,
0x0000000000000000,
0x0000000000000000,
0x0000000000000000,
0x0000000000000000,
0x0000000000000000,
0x0000000000000000,
0x0000000000000000,
0x0000000000000000,
0x0000000000000000,
0x0000000000000000,
0x0000000000000000,
0x0000000000000000,
0x0000000000000000,
0x0000000000000000,
0x0000000000000000,
0x0000000000000000,
0x0000000000000000,
0x0000000000000000,
0x0000000000000000,
0x0000000000000000,
0x0000000000000000,
0x0000000000000000,
0x0000000000000000,
0x0000000000000000,
0x0000000000000000,
0x0000000000000000,
0x0000000000000000,
0x0000000000000000,
0x0000000000000000,
0x0000000000000000,
0x0000000000000000,
0x0000000000000000,
0x0000000000000000,
0x0000000000000000,
0x0000000000000000,
0x0000000000000000,
0x0000000000000000,
0x0000000000000000,
0x0000000000000000,
0x0000000000000000,
0x0000000000000000,
0x0000000000000000,
0x0000000000000000,
0x0000000000000000,
0x0000000000000000,
0x0000000000000000,
0x0000000000000000,
0x0000000000000000,
0x0000000000000000,
0x0000000000000000,
0x0000000000000000,
0x0000000000000000,
0x0000000000000000,
0x0000000000000000,
0x0000000000000000,
0x0000000000000000,
0x0000000000000000,
0x0000000000000000,
0x0000000000000000,
0x0000000000000000,
0x0000000000000000,
0x0000000000000000,
0x0000000000000000,
0x0000000000000000,
0x0000000000000000,
0x0000000000000000,
0x0000000000000000,
0x0000000000000000,
0x0000000000000000,
0x0000000000000000,
0x0000000000000000,
0x0000000000000000,
0x0000000000000000,
0x0000000000000000,
0x0000000000000000,
0x0000000000000000,
0x0000000000000000,
0x0000000000000000,
0x0000000000000000,
0x0000000000000000,
0x0000000000000000,
0x0000000000000000,
0x0000000000000000,
0xc995bf9ebd5d0022,
0x088f7e7fbe9a754f,
0x90ba43f10f092149,
0x8c6941d16ed37e79,
0x81b380377eccff79,
0xcbf67dbeeef362de,
0xcb32964031873b8e,
0x20bffc05de9e7106,
0xecfee9d747ff037e,
0x13947cbec9b00003,
0x123b19213acaf7bd,
0xd7703eaaf45f68c4,
0x8b91ded51081b26c,
0xd18725883b2e54ae,
0x7dafef7b37bd6fbc,
0x7e42ef9330746c0c,
0x87a08885e4f62777,
0x88304fba28a5ff04,
0xdfe67cf2f77f7b0d,
0x0c31aef7f75ae881,
0xf00ba902725ba777,
0xcf7fced4d3fad685,
0xdcdf619bff20fe99,
0x66cfde5fcfd1b787,
0x9ff7c46825ef0f7f,
0x998eb1bf543fa80c,
0x81fe008bfe7df8bb,
0xd871ac5da8150d18,
0xa6ed0ec94fee4850,
0x75eb21776406fefb,
0xe685f46b1df2d86d,
0xe6cf3183845b62ec,
0x3afffeef08815813,
0x570d9813ee902794,
0xb18ff102b637e000,
0xff95012f6fb9f24c,
0xf6332332be6f200b,
0x1c4b7fde3f3b08df,
0x6155e00613e8a9fb,
0x840583b1fd61e8d8,
0x0ac8593ffbf70a19,
0x8da11ddf51005c54,
0x311077fbf2cb7fee,
0xd45c9b041879f27f,
0x192315576ace7c80,
0x72d590f7c9b47a26,
0xcee65891fff984b1,
0x000480093d896113,
0x7f19d330537308aa,
0x41dee38ced90103b,
0xa3debdd05ff8142e,
0x4528959954ed150d,
0xabed076f93e8201d,
0xfeff55895e77f77c,
0x555ba8f97ffb6835,
0xc817f5a3208f9981,
0x35ef2158bc1d7590,
0xc0801ccd2852f9d0,
0xdf3f271777b8bc8f,
0xefe77b081f410049,
0x9ac926e7b3a03777,
0xa5820f6e20c4c0d5,
0x438ee41d94af31d9,
0x308b22a57f31779c,
0xf49b62ff91023967,
0x800070f8fec19d1d,
0xf0fedebec1d8edb6,
0x73dd8b17fefbff66,
0xddecf90573521b90,
0x199790cc8e110813,
0x4003ddddb996157b,
0xd895bfff783bfecd,
0x513e60084db25851,
0xd9ee03a32a890740,
0xd045ff5408028951,
0x21809c49d98e8b10,
0x1fa2feaf7620df25,
0xcc8f95b399b97fee,
0x9f6e3f83c90defee,
0x9000dc6f301f7bb3,
0x3952b1de000608c0,
0xbaedbb22c26304e5,
0x910819f1581080bb,
0xfddc14548089e0cd,
0x331a83f1e2ef94d3,
0xde0ca494fbae02d6,
0x70c6100e6bf3d194,
0xfffffc5635d910c0,
0x5c1917cadf6f0855,
0xc575101d21797fd4,
0x8a030200bf5f080c,
0x008ed366e132831d,
0x77bfa80a9f2899ed,
0x1115c91d3ff726bf,
0x962219bc91b82175,
0x72203310f7f114e2,
0x0578ee65bcf2b9ae,
0x9100598b002209e0,
0xa5439e1cccc90186,
0x2048a3730e139c73,
0xfcf1c8421319fe34,
0x083c45df94046ea9,
0x91fffa17e123ffa3,
0x5a0a0e93f9a996aa,
0x7edf009054111899,
0xfa0f3c9f9913f8cf,
0x1cc81ae30c9398d1,
0x9150acca758c851d,
0xce3b44bf138861cc,
0x3b559975ffcd50ea,
0x08c5b993eedfe381,
0xffac7e7b3cdc8003,
0xd00e1dc4190c0073,
0xff26b8e164577b39,
0x11934300123c0812,
0x93300008b5528332,
0x282bb4f56a8af60d,
0x6efbff5d9dca9050,
0xbf45101cb3c1ec09,
0x3972b3b4705f809c,
0x15df9df8c48bc9d7,
0x9d3bffb0003b3f91,
0x03158122f90679ae,
0x64550879f3fabf4c,
0x21190d752118ca7f,
0x100311cbeee9096a,
0x56f9b3c78bc48c8d,
0x7b2b9a68a181110c,
0xcfc8bdde4f3e03da,
0x06e4b8dd82293268,
0xe15e864000fdec2f,
0x92908ee6dccee226,
0x9d971000a2e72a64,
0x5c29f71e9fa83a47,
0x6f33a54ac52535ac,
0x8b09f9c8ff989116,
0x5a4ac4cb51f05210,
0xd39440734c8b9d5c,
0x937430fc3b4a66bb,
0x911f15e3aa1829ce,
0x05f3fa98226eb537,
0x42901118ca6c5ce9,
0x3f4388a02fb0d790,
0xe000066de43b3b0c,
0x220e62d2de806ffc,
0xd4036659b3def494,
0x54eb5cc823ef848c,
0x2479fe2a444274e3,
0xd9cfb01b3b961d5e,
0xaf9df33a68526233,
0x7f4171ba6cc8d220,
0x4883701eb729175b,
0xbdd0a6210108001c,
0xa7d818f5781919cd,
0xaf11c827b33159c3,
0x08790252a7beb00e,
0xb19eba68b7f7b76c,
0x36f3003479cad090,
0xb0f4f00100633dfd,
0x7b0b637b84057c08,
0x33f120cfc2e86d27,
0xecf3a05f739dfa21,
0x601c4d0734146c05,
0x6f9e04dbf4e05051,
0x745b0297542378c9,
0x0ccca614a74d7be7,
0x00ce4068a5ff054a,
0xfd662b1cc0847f07,
0xc30807dbc10cad89,
0x084b256e5fea510e,
0x5c1f21dc2aa29013,
0xae7c4440be2d767f,
0x5a823009eb616652,
0xfdf918dab11be148,
0x3a09473b551ee494,
0x900c6843000accff,
0x6cc2cec1e8cae82e,
0x04658018f613b999,
0x5c043ffa05d3735c,
0x633fcc5045246808,
0x6158042647197f08,
0x9991eda9b7a81190,
0x269a79da0228c3aa,
0xd976e3f904ce1388,
0x790d2d33c0d99010,
0x01fe9fc6802927be,
0xb75a1cdf1b0bfff1,
0xb20acc0ce011a8fb,
0xcb2f78ae004f9057,
0x231d08848924e711,
0x1d4df23531271b14,
0x7bb94c1758ac0997,
0x0114ee5ead844a17,
0x000a118a51bd00fe,
0x005d97f72f001fee,
0x6def205300a8e824,
0x287b710461401d01,
0x4f140044d3010dd5,
0x2fc011098a224732,
0x2a803ff418048022,
0x80cfc9efffef026d,
0x560f438b76608310,
0x26a350fe4f741889,
0x8eeb5af0ccc7cb09,
0xa188ee92c858ed8d,
0x0202d181504d2f7f,
0x808ffb049cdf2005,
0xfec0433798246e40,
0x00008108aa7e1394,
0x0b7798cc8c098179,
0xced50ef77ff42f95,
0x61409b00d5375000,
0x49182e00019767ff,
0x10d3400184ef4ccc,
0x0704c8803c0a42bb,
0xdb00e904805ec60b,
0x64c11018ef1616f7,
0x14152577ea209ca3,
0x5cc9c11462194710,
0x178ee298e1723a70,
0xfe65010915f8e1dc,
0x3737e3d9c1103f38,
0x640c27206eac5a00,
0x4fa80c86d0442904,
0x3b2f3803a4c85104,
0xffff02f7e6c5440f,
0xadde0201a0ce4901,
0xdf56dcefbcc77852,
0xd80b5b4015ff800d,
0x32062339e7bb91c2,
0xc9934001ffd741d5,
0x12487309bab5b715,
0xa0065de7fbff250a,
0xd6e0bccf1dd346e2,
0x48084f3143880200,
0x1084f11b7f1287c7,
0x402fafeffedec002,
0x12ad11f710994c51,
0x1c194991708a60d4,
0x004008720331e467,
0xf733b00a0eb344c4,
0x1013802c5e108d74,
0x000cdf87ef104402,
0x2898162a987f4010,
0xb881465f6abdc74a,
0x1df16e88047fc8ec,
0xedee1e6122788895,
0xe2821044888c8998,
0x35ff9223001bceee,
0x4984b18ebdb3bbfc,
0x9bc7610168e0045a,
0x600149549031ea30,
0x6bcd4428e664dfef,
0xdc80d3f7200c1610,
0x2811e97773001b17,
0x0a633030fc14405e,
0xff87cba380103def,
0x80d0a9fce559732e,
0x99ff83ada7ffec0f,
0x75de9eb7f7cc9dbf,
0xffdfa19df7f9032c,
0x6904d885d9dcf80e,
0xf808dde89d10777f,
0xc92403faf8fe5d8e,
0x7b0b400a04183915,
0x39fb3b2c7ee87bee,
0xc35cffffb88a2a47,
0x396bc00826ce331d,
0xdff42cdffffff3be,
0x888cfbf7c9dd39ee,
0xe4ea8b97ab09c9c9,
0x9bf4957c81ffb2fe,
0xffffbcce8c4d9a0e,
0xd5e0a0b9f18f09dc,
0x21b9fcf5a314c7f6,
0xff5f89fd4da1c892,
0x1b83ffffeffe2d00,
0xd2033fb3deb10aae,
0xf97fb8fe335fd314,
0x5ffe75bbfb9b9129,
0x41839b59efccf111,
0xada46980fe0faff7,
0xe60b0228bf578c82,
0xffa79176f15c7fa5,
0x938ff008f728c3ff,
0xa575cd5affeb39ff,
0x9e5670dd59bbb7ff,
0x51117b197f73243b,
0x7b777fa7cdfe78c6,
0xa0d1d1160724160f,
0x76565e1edc0929ba,
0xe0bbeffbc21ab4f5,
0xd4c40ef2b7704ffb,
0xf1ff73df71245829,
0x077f5e7705e1f9ca,
0x7e87ff8fa9e59eb2,
0x4fbf95080c80b018,
0xdfba3b5f7dcfacfe,
0x1fdc0aea22e6b49c,
0xbec6eccb04828810,
0x1fa9379331f35df6,
0x735faf8eeeddf06e,
0x8109a8cefca865be,
0x7faf7ffdbc1b4f40,
0x444b9fb70cc6ed87,
0xffbb372d864ffff5,
0x99b07fd89394801c,
0xb7bebfa84512f73c,
0xdb2ba44e321cdfff,
0x4088b1765f38d074,
0x0a8b9c0096dcfdbb,
0x11b3bb9fff0c2788,
0xd00a0cf3c0a82a2e,
0x9dffff96ffb93ff5,
0xc6199c1fd293698e,
0x805df59fffefff9e,
0x6a1f1f777d9f8e3e,
0xf0bf3203cdeb010c,
0x77f13a4bffbf39fc,
0xfbbb98ee26bc8d80,
0x5313cc7d00735efc,
0xabfffbf51a5bce76,
0x98db7afc10fd55e7,
0x51b1ec895f27ceff,
0x7ddb719ec19e7d9a,
0xf0bd917d4ef1d00a,
0xc205fac7521750eb,
0xd130bf3dfff4bd02,
0x2370363e807fcddf,
0xb9fbb7d2c84110ab,
0xdddde73c421b82d5,
0x1002f3479d8f564f,
0x26b0f4f0f7dc923c,
0x3c83d49c11fbe3bc,
0x487cddd5e646bbeb,
0xb017b077437cda3f,
0x796efb1320bfae7a,
0x13778ab977712004,
0xf005910910614066,
0xbd9f3fb4d8096700,
0x8c3550fcdb80fd44,
0x8f97005bde33b10d,
0x685c8a1020cb717b,
0x71fef43f397f49f7,
0xd0bcb2e74647d661,
0xdf52514b7c7f98ff,
0x5680d05d05f5fb9b,
0x00b112fe9abb8b01,
0x6ee5eff9bafa7e12,
0xe0897dffeab27f71,
0x8e731bfcd06081c8,
0x8712b275bf73f710,
0x106ad42e642fdddf,
0x30047d9c9119fd2b,
0xa43ebff3af78cf88,
0xd0098f39bf9da879,
0x2fb25cd7093e7480,
0x88230c87b005b6e3,
0xffae2710028ef840,
0xb631ff79f300bea7,
0x642fa0114afa1fbf,
0x68959f9d6403feb6,
0xfe994021f5f5e00d,
0x8d003508209d89f1,
0x6e2ae3f3e910645d,
0x3e776fd7c2fe30f7,
0x18f7d34cff05dc31,
0xffff23550a9080dd,
0x7400e4851000e904,
0x7fdfd1b2787999d1,
0xcde7342bf1168441,
0xf67119f5311d91fd,
0x220255a96004cfbe,
0xdffd9ac227bb4abd,
0xd488bf4833be4612,
0xbfc9b011054f988c,
0x1f88fff28b98ff14,
0xf057e35f58fcd82d,
0x53694c07700fff7c,
0xf66e5d39333fdfd7,
0xc7539073f00fe063,
0x5000dfebeee94c0b,
0xccfe93c701f6fcad,
0x41bdd57f97e57b13,
0x8216bc5d4eef3339,
0xaa09158b091a1bfb,
0x03b16b40d7a17369,
0xb865317b02e6cba6,
0x843bf84e759ef01f,
0x4571c87c2f130048,
0x77e7a22120bb9cb3,
0x7021080ed30be134,
0x862f02f792ce47e3,
0xc4e216a912f64080,
0xe0aac8ce9de81132,
0xf67c4a50c9439aba,
0x0e3cc9c3079f2865,
0x57b74385f9774701,
0x353325709f960b57,
0x056f73a79220feac,
0x816c7f7c29192093,
0x4a112888843385d8,
0x068fda67fd77ee7f,
0xf583670b11bdb239,
0x9f093e6d600f3af0,
0xdc560a9af7560707,
0x778b4cc9757186bb,
0xb953086f1120828f,
0xa0e00118f23f62d7,
0x8f0ec28dc5b5bf29,
0xabae880663af66e9,
0xaffe30bfb81a4e7b,
0xe985c1d990efa84e,
0xb318504cd5710d12,
0x23370713049d93a7,
0xc98604a7a3f5722f,
0xfce376f7215ef52b,
0x31eb03ed52eff867,
0x9fdf423c6b9b5704,
0x32930aed2ed7d264,
0x20d8f46fc62f915b,
0xfffd02b2627fe0b3,
0x1329ff3d16170fd4,
0x533bc01e1c6f091f,
0xd9f50aaf26737467,
0x331c55e32abd4076,
0xa511056701498287,
0x132d0301377eb5b5,
0x135ff046339fe82e,
0x2937e47b3f2f0505,
0xaa15b00db50cae7f,
0x901ee3036f7385ef,
0x93ffa2df93ff7679,
0xc2c608ce28706755,
0x734df02267f3c817,
0x6b9456fa4cb3f9cf,
0x7605aafa29fd0377,
0x6ac1ff0e43e411fa,
0xf624f7358a67c6d9,
0x223b46ed4950514b,
0x1313531c230f0f56,
0x71daf56a37e7f318,
0xacd5b09de661a760,
0xbdd74e8c0bbf3a21,
0xff53b8e4b41e9ce4,
0x4e9963d5108c0709,
0x017f13b62659170a,
0xac42022832005fba,
0x60267cddab3b3b1d,
0x7fff76303b199ce1,
0xe2694a066f13cc99,
0x820e748f829873b8,
0x6023f6db9aedf839,
0xe38f8e2a447fd738,
0x171d4274664952c4,
0xcfe3e70ad5317291,
0x7b7b9b7f6e65408f,
0xa2ac751b7c388dbd,
0x199390fdb289b71a,
0xf664cca1623a1eae,
0xac99c6651fd20094,
0x714a6f3357625090,
0x7c00562b4e730232,
0xb1478dc1bc4697e6,
0xc0dcaa2ddefce663,
0x820c77251f5beab7,
0xda848c1bb010927a,
0x10e8ce3e8f7aa136,
0x7069c49b902ae498,
0xfedec6feca919f6b,
0x8eeb4689155d18fe,
0x000031b30404cbea,
0x15e4898a518ca008,
0xf000cfafb0ba226e,
0xed3f0525d7acc631,
0x6fac78ba9e84843d,
0xe458ef7fae140e12,
0xca6a12ee70107375,
0x5bde51997f84fee5,
0x7eed538e9429db36,
0xf93b7e3ac31d54f3,
0x0e89e80b80c02360,
0xadeef1e73aafa8e7,
0x05d010876aafeb12,
0xe73d6ba0a8c539d2,
0x79dc51aec53dc0fd,
0x0cdef31d99212839,
0xd8369771c3c6e592,
0x5ce04a9bd9136a37,
0xf33742bf5fbc73a9,
0x77b876afe07bfff3,
0x3c8eda0ab98bcae6,
0x99f9d111dc3272fd,
0x1b73c49fa3e9fbf9,
0x71145a8300a67f66,
0xcd70400b50015958,
0x3ab0528f6633133f,
0xe1fff1fb03051002,
0x2cdd3f875fbbfef3,
0x084cf3d0479426c0,
0xd33517b96e5e798c,
0x421ce583ea89f3b9,
0xe310f12b11417b8d,
0x2254698e3fbd1526,
0x74b14b92f7dda129,
0xf08a66c076844188,
0xd67bff9fc7122480,
0xdf75c06e088f4c65,
0xdc9747afcda9c731,
0x4f4314e8fff8ce6b,
0xf3a481009cb1ec88,
0xecc009f4dcc5105d,
0xa02b66f7800860e7,
0xa02e1ef8dec12fef,
0xc0d66c2904ea277d,
0x38794b13d4779fca,
0x0479fd0af9166e54,
0xb12dd08d9da8e807,
0xdb29f67d33241953,
0x6111a0ff701f56f5,
0xfb3a095d4d3d685d,
0x99936332cb9805e4,
0xe0c87fe05b7a82d8,
0x3183dd89f79aff94,
0x14b2a6cc7700bb4d,
0xdc2f9df7d13f442e,
0x9e00f88b6f177e8c,
0xf4127f2c28167df5,
0xf15eedf4c0331899,
0xf9c974ab13c7afa9,
0x11081499202c909d,
0x7c4ff46fa78962c5,
0xf99057f240b3309b,
0xeeef3f04cfcac211,
0x200288887b7b7505,
0xfef19cd2d1392083,
0x331837159dee1cc6,
0x0434800f48fd15ce,
0x142d93282efdb80b,
0x912377dea27bc3be,
0xf30ba808f631ac29,
0x690c897f7ecf789b,
0xf70038a61227004a,
0x8022cb90aeef3ee2,
0x8c37fdcaddd0e913,
0x8400f1980201a1b9,
0xa623cf811e4508d5,
0x180a8747cf314713,
0x645ec27132fd726f,
0x0736af509a88cd8b,
0xa237e833c9237bfb,
0x07c907f7efff18c2,
0x2e5e00902638452f,
0x5c0a158975abfafb,
0x40090be60fcf5c3b,
0x03305612744c0817,
0xc3bf0022851951ff,
0xecf28be6fff0e313,
0x107f782ffebfa640,
0xf6b02e670dd8c023,
0x410f7d5aed040038,
0x7630cbbf62037a63,
0xd9971730aa6d4100,
0xd9174d02991980e2,
0x08423c7523886e1d,
0x6278dfdf8b17ab08,
0x774330df96f5ef58,
0x443393ec008ad0c0,
0xd1040cccc439f691,
0x167f07f210d9bebc,
0xd018d142b1050b8f,
0x1411385ddee21c56,
0x6333827000990a2a,
0x01021fcdaec10101,
0x5e3bc31a38600081,
0x980c12e5923451bd,
0x047d22db41f7b677,
0xfa665f4488f0b4d6,
0x77e8b7e8e751d5ec,
0x36c9a91a6de17360,
0x147fb12a32efce50,
0x0e29583ca8c5cb10,
0xe365d8a150d7a36b,
0x71f57ac5fa166154,
0xb6f416fd11e052f1,
0x9051032b229b2460,
0xf0047bfd087814df,
0xc99152431ad8af6c,
0xa54f328025d2b9c7,
0xbc7d27c89fc97ec8,
0x7edeb990bfce0883,
0x82d1d32c17ff33ef,
0xbab63577ddca0d28,
0x6fe57e62306476b8,
0x9986b0edf7fc2099,
0x6cf3f14de03b609b,
0x2f4afd1b84033679,
0x2c0410fda7d883cc,
0x288308d27bf6f4b3,
0xff357ddc830984df,
0xfd3772bdd950b6e9,
0x30a031aa592144da,
0x6f53f4b64a5c3907,
0x91f0f27cb57b8be5,
0x7fac109b69f83588,
0x10e8035cc0f85e35,
0x70770ba380db8387,
0xb8c3f1f547c1301e,
0x85343ace74b975df,
0x9492b83d104f4d35,
0xf7038d6b45c95009,
0x300e94ec32c04b13,
0x794fddb377592042,
0xdbb133d0d9cfdefb,
0x3321b6b947877bc6,
0x11eb46f7fccd6bd7,
0xbfefa416854b4dff,
0xf89e35e998191cda,
0xccda0dddf145d083,
0x900974aa12290ca3,
0xb07c25deb6b24048,
0x0ae7d6e6df0843d9,
0x8cd8ab9a6b1f749e,
0xf2f9e42c8d6951e1,
0x05d3184a59eb6fed,
0x8ff7189908a5d8a0,
0xb365372b32f0c381,
0x7bdb1732b0833173,
0xcc8ab3018a03444d,
0xdf6cbc9c33e40fc1,
0x3dc02e49f330dc5d,
0xbbef907df10989be,
0x4547e0d6108136da,
0x0c02bcd6807f3244,
0x06428127d1367b2d,
0x100c3d9ef776be6f,
0x01df5bae32d74755,
0x033d0abaf2b15fb0,
0xb1b33d7f5e892d57,
0x4819f07dbb016e1a,
0x342d3360dc0090b1,
0xbff382778f911337,
0x2fadf1176f8d7a1b,
0x5f6fb6795dc004c4,
0x2a1213f1dd41824d,
0x2e347f04ab36dee0,
0x165c59001f050540,
0xb7fadda098400442,
0x6735f5902697feb1,
0x6f05d311ad111dc4,
0x5a1198344ff68f8e,
0xe661c0bb6df3523d,
0xc5891587d1736d4f,
0x2e58e920ee9402f0,
0x02b88abe2b0714a1,
0xfd51aa00058c9622,
0x42171de28fe8331e,
0x6c807720be97bfa9,
0x6f20bbaf409f7e03,
0x1238e8925f2b6f7b,
0x711dee08befeb1c3,
0xad5097a315b41d3e,
0x93389e77a7ccfd83,
0x67887b90edd03d07,
0x0ba43e04fc91d7cc,
0x00433fdbaefd72b0,
0xbd8915e223e0199a,
0x0a37ec595cee6639,
0x100a1fe77f893315,
0x273f25ff03100058,
0xccf896ee2f1900c4,
0x0f37a8a746ce8f6f,
0xcadfbe480d673013,
0x870376b9fe90326e,
0x9315f68d039b2179,
0xefa708d919ff3b0e,
0x12ce660563cfc881,
0xcefc35647bf12800,
0x50d848f1cc40947c,
0xfb1931c7c420e1a5,
0x0f61bb2901f0b208,
0x68cc6713532a5c91,
0x5b09cd03085cff26,
0x91754b7ae8a33b53,
0xe3f011918d65aff6,
0x448bf1fa3d006f39,
0x6b3f840b23709e67,
0xdc437aec411d5a01,
0xc3b3737c67b137a2,
0x45ac86331f84b080,
0x30ae197dd5bd3aeb,
0xd0af0725af848105,
0xd53b14ee44a50a11,
0xc43a9e210471fe98,
0x013b67e30f7d3928,
0x6044a893003dbc33,
0x091d4f8027e4bb3f,
0x9b104c226a450ec4,
0x953b0c51efbb1848,
0xd0a0c2eb44202615,
0x9844ebbe26157106,
0xcfc3378487cd43ed,
0x2ea0101162897c24,
0x240ea7460fbcd383,
0x0ff4587d2388cfe6,
0x037411815b371003,
0x7e857d777eac16c4,
0x5130a2ec9010632c,
0xea81fc3fcf6e8c50,
0xadf3700044235533,
0xfff16a0d7aa52406,
0xe87491341040b750,
0x67cce105fbf7b696,
0xce5e94bfdd79c7ff,
0xffafaa55cbf397f4,
0xfee6c73e8f51b118,
0x0801f22b8cc93cc8,
0x57c8cb3e70051011,
0x0930d371931e8657,
0xb14cf3670105c081,
0x24f9f30d41f16001,
0x737b545e9cc689cf,
0x9677c32ebf63f780,
0xeba55160265c1000,
0xbffdeeec39200e61,
0xfc81fbfa80c3cdef,
0x8e0c46a5fef7de5a,
0xe9239ba848b37b1b,
0x6c5c9df681d3db3b,
0xcece0c541e92f328,
0xdbe09da3042375f9,
0xfeff24d2002a4072,
0xd9661cffd829dd37,
0x9bb7de6713607d11,
0x3f4a173162d14186,
0xeed18cef3e43ddfd,
0xffe8d73d3376813f,
0x917fa80024bde8f4,
0x3b88b09c3bd75e18,
0xe72ae763df5dbb28,
0xac20cc8dfd76e8da,
0x8670730093006f03,
0x5c074308a718df37,
0x8802ff333134f80d,
0x23d519336ef02514,
0x6911a1902e3bb385,
0xe8813135c9937fe7,
0x56f7012dc996e848,
0x7d7bfc4a985e23ca,
0x900a1f6feeefddc3,
0xa03581fdd53b036c,
0x09da80eff3302864,
0xf37c78bc027a8664,
0x180251df1d7160c9,
0x6ef399388f6efe0a,
0xa16be7f72758ec04,
0x0a0ea21809ecf8e1,
0x7f316eefecd7972c,
0x75c923318bfbb7e5,
0x04080cc2c770b4c9,
0xa7b1d9a0ddf58349,
0xfbffd88bff26ecc2,
0xffe61cccc7782c35,
0x84923af2ee88883e,
0x2d26e9c261a095ea,
0xecf35335011e00c6,
0xc0d69db462727017,
0x02c424b87d56b3a4,
0xf77911baac4cc249,
0x55ca7777075068e1,
0x2733a3b2db0fe157,
0xaee947ed1cc5267d,
0x5227ff7dff89afef,
0x52fff2edbfba4ea3,
0x8336829aa4d464c0,
0xe67c1712e79e522a,
0xe773b9800681efe7,
0x8ec6bcce99fb5081,
0x4ef9a0086dbcee9d,
0x7df041288f1fc114,
0xa006112781082210,
0x4bf30908fc27c482,
0xbf982a5fa2701df0,
0x6f8822ccb8851801,
0xfe671cc5dcecc64e,
0xd9064e3360d0ee6e,
0x9ffcd91cc34e0828,
0x80a12e9bcfdf0f73,
0xb622f107fff31102,
0x8afdcb3e515eab65,
0xa67815f7a7ad2c48,
0x2fcab9ec76322808,
0x2fde251dfdf77955,
0xb29b36ffa5ff2300,
0xd9eefcd820f756fa,
0xee15ac6c7c242f18,
0xa040adac0e836832,
0xd3b83fef6529c9c4,
0xd3705fbddf9e7c4e,
0x7015044e1e3b5dff,
0x884e7fa89205aaab,
0x148c772f723d77f2,
0x13e9c5de423be7fb,
0x0ecc0000530eae45,
0x2260cbea6a8101a9,
0xd0fafeee045a3000,
0x6ecb85720046283b,
0xb50030744efa0dc6,
0x7ef5b92fac187615,
0x0107800002271981,
0xd910d001aeebddec,
0x03b9096780b0b1ca,
0x4025713003d1afe0,
0xfc97110233bdff28,
0xf757df358379166e,
0xd03ce688013bd88e,
0xdaf94f6705b2a734,
0xf0a4dfdf33df9698,
0xa7db1336c4e8293b,
0x4ceae791521c9329,
0x136e3fbc4ff68985,
0xab32f1b7fe835fad,
0x4411a5bfbfff0824,
0xc0854ff2200e9531,
0x74208a90d488d713,
0x8100e82944042082,
0x5f08aff42bf8f779,
0x8ae67ba81d85441e,
0x8b2536b4c3f4b2b6,
0x2bd22371773e6dfe,
0xd98fc3c7506fbc08,
0xacaaabe21779bdeb,
0x866c0da9ab46f303,
0xe8c001981266bec6,
0x717280ffbe34a9e0,
0x49b19d988fe35f1f,
0x839876c22e6d43e4,
0x8fcc5a6e473f3389,
0xe61822f6e1a4e826,
0xc38607cd269d0e05,
0xf785ffcd0e6e22e3,
0x4d637cf8f35aaa19,
0x6c42e3dddfc3e857,
0x9e63a6043d49fe8b,
0x9de4eecc7ed35619,
0xe22f8e41fb3bffe3,
0xfbc7e56abf1a82ca,
0x27c25dc51f9711b4,
0xa289e408f80eefe0,
0xe07d00f31f8fdf5e,
0xf788f746a61fecde,
0x085a32f57a12f3ee,
0x3cce880b47be7dfc,
0x016e2f1460f23e92,
0x7bde791cb264dbef,
0x659daede914807e5,
0xfd9a2d473b3532ae,
0x8d20742900d2c001,
0x8b98bacbd81f86dd,
0xd40717c64198f784,
0xcdfe8390beecdde7,
0x2ea415d2128c1d6f,
0x2eb921087f80afbd,
0xeec92429622820f8,
0x0ee073b41c85e5ef,
0xbfc7ff9c54e0fc95,
0x088e1439fca80194,
0x02cdd6259164be4a,
0x36c1f39ff545b2a5,
0xf743893667b322ef,
0xf527fbeed8ffa4fa,
0x0b0cca29a965ca99,
0xe932e9d26dc1dddd,
0x2a22486617b48ce8,
0x65c0c6ce1b9193f8,
0x442845c9d1cdfee3,
0x41f4eceb505cfd68,
0x09f84879113dca00,
0x6ab2764180387668,
0x62caf089a380efdc,
0xf7e4970c27f53808,
0x3a438ff585446948,
0x5104f11fce0f834c,
0x942d072ada9f3010,
0x5fc089d33b759710,
0xa5e752495f067ec1,
0x6580f19ef1807797,
0xdd5f24c43e1776c0,
0xbde0b03f34049ee8,
0x5c66d08c64a3e76e,
0xcfce7f646ef66906,
0x2fca629c4a999fcc,
0x608fe773f29ff6e8,
0xccfdc30a09e9cb94,
0x0012c96d448ceadf,
0xa853d63dd16d7fd8,
0x00fc1a8adf09fb67,
0x7ed3689eedbcd995,
0x0ebe133abf30a4b3,
0x8435f77281def48c,
0x82664a7f3f6dc775,
0xa6ceeeaa81d24e60,
0x3f3e4bd2c549ad35,
0x4317460a9c0a467f,
0xf44febefb302afb9,
0x33262f2daee4ef54,
0xe4b6c19fdff673ab,
0xaf7dacbe0cfca3a0,
0xed894b7c3cdf47cc,
0x757ccb4aeba28cf0,
0x330140a87b98e800,
0xeb3c7aaffda39678,
0xc7354c62fff84780,
0x2000f78ea999ff6a,
0x3ef435b0efff3fb9,
0x58daca791bf70f33,
0x2fedbe8946540d3d,
0x5753d53f1d8a87f7,
0xbe4bdcea8f329e3f,
0xdf6969c6c317be81,
0x7a7ba2027baf2519,
0xf36deee2de80af20,
0xfb3b001cfbb2076d,
0x5f963c37d90127dd,
0xf51b4fdbef85e53f,
0x1fe605e6027a7286,
0x68424442e6f2af30,
0x7eab6e9c024c2bf6,
0xef43304bfbd277b1,
0xfef3a22eeec292a4,
0x1b0bf70f519c2664,
0xcff0b0ec68cee687,
0xfa0bf634fc498d4d,
0xf6d1579c2ff3dd10,
0x13a901fd85f08bd0,
0x2aad1906637c433d,
0xab398ecbf799b63a,
0x3bfa79f71d7d9773,
0x7fd8595e842b3f72,
0xf32060ffdb46b236,
0x918eb12a62e7fef1,
0xa465909f906fef90,
0x7337b6839130bcff,
0x10fa379e61e56c78,
0x27fc33b86f7f17ff,
0x18b00cdf77191003,
0x61b95fd5fffcdf67,
0xb0cce4ae20bf7c00,
0x2eff946bddfcb16b,
0xea03d671dc7c31d9,
0x07f4a4efb08c21d0,
0x6e3ffade2e7067ba,
0xc675c43fe83f0c42,
0x6a405ee93764c6f0,
0xdcd72e490ffd0cf0,
0xc92fc4e66fcc004b,
0xdccc6ea31fe00f1f,
0x6dd6e22391b81984,
0x07697c2cee8167da,
0x5cd0b353f93780c8,
0x705448def7e392f7,
0xf2e86896d0b33500,
0x96726c10a8414138,
0xa8ee0608dfba16f3,
0x427bd850093f7093,
0xc58d6e60cd8e00a0,
0xb18903e265938abc,
0x234a3284cf151180,
0x4f331e66744f4ffa,
0x6afc11633b8d204c,
0x11eecfd7c007b4ef,
0xf700348450ca8c04,
0xc9e655c86fb607ed,
0x23384748e3d80042,
0x760a22bc5e813a1b,
0x83db24eff46e677a,
0xe6773d98288e3717,
0x2e41bcc2ce20319d,
0xbf04a5a67a01a086,
0x8ce0fe46ee2f459e,
0xc88aa1f9c4955b37,
0xc8b7d50839e0804a,
0xd48738ae7a1319ff,
0x9898e5d6a5c4df87,
0xc911d0fd0d19bcd5,
0x31f153926d9b02ec,
0x40f4388861346233,
0xb1250bbcc4b6c915,
0xc48a5406c03e07c8,
0xd4275f76075d6020,
0x8811a2bac600cc00,
0x88acd4c589e47b82,
0x71477b4f18397418,
0xb3610f24fd04acbb,
0x421aff803b009623,
0xad860d1d28ac4997,
0x08c6e729980fc764,
0x2f46612167471fe8,
0xbf0106e398892a0d,
0x6f5cf7dcda6cafd5,
0xc135360198077262,
0x76972262df5977a2,
0x63e7bce89d5bf288,
0x3a8efff93a0a1263,
0xa9e893bc66a9ca7f,
0xee24699d05d95b5e,
0x20be1e1721924e33,
0xffd0ffe152c13163,
0xf76064e647441e7b,
0xec140b49bab908aa,
0xb420ee07369952c5,
0x7a7234a64097fd60,
0xd50c3339f8e3e330,
0x611fc45e7242273f,
0x98a8feb1f66c301b,
0xaa30fdc10bf182a3,
0x5c872b8a822108f4,
0x2005d765fb7c9b8c,
0x30db533c9e813068,
0x288e839383b8ece1,
0x31917ce3be0a7181,
0xf60cf698ff29308a,
0x86360f7b29d326ca,
0x30f152e1c92a392b,
0xffef6182e401203d,
0xffe2a335ad11723c,
0xcfeec0887e01f002,
0x17037e6585d30414,
0xc004cbe118f5cb7f,
0x684f3a833bbb8be9,
0x48366fd953597ff0,
0xee42c8816b354fee,
0xe306fd1084882910,
0x359833b509ea316c,
0xc8121835777de383,
0xb6f0909d01ff82f7,
0x4741032988331d3b,
0x3ddce201ed29eef7,
0x54e9db3ba1d55890,
0xa5c65220ee1f9566,
0xf0232b439fcc571d,
0x8082a7b9a09ddfd7,
0x3f3130d1801e47bf,
0xecc2c9a301334fe3,
0x68ca0c002f6fd48b,
0x0c43b0263b14abbb,
0xfaf935d503b77901,
0xeffa848ab3310417,
0x7fe306333c681dcd,
0xce6468e93a729ed0,
0x7d8865fca53308d3,
0x098cf410012724fb,
0x2002b7482fa9001e,
0x2e62a81c6fff5092,
0x0016d4e754972eb7,
0x3733999b42fea737,
0x0ed174d843278210,
0x631975a00a18e2ab,
0xff6037d0030a8979,
0x07f288c8d11abfdf,
0xd31d02b8aed408ff,
0x9fbf3175f1730027,
0x806a52cf7565d1bf,
0xd8c50014e8c7d1c9,
0x0f62f8190f849eb1,
0x06f0c30296c5149a,
0xbfff418e38580e96,
0x1f7fecf001ec72e2,
0x03a1321404e5bffc,
0xc801a0888d14fd39,
0x5303ee4943bb04e6,
0x4f78efe744cf13dd,
0x8df9dfc0a6ffd327,
0xbdb02fee423bd8b1,
0xc0632ff6deb94eee,
0xcb2f18146123b70a,
0xb7702d468088197e,
0x001155b3c1bd98d9,
0x07bb09678c1779c6,
0x11339099f09eb470,
0xc3d904196040223b,
0x61a14e1648482539,
0x002055ac8eb2c29f,
0x911f5bfd045c05d2,
0xd223ebb2a76d119b,
0x07f11c55ae5bc479,
0x2e6d2103ce89b418,
0xf67accdd83bb29c5,
0x01e1513a8e80d777,
0xffe419da59af137a,
0x64992ed16f847309,
0x9f0dab20b004a220,
0x0085be6aacba2a4e,
0x6fe0df120192ff60,
0x77e3293094688a80,
0x7f7a817709099dc0,
0xc12bda15b7bef480,
0xf703f9c04139fe84,
0xfca3e0b8e772dd93,
0xdfef43d79f27f391,
0x010a53568888cccd,
0x7fe4ff7fd6119c91,
0x54115301d30f9516,
0x8456f70e2fd75b10,
0xc6ecf752ffd04253,
0x1176488d84b19da5,
0x86b7439f7de7f74f,
0x710c014807ff1023,
0xf336eff53ac964d9,
0x7d93c8b7098d2c67,
0x8e09164577db851a,
0xcf67aa2e5922ea9f,
0x7083f10f5cffe0ee,
0x4612021168f7f731,
0x790957f71b8f0bf8,
0xbf5a34ca28165df9,
0x4361e6f25c4ddf33,
0xea7f28a8000157d6,
0x266e06f226995c06,
0x351394b4bcc82bbe,
0xffe82e5faf49e700,
0x2483ae90a28f476d,
0x77f7139db2970b7f,
0xef338b0c99dfff28,
0xb84fafd57fe7808b,
0x3770b2f39373a11d,
0xd25170280578851c,
0x099912670577c80d,
0xdfd1f800077dad12,
0x127c6188823cdf93,
0xfe038bb7161a6fee,
0x37991339b9f5388b,
0x6397fdc08dff0b7b,
0x848a457f7fe7cdd3,
0x4e11b1b73131fefc,
0x99ddc007c31407fc,
0x237f28553ff717c6,
0x008bce1e5884a81b,
0x5cdd9199afdbee6a,
0xfdc4eeff6ba9a88f,
0x4bb3d02f05c4c39c,
0x0f9a759b84c4abc5,
0xd02f7103006b881e,
0x640805ee83b0007f,
0x9820591157e7d9ea,
0xc35ea887ffae4c88,
0xefba2dd8fffb0110,
0xc6cfa1f9efefb0b1,
0xc792fda0c67e83f9,
0xfff0d2530309ef45,
0x4028d780e371c719,
0x04c40318df33814c,
0x02a19cfc88ec9f08,
0x7784a2dfcf00033e,
0xe7d6df65f01a683f,
0x0d41a37cceff4c06,
0x01ddeaff105e77f1,
0x339a5fff90bcdcd4,
0x8899117a7b478ecc,
0x9d72235d6b04077b,
0xb5fb4229cde347cc,
0x5fcd364c70150780,
0x891bc8a57fffcc8c,
0x880b859747e8aea7,
0x18c9c6de50207942,
0xede299a37f1ff7f7,
0x66bf9094046ef994,
0x17643a826c649c4e,
0x40000045e7b37e7c,
0x809bf787111d5ff0,
0x51390dbb00de10dc,
0x375cb38c995c6946,
0xbbe83001a2f68468,
0x2f547741f53e7f7c,
0xcef79edc482e2284,
0xe04cab55e6ff06d1,
0x7da8200cf5219ed2,
0x8ddf097f8ad800e9,
0x80107fabd64c86b8,
0x8956d3c88a4007f0,
0x0b7e2fa8aee4bf7f,
0x7f09889b508173e9,
0x4e8900442098c0ec,
0x7637209c1ae56365,
0x042af12acb69d9dc,
0xced6f39a41d7b738,
0x0ae5d77fcc53c05f,
0x989891677f30beea,
0x3f567bd2186751ea,
0x9d1b80c2654b831e,
0x409d2273f5e7445a,
0x621de0d8f54c1288,
0xe9485d8ec27f4fef,
0x85850eee47de92ee,
0x7c0bef1df748283f,
0x402ed738947ae7ff,
0x48345477e0099b7f,
0x4dfac9b128d4f930,
0x6e784c708ed92850,
0x4b006dc837c8d5cc,
0x55ee6578744e1b8a,
0x9b97ff7e3a8cb01c,
0x501660174414666a,
0x000c01109de8109a,
0xaf7b9cce708b7f22,
0x2fffdd90267154c4,
0x967e64c68e2c4c6e,
0xbf04b56b1eab10b3,
0xbcef30c069d1d7f3,
0xb20c1783004d949c,
0x15ef1d46908d8d9b,
0xc7e5f318173557de,
0x40ccbd08e56584ea,
0xb122dfceeff56f7d,
0x0280b084950936cd,
0x0dfe91f767bdd0d4,
0x8b4dde7f117659a7,
0x00e8073fc0d16298,
0xa428f3f30000897e,
0x47cdc06a7f73f8e2,
0x92f4dcff0390cf37,
0x0830d1cde7d084e0,
0x508036bfaf63b5a6,
0x11496b5ffb6bbda2,
0xf3e6d01c89f65e71,
0x0563e623130f1082,
0xfc911061254cf3bb,
0x108dfa58554f0445,
0x0206bffc20007ec3,
0xc600320576a8fe2e,
0xd4eed82198656bbd,
0xa72feaea00ac6c0e,
0x1223ffd4e2fbc8c9,
0x33f7cf80c0a09db4,
0xf50003b518c570d5,
0xb408bf627c99c907,
0x330c7011ee2202ff,
0xce60dfb2563c0025,
0x71c3986e61086e99,
0xb6eae45579dc98ae,
0x3a17389b0c0008b6,
0x2e29bf6fc402bf37,
0x509d0258cf2bb242,
0x0011de6c14e227eb,
0x06ab1871cce3b322,
0xe7919b6e61457a8e,
0xfc448824b59810c7,
0xa7368085fc0e2a0e,
0x095fe802246090c7,
0x3aef8fcdd1347421,
0x3174bac501310b0f,
0xd1b7a03bbb4111bd,
0x9e658803626f3567,
0x8ab53e337cc73c62,
0x847711fff7497324,
0xe58b49c27f0ba4ff,
0x6edc01cd6a7e5162,
0x240066ffc71b2e76,
0xad17ef641d2010aa,
0x0b19768ac34ddcda,
0x0012fef5b7effb87,
0x608a00e24eb34c1c,
0x2ecdad8b69e00f31,
0xc081b60089c016cf,
0xba4fe7363704626e,
0x5ae79c4dfefe382e,
0xf84b41083357009d,
0xe02605d9df5f1006,
0x81c3364617a2c203,
0xffefde3f87769e2f,
0xcce4ec390772288c,
0x0cc6045180dc9034,
0xfff69caf0ba7e7e7,
0x3011f89788ce9d78,
0x77c2800265406c2e,
0xaed4cc8c60141430,
0x5c751044a08944f1,
0xb10ec0fb50704fd2,
0x0c2637f773cbb92a,
0x380e3a30a32c961c,
0x8145d7e2edb75063,
0x514c4cf95dc28589,
0xaad25c3f0032ebbb,
0x646ce7b0622b8a07,
0x0b0dc528069795e6,
0x4ae2bb15d8ac23d8,
0x5554845f3d00f898,
0x7a0388a7575e4e44,
0xeb3a13d55ffa762f,
0xa625677559bc0510,
0xfc0057707d51c802,
0x51f07f50b9468666,
0x841fa6350f1544eb,
0x3a3b1fb0f297e61f,
0x7590cc750a62579d,
0xb26794da53b60a00,
0x69524fc4f194549e,
0xd82d7c2dd7c8de9e,
0x8c945e65153c1144,
0xddb05eae649998ea,
0xf738199398a5ec6e,
0xdf6b2bb9780056c3,
0xd7762cc08558a09c,
0x8399aea38eec8d92,
0x0e63466ebe809170,
0xaa016b0bdd0d2954,
0x62e04bd882a67cea,
0x0010dee94e2e8c8e,
0xcffd3d09f04c6720,
0x2bd2092abcb59de4,
0xa24ef4a9e4308819,
0xc5118082ccdab6e0,
0x975e3fff8f21d000,
0x088a9e8c21842230,
0x0e67d3fc0661d006,
0x39ba80755a337908,
0x20af800006b81c30,
0xfbbde227e8be0f7b,
0x4100d0ee1f633938,
0x0a06176625ff2e08,
0xdf5f371dffdf2f56,
0x9e2d93dda2b86320,
0x105db1254b3a332f,
0x8e12c623140dcfc9,
0x38d072f8ce431681,
0x6b041735a4c042a4,
0xc5c3733342440a0f,
0xd07775a773cc3d6f,
0x38dd6e80320d74c4,
0x14e67b84070434a2,
0xe8868526adbf341e,
0x2c27b79657548711,
0xb8b782616f08ffcf,
0xee7fcfef63c313ed,
0x20c6a24403263070,
0xc5261dee803f13c5,
0xdf7d4da9791845ea,
0x7d62cb0719304b00,
0x13bc0020a5e35601,
0x6cff3ba01bb17e16,
0xc003b790d309b88a,
0x01d1fd106ca7fc03,
0x902106d490d93e30,
0xc49927335452d3fc,
0x19a365e3d3ff1018,
0x5597ceb205db4e61,
0x91b3891049456f06,
0xd207626c765e32fc,
0x1c02cd40dc4478f1,
0x3c9ba7f2c2f73fb7,
0x78f04627034746c5,
0xc73d7d9d56eb448b,
0xfc218ded1a625533,
0x63b53c0f81276805,
0xc9ea0802e719e30e,
0x50ed688f526922e9,
0x1302623a4b30bc3e,
0x177a48eff5609c33,
0x0f611bf98272117f,
0xe37fccd16f6b45ec,
0x809eff0014053653,
0xad02a8e338f552e1,
0x720df917c940332f,
0x44219279efd42c21,
0x1152c0c4e870af06,
0x4b7f038aed12fba3,
0x167106e3ccff1b13,
0x171215304e6b58c2,
0x6e72fecc81bb3511,
0x44ee020bb4d58260,
0x51a43a617ff8c5f1,
0x676665f93e91da0d,
0x1c50c2e381116622,
0x00bbc26e1c8f90fa,
0x9bd2f9000a000ded,
0x985d0f42ea00bede,
0x6f6e57100a87146a,
0xc04346708d571e90,
0xae6c91a58ef787f3,
0x936f72007015de67,
0x77617129e6c51707,
0x0005766290e16077,
0x36803777ceed1d71,
0x95f49c0b49714b08,
0x1958dc370e0166ae,
0x04896192120ba3be,
0x0603880fda8d8bff,
0xe3ae86319dafaa76,
0x8d358112772189b9,
0x16a1ac128ff27a77,
0x52229300cd750d32,
0x059917c00abf5031,
0xd5dd207041c01da5,
0x4c696733dbc3840a,
0xffae3a01666d1b67,
0x6e6b7364dd20ec48,
0x17faf748cd6e003b,
0xd309f013f3b37270,
0xdb03e7b7f1f6d4d1,
0x06440df224117f6b,
0xde9102a35f56b93d,
0x445214096620679c,
0x00d2139a9248fcc7,
0x36f42789c4c35004,
0x3972d37230697811,
0x202ba30006fa87be,
0x8563d6020c400040,
0xcca50d9018571702,
0xfe6e1bcadaed2808,
0x10f56e71ae1aed11,
0xa31791b0d0156c01,
0x7aa357f527f925d6,
0x7b80d7e09bfd05f7,
0xee6ae40554ec27b7,
0xb0b8cee827650465,
0xdf3e6b806ffe7cb8,
0x6f30810e56726bb9,
0x23b083f61e4e58fd,
0x6250169087b7e7a4,
0xb940602d323a30c6,
0x76f3f6ac3b353334,
0x24f8666f75c365f0,
0x1b3104febb31c9d6,
0x81cfcca120170065,
0x3f90226d1357201f,
0xec886754220fe653,
0x1b2f3b3026310caa,
0x9ecd0ebf4cc5ac79,
0x14d74144637a7203,
0x537ed73cf2329333,
0x936d033fe2756944,
0x34c875ce7b781935,
0x1b7b2c226bec3719,
0xefc0ea8da7fcb8c8,
0xc7ac335bc5d0c7f7,
0xafab2d71f064278c,
0xc2b2665523add838,
0x4efb36e63ffe82c4,
0x9096ddfcd165106d,
0x16a4333b27370677,
0x26ce17f45e279a32,
0x3702c51a9f26f3f2,
0xb88a8d40023093e7,
0x8c7db1117028be75,
0xf7e032bac6c136af,
0x175cd55c71402a24,
0xb1f0f7e7fbb5303d,
0x9c1681144ade3fec,
0xd96036af33903e08,
0x0fde2b00b5e5ff88,
0x2778302087f396ff,
0x49e64e80b7ff6a04,
0x72eb6230dcb732e8,
0xb5149790131072fd,
0xf76c427921723335,
0xbc04f7fafecc13de,
0x1cc896fd2ff6f2b3,
0x9d006ea2a817d6ae,
0xf772323044cd12be,
0x8666279d7f22979c,
0x93fe5b0044cc33df,
0xd01623f2fe93925b,
0x730333bfed8c5c1a,
0x913582313027bd11,
0x460107a6ec66b111,
0xa0b83728411ba13c,
0x467db2bf364ae804,
0x1de5358034cf150f,
0x18335e77b10b7e2a,
0x273f28197dff5ced,
0x7dff2cd83cc90ab0,
0xe7eacda2707b19b3,
0xdb7ca0427620cab2,
0xffcb600a8034e3b8,
0x6b7d7208f6e81c22,
0xaa885feb6304b321,
0x3f2ffddfd8e550e7,
0x4f6b2210d48037fe,
0xd09a33b74dd99537,
0xd2f992be163016bb,
0x4dc190c4f862000d,
0x5e8649afdef7ce64,
0xa5b26a9bd1f76067,
0xff7f44c500accc95,
0xdd1eb1a29ddf26cc,
0x031dcef91e00c1fa,
0xc8890485502165cc,
0x11cc983b20f6633f,
0xf7ff1c0f123c75d2,
0x4e40800c0dd44a67,
0xfe72e6d67660ff91,
0xf1afcc68f6fd2d73,
0x0fabefd15408cf87,
0x35c7207417f080ae,
0xbff76fc0d08990f3,
0x708b0207d10aaaf6,
0x16d0851831070003,
0x5ef5ef951002fe92,
0xe3f10cdd5101a7e7,
0xff005e30c9dbfed4,
0x649cccf7fd5b4bcc,
0xa1b5532911326ebd,
0x0884e7283f16ff15,
0xdeac20677f7f270f,
0x6f686f6495f2552b,
0x60e0e47c8d9d00c1,
0xcc4d6a97715fc73b,
0x5e3b999feeeeeb0c,
0xc1bef66e4408a2fe,
0xafbd322079bf78b1,
0x5fd933ff9083671c,
0x6cf574190650cfbe,
0xe0812261ff9317b2,
0x2dff8a3ffefd7a62,
0x0d9e0d15940ccaf4,
0xc509a37d2300f37d,
0x72558086fd79d2b6,
0xae17120a8f90c7c7,
0x4000d983718041ff,
0x985faf33fffd0f72,
0x226000881bbaf42c,
0xee328549d87c881c,
0x262cb330e503273f,
0xa85c66fe000ffc6f,
0x167610ba2977e3d4,
0x7880c6a3d66490a0,
0x10adf13dd0c7b31c,
0x473b08f2bfb79171,
0xce12dabc88cf88a5,
0x89aecd7f9fffd37d,
0xafff318df87e307d,
0x2cff88258099a89d,
0xcfd4d4953fef7722,
0x9dd780a1acbcadec,
0xd577d4feffe40bdb,
0x23f4551c98ce4b08,
0xd0113ecbbbfcc9ce,
0x48426a56136eef6b,
0x987554fddc114c7b,
0x80355418efff3f5b,
0xd133d886d8fd7500,
0xc34e5c65d155c0dc,
0xb110207fd9c4fcfb,
0x3021237f22bc5997,
0x119a67edd0eea7ee,
0x18a674fe02d21f01,
0x441cc19ff8c622c0,
0x6986e640fa1a3ecc,
0xbfffce97129fe3bd,
0x200772818af767ee,
0x770f260e6ce80065,
0xfff3dc8e32fca3eb,
0x3950c9827c0b006e,
0xe5dd37319b084651,
0xfa81f5b2a3f09ceb,
0xfe3e22de7177620c,
0x098ec04b73b35f11,
0xc37ffe91ee3f8708,
0x3cd7f8485857ccfd,
0x6ffdf7cb959fb7d8,
0xb96ca3cee71c6df8,
0x9ddfc00d02d1a577,
0xee7a7804d449dc0a,
0x08e2b7cee7c8b993,
0xda7488dc0684cdc2,
0x44c4d9cbf332777d,
0xf0391104e4d4fff9,
0x38602618f37b7648,
0x13f444e2b8143ce8,
0xf18cd19a786b3112,
0xe8df1474bcedc008,
0xf05d809f30087063,
0xaf02f3e8ab063221,
0x55032ffd08bc5478,
0xfdedfb331caff833,
0x023fe059e3a4b11c,
0xe820f1a3dd8798ff,
0x108e98fb7dc5defe,
0x063a66c205eb91fd,
0x5840ef5eb83ccaff,
0x783c0fff61daf4d0,
0x69fc6191408e3041,
0x426d42092b18c40f,
0x708fc4403ffb309f,
0x73031f99e0013b98,
0xd7f8faa3f38ccb94,
0xa8964496dae6f288,
0x2e18116ddabf7bf6,
0xf80989c773c78437,
0x7476621af7bd8e92,
0x6bcb91c817b3f213,
0x5efbe20afc8d42aa,
0xe713a346a68f3738,
0xe4eb5623107db14f,
0x1147ff97049103b2,
0x8e4942127feb10ca,
0xd9cc3571b9317b70,
0x503fc445f0e91087,
0xf69b28cc94896cd7,
0xd954d0f773971d13,
0xb7c747802c015a30,
0x0998111ccd62b166,
0x9ad776d0d13850f9,
0x7e6e9c8000039041,
0x1891f5811a82b3a1,
0x6889c0076a972919,
0x0154b47a6fc0f9bc,
0x2298f043b785b383,
0x3212104404cbe957,
0x61231c7dba301b90,
0x12909c31e8881510,
0x6b30311014451a05,
0x1e30fcf73c59ea31,
0xae829b295736d73b,
0x603ba3955d4707e6,
0x8487036286841b83,
0x40396fc2e50f8083,
0x7a7538ba9071c7c3,
0x0e08244f131d3700,
0x481ccb85a5b81180,
0x160800388a00afdc,
0xddec8ee3747d60c5,
0xbe0ea804638d24cd,
0x632bea0970440a47,
0x7dcd33353e408daa,
0x4bf78022c85d291b,
0xe8888b99a59da00c,
0x1d4015eced505efc,
0x896d09adb86939d5,
0xa86107c77cac21a3,
0x004e7b8bc52c529c,
0x75019c40099decca,
0x3f767109b1f3fc96,
0x9311499f26040452,
0x1fdd1bfc28629204,
0xe7b22d47a9c771bc,
0x3ba1a50097f8ac09,
0xee38b1d5331400ea,
0xa0546084f2bb399c,
0x1f89332bc503a6dd,
0xef216bc436742202,
0xbd79558258036220,
0x31106763b76c1727,
0x34cf590b24d655b3,
0x3ad139e0706dea67,
0x9a325e683f400da9,
0xf1cd062231c1a021,
0x063c6853f7737b37,
0x77150cc71511401a,
0x8634048709026731,
0xea1d857456ff2289,
0x07bc397f5a7f116e,
0xbc6c23ceed66ea3c,
0xa87df3bd9c7553bb,
0x418104499e6d1845,
0x45b910455d80b184,
0x3173d2341b121b7a,
0x6920a3322194a9d4,
0x5229c88a2e31054b,
0x8b44607c163b2735,
0x024475a8f61bd16b,
0x9333c1eb5860ce3d,
0xfd9d01dd4318a576,
0xff4bdc08f3960858,
0xf7d906cc5c6bc000,
0x7d1ba6377dd098f2,
0x440a300f8020dab2,
0xc6ffc3bcaafffe57,
0x869e003cd34c3769,
0x8bc6a2fb62f76fb7,
0xb81f8ec5ee87e422,
0x4edd8901eef70aae,
0x28302a34805fae24,
0x1b860776e183547a,
0x872020020f2effcc,
0x0000b44fa5b8cec0,
0x356b89f33470e230,
0xbbff2060fffafb7a,
0xf2e5a47aece82a47,
0x034909d11feec76a,
0x208022001a17e6fc,
0xfe83fe7e28707f60,
0x512513058215c00a,
0x84b9fff72100057d,
0x4d72000077de3c19,
0xed6ca7f87593ffb8,
0x7efb6f96aaa41031,
0x11001954f3f64461,
0xd6fecbf57b209fb1,
0xc004cefcffec800c,
0xb3daec83c5fcfff5,
0x0117ef289eff66d7,
0x8e103e4265102204,
0x44c3d7cedfbe8255,
0x5a918f07b1c794f6,
0xc6ff75623fb0d3a5,
0x001a311872a3bff2,
0xff6fd57ff3d6ac30,
0x8868e492000636ea,
0x006570200e03a5df,
0xabb17236a2003f70,
0x64c6dbec2dcc2d7e,
0xfd8a0b7dffddd421,
0xdebcfa80de93877e,
0xc120e72fba1d52b9,
0x0087d63cd69e2b02,
0xeae81407b7b59c58,
0xe4ee26c1df333277,
0x800c0608c105ee59,
0x56e50a018130123c,
0x627f4731826e0001,
0x1a11e7b896bb7b15,
0xfcc0cee8f080cdc4,
0x03fffdd4bbf6bed8,
0x27228c26134517fa,
0x8ee61154762cd111,
0x93de57ff2ea26443,
0x26efd0e93370b51b,
0x9398fceaeb765074,
0x9b55603bfccbef20,
0x6ffbf022a84008d5,
0xec20a8fd0042f7e7,
0x1369f2463004f6ff,
0x69b7172200308dd3,
0x10fb660f28002a01,
0xc03e2d8767be6efe,
0x85441e7508855fc3,
0xeeeab4fbec8e7cfa,
0x7d7171e680b030ff,
0x2f4eedfca0117d7c,
0xffbb4000400bfd16,
0xbe0e79b7456f2eee,
0x1668cf2191436eb1,
0x77ce5ae8eceee8e6,
0x0004ff26fd351751,
0x7f9cfce6e7f6fef8,
0xfffba0420004f4f5,
0x333f2b768b090002,
0xdc403432f7f681a2,
0xc997310a50c82064,
0xb24200a810031dee,
0x82454077c7683dc7,
0x7580d6121221ffe4,
0x1c4582a81dff11fb,
0x30e2ff3e0fcd74c5,
0x5e06d956800ab4e1,
0x0188ba8c100090b5,
0x7c8079fac1036fef,
0x7372e5100ea1e202,
0xcced977b8e1c8946,
0xf5fba17763b47185,
0xcff854c00a080000,
0x3b131553ddc10c00,
0x3055b50e40fe1ffe,
0x7c9302e80aafe532,
0x88009222b1f65fbf,
0x2682b8ee37e2722c,
0x48bccc492efd40c0,
0x80c4fde7402a193f,
0x101d19927fff2e73,
0x8050eee38efc6e14,
0x560872ea0b20b2cc,
0x64718df40000fdeb,
0x1013019a108247ef,
0xdf6a8879223907f1,
0xf7fdd464704184c0,
0x80fbaef16a7529aa,
0xd98700f27ecb45f6,
0xbefbcc08ed86fa22,
0x064201c633196aab,
0x5a6eabec82c661a7,
0x0abe15d2648c4803,
0x80009520838dbffe,
0xaa288000fe80e0ee,
0xe34beb236efe8780,
0x7633ff330cd771d3,
0x508ad3ec8dc1f4a4,
0x766fef753e261f2b,
0xb533221200a1048e,
0xde6e100077c2937b,
0x9f6243669910829b,
0x3202b5d7542585f9,
0x9d103c2951110868,
0x2b390116f1bdcf64,
0xce45ddcf06e08312,
0x5705cf1190f53c1f,
0x444d913288017a4e,
0x006e46f740f65d04,
0x062f017721384232,
0x012340c2ce626aef,
0xf61bb7549b88ae3c,
0xfdcaab480bae8d80,
0x779de280f401e287,
0x8e6e110050e5499c,
0x66c8bde3fa0a97fc,
0x17d027630800e920,
0x46d6c66732a2248a,
0x7d7ed110a111adc8,
0x7702b8c8bebe8102,
0x3e962b743c46ffce,
0xf60679008087bee3,
0xade60b63f2a1a088,
0x06a56a1e8f7a42bd,
0xff5730599de7f004,
0xf32daeed28ee6001,
0xa680b000d4902d9b,
0x08d6a007890cfe88,
0xfe6e2337c11af110,
0x264b7f1d2b9f1888,
0x5bf7953bc405819e,
0xbf5f27ee3fed9408,
0xcfc6f40291ff9566,
0xefbd2e2ed56e20ef,
0x54ed3b170eef795d,
0x2602b863f650e603,
0xb8ec68090009800e,
0xd60c1235b2e07eef,
0x95392646df0d1d97,
0xffa2ef5c08137f5c,
0x98fd8efa846bff7e,
0x880eb99f00c2f89c,
0x3317ce3b4feeed17,
0x68296ffe7dbe4004,
0x69b03685e8cc6577,
0x08ac018c7428e67f,
0x8a004cc7f6f9df79,
0x008e288990065764,
0xb224a47f9c474743,
0x10848c0c447ffee6,
0xff25ab3e37d1d208,
0xd0447dcebd09d30e,
0x44493ba0bee8d6ff,
0x6108830433ee4100,
0x476c0740ff75c4e4,
0x0b40ead0f5298200,
0x1001bf9af0080501,
0xf30726cf37c4dbe4,
0x380f027600d50591,
0x5e912bf0124d59fd,
0x51e8af4eccc40244,
0xdff6f7ea8dffe572,
0xa03386ef007e7e76,
0xefa911607b9a0bbf,
0xdfe38bf6235c0214,
0x2408e67f27b26643,
0xcd25cbdf9957eafb,
0x7fdceeec8fb6e2f0,
0x600b300470702b01,
0xabded86200e74e44,
0x02146be8c043e061,
0xbb2e202cebe4f36f,
0x20106cf6601cd175,
0x0907c654c6a9d0d7,
0xce80d1736214cd2c,
0x30cbeae7430ad901,
0xea4bbe808008d6ef,
0xbdf1403735dbd761,
0x91643b5670512a9a,
0x217b7002f30a7a55,
0xfebbc32b2b154979,
0x2d5787611319a8fe,
0x97f4633ac6fee0b4,
0x70374ea7c9692564,
0x453f718a8a77bd7c,
0xdd6f7957e264ff7f,
0xe54cc8467998999b,
0x7c344930a1bc7376,
0xdfcfa92a719b1110,
0xba2c46ef0891ee18,
0xd7adaa043fab2892,
0x28f072160163dab6,
0x94cdb1ec683c4d81,
0xb7d08d61fbb8adf7,
0x31021cc18458dbb6,
0xff85da10f82c7329,
0x45e0d8765f851f14,
0xf75fef05ca0d100f,
0x91b5d73851df7862,
0x306ee71fdd09ecff,
0xeb004758fd47220a,
0x1afef57ec694e03d,
0x0a4a0e26611beb84,
0x68fc4eb96dcab735,
0x7107142cc1bb6f4a,
0x02c438ad095b5d80,
0xab79205106f1b054,
0xb3bef7bfef094048,
0xfe18407fec027f67,
0xf05cfe509b43a619,
0x41006765011d45ff,
0x618d6fcf3113f327,
0x8627e202c9b04f88,
0x8bfc0c15e0c830c8,
0xbfbf4546ef0aa21d,
0xd44780cc2958bb84,
0x5164139266ff4d9f,
0xef9b08b2eee45346,
0x8b80cbf68676423b,
0x6484ff17f8f8e36e,
0x81900bb62610e826,
0x10c5d8ed1370af10,
0xa99010053707ef1b,
0x7777bd44eae37fcc,
0x8cdfb6b890f7df1a,
0xff1c01771b1efeb1,
0x48d64cfff93455c8,
0xfefbfe5ea0fa30fa,
0xcf5a10e176d1cce3,
0x337403670cc5bdd4,
0xfb107fbaa2e2736e,
0x4d976f3be8cb1e3f,
0x000f07e6a7725557,
0x8fe65fbadd24d14a,
0xc0128429ff376422,
0xae0e4536efa0ec62,
0x297c3fe9e71a4960,
0x8934cca4ef14a0be,
0xa90620781cf4a36f,
0x59def5ddb340e890,
0x8499573ef504777f,
0xb56ee8fb83f70408,
0xb65c374980f22c48,
0xe2881dd2e4c0ec83,
0x80c2e52a37d14af4,
0xafb15c7335f26e67,
0xdfbdb298c03d23fc,
0xcb632008a6ccd465,
0x9024d8333803f50c,
0xd2d28003a3e3ba51,
0x48c5fa7cfb70a268,
0x9a319ea0e72e93f9,
0x70c0626441ae7e96,
0x7b56affe3fb1603f,
0x4df285de1aa3f5b9,
0x7a39c1972f093d8c,
0x3e67b009ccc2800f,
0x10c79218328c8018,
0xdb799173a733b84d,
0xde99df673bede0ff,
0x60c070a16dfb9641,
0x6e4904c6fb6606d4,
0x98f0cef39ac5004f,
0xd078a3b6fc26cdbb,
0x2fc810bba803008e,
0x3f0ba7222493dd3a,
0xfffb663070baec9e,
0x22e2e2fa6a87afd4,
0x014a37e9ef225ce9,
0x33f1b74c23ea4a8e,
0x431fc8776ebd7b56,
0xb24f925d993c20ef,
0x14ed201bc13fbb2e,
0x0ef87f68170d92f6,
0xd8effaa735f184b2,
0xed870e9208952331,
0x289dc644e45dfe08,
0x312aa3f1957c0697,
0x99b4680e0eaff2b3,
0xdca7d36d6b2e71bb,
0xc489b37f6c1478ee,
0xc51544af65f93912,
0x76458d9b6f8bac8e,
0xf61142757b520bae,
0xe9913d19e33751e8,
0xdba5f68dc5080a84,
0x939aa13f364148ee,
0xc49900f01f0fe6da,
0x87a0f5a030c6bb7f,
0x5ce74da81d070063,
0x17f4da973433d1cc,
0xcdaf38e566e8a36a,
0xccbe2f737e1b80ec,
0x1514140173ce11bd,
0xfbb1e7fb44c2fbfd,
0xcf8bb2ed89bfc3bf,
0xfe2211b6514297b1,
0xb7f8f0763deba311,
0xdf44b18e64eefc2d,
0x6e6f018138da79e5,
0xd429446640c80af0,
0x8cf5abe6c4e897ff,
0x270ac175a51c44dc,
0x81aba2671880fe60,
0x880c83718907aab0,
0x781caf3e55523177,
0x0008e77d2d18c57f,
0x99f4c2330051e4ca,
0x2cad49556fe7bdf7,
0x747e1c8990189631,
0xe908cceffbe9e8c0,
0x0011d556bf16bb54,
0x1005dfef3f96adee,
0x83f31b680130fd9e,
0x11307b30ea080020,
0xc94a55b06cd6eb0a,
0x089860c6fa0a8d44,
0x11a224ead03073b4,
0x8c8b500241633cec,
0xffeffb1eaae07fee,
0xce93ff586ccb06e2,
0x30f3bdf41006f9ec,
0x91837732f27f7ef6,
0x50983088001110fd,
0x3c98fb1e8b01ca2e,
0x3910010000b09290,
0x4ebcc6457a35aaff,
0xe9d3b91243b328b1,
0xfffcd4d325e988c5,
0x792dee0ecfcd3cd8,
0x019798ce586f0cf8,
0x4613a048ef5e9912,
0x0008937735029d9d,
0x03880002277eb6ed,
0x2cffce7eac8a22b3,
0xf649f8e650110d13,
0x925cd313f7f43b06,
0x0030fccd04e918d5,
0xedc4731c9110738b,
0x44f2cf4e0098a002,
0xf01005de422889b1,
0xc7c38b320b723702,
0x0ced648ec8061a7c,
0xa377ac51ed6ff873,
0x1f8e20b5edef1f74,
0xeadae48d290fc2ee,
0xa68a1b46d4d44c5a,
0x0c680f427fc0c021,
0x030a8dc8648d02fc,
0x821a3330079d77f9,
0x4fe5a0e0cef8b054,
0x68c8aa09e6970790,
0x76b0e82680c5e88b,
0x6d0c9d5e4c804073,
0xf779e8026e07baa2,
0x1906668682104801,
0x193e081b191701f9,
0xe1500dfda2193665,
0x70375155b7282d7e,
0x3ff8e8bd3fd74068,
0xcf46931d585f8aa8,
0xf5dc8fce0408fd7e,
0x0715677000992a64,
0x020e81036003730e,
0x16e7311b00b6b5ca,
0x52515db330100233,
0x10101c4bf6e3e81a,
0xe23372eb9984ccac,
0xf8a9dce7032fb9ff,
0x0000000000000000,
0x0000000000000000,
0x0000000000000000,
0x0000000000000000,
0x0000000000000000,
0x0000000000000000,
0x0000000000000000,
0x0000000000000000,
0x0000000000000000,
0x0000000000000000,
0x0000000000000000,
0x0000000000000000,
0x0000000000000000,
0x0000000000000000,
0x0000000000000000,
0x0000000000000000,
0x0000000000000000,
0x0000000000000000,
0x0000000000000000,
0x0000000000000000,
0x0000000000000000,
0x0000000000000000,
0x0000000000000000,
0x0000000000000000,
0x0000000000000000,
0x0000000000000000,
0x0000000000000000,
0x0000000000000000,
0x0000000000000000,
0x0000000000000000,
0x0000000000000000,
0x0000000000000000,
0x0000000000000000,
0x0000000000000000,
0x0000000000000000,
0x0000000000000000,
0x0000000000000000,
0x0000000000000000,
0x0000000000000000,
0x0000000000000000,
0x0000000000000000,
0x0000000000000000,
0x0000000000000000,
0x0000000000000000,
0x0000000000000000,
0x0000000000000000,
0x0000000000000000,
0x0000000000000000,
0x0000000000000000,
0x0000000000000000,
0x0000000000000000,
0x0000000000000000,
0x0000000000000000,
0x0000000000000000,
0x0000000000000000,
0x0000000000000000,
0x0000000000000000,
0x0000000000000000,
0x0000000000000000,
0x0000000000000000,
0x0000000000000000,
0x0000000000000000,
0x0000000000000000,
0x0000000000000000,
0x0000000000000000,
0x0000000000000000,
0x0000000000000000,
0x0000000000000000,
0x0000000000000000,
0x0000000000000000,
0x0000000000000000,
0x0000000000000000,
0x0000000000000000,
0x0000000000000000,
0x0000000000000000,
0x0000000000000000,
0x0000000000000000,
0x0000000000000000,
0x0000000000000000,
0x0000000000000000,
0x0000000000000000,
0x0000000000000000,
0x0000000000000000,
0x0000000000000000,
0x0000000000000000,
0x0000000000000000,
0x0000000000000000,
0x0000000000000000,
0x0000000000000000,
0x0000000000000000,
0x0000000000000000,
0x0000000000000000,
0x0000000000000000,
0x0000000000000000,
0x0000000000000000,
0x0000000000000000,
0x0000000000000000,
0x0000000000000000,
0x0000000000000000,
0x0000000000000000,
0x0000000000000000,
0x0000000000000000,
0x0000000000000000,
0x0000000000000000,
0x0000000000000000,
0x0000000000000000,
0x0000000000000000,
0x0000000000000000,
0x0000000000000000,
0x0000000000000000,
0x0000000000000000,
0x0000000000000000,
0x0000000000000000,
0x0000000000000000,
0x0000000000000000,
0x0000000000000000,
0x0000000000000000,
0x0000000000000000,
0x0000000000000000,
0x0000000000000000,
0x0000000000000000,
0x0000000000000000,
0x0000000000000000,
0x0000000000000000,
0x0000000000000000,
0x0000000000000000,
0x0000000000000000,
0x0000000000000000,
0x0000000000000000,
0x0000000000000000,
0x0000000000000000,
0x0000000000000000,
0x0000000000000000,
0x0000000000000000,
0x0000000000000000,
0x0000000000000000,
0x0000000000000000,
0x0000000000000000,
0x0000000000000000,
0x0000000000000000,
0x0000000000000000,
0x0000000000000000,
0x0000000000000000,
0x0000000000000000,
0x0000000000000000,
0x0000000000000000,
0x0000000000000000,
0x0000000000000000,
0x0000000000000000,
0x0000000000000000,
0x0000000000000000,
0x0000000000000000,
0x0000000000000000,
0x0000000000000000,
0x0000000000000000,
0x0000000000000000,
0x0000000000000000,
0x0000000000000000,
0x0000000000000000,
0x0000000000000000,
0x0000000000000000,
0x0000000000000000,
0x0000000000000000,
0x0000000000000000,
0x0000000000000000,
0x0000000000000000,
0x0000000000000000,
0x0000000000000000,
0x0000000000000000,
0x0000000000000000,
0x0000000000000000,
0x0000000000000000,
0x0000000000000000,
0x0000000000000000,
0x0000000000000000,
0x0000000000000000,
0x0000000000000000,
0x0000000000000000,
0x0000000000000000,
0x0000000000000000,
0x0000000000000000,
0x0000000000000000,
0x0000000000000000,
0x0000000000000000,
0x0000000000000000,
0x0000000000000000,
0x0000000000000000,
0x0000000000000000,
0x0000000000000000,
0x0000000000000000,
0x0000000000000000,
0x0000000000000000,
0x0000000000000000,
0x0000000000000000,
0x0000000000000000,
0x0000000000000000,
0x0000000000000000,
0x0000000000000000,
0x0000000000000000,
0x0000000000000000,
0x0000000000000000,
0x0000000000000000,
0x0000000000000000,
0x0000000000000000,
0x0000000000000000,
0x0000000000000000,
0x0000000000000000,
0x0000000000000000,
0x0000000000000000,
0x0000000000000000,
0x0000000000000000,
0x0000000000000000,
0x0000000000000000,
0x0000000000000000,
0x0000000000000000,
0x0000000000000000,
0x0000000000000000,
0x0000000000000000,
0x0000000000000000,
0x0000000000000000,
0x0000000000000000,
0x0000000000000000,
0x0000000000000000,
0x0000000000000000,
0x0000000000000000,
0x0000000000000000,
0x0000000000000000,
0x0000000000000000,
0x0000000000000000,
0x0000000000000000,
0x0000000000000000,
0x0000000000000000,
0x0000000000000000,
0x0000000000000000,
0x0000000000000000,
0x0000000000000000,
0x0000000000000000,
0x0000000000000000,
0x0000000000000000,
0x0000000000000000,
0x0000000000000000,
0x0000000000000000,
0x0000000000000000,
0x0000000000000000,
0x0000000000000000,
0x0000000000000000,
0x0000000000000000,
0x0000000000000000,
0x0000000000000000,
0x0000000000000000,
0x0000000000000000,
0x0000000000000000,
0x0000000000000000,
0x0000000000000000,
0x0000000000000000,
0x0000000000000000,
0x0000000000000000,
0x0000000000000000,
0x0000000000000000,
0x0000000000000000,
0x0000000000000000,
0x0000000000000000,
0x0000000000000000,
0x0000000000000000,
0x0000000000000000,
0x0000000000000000,
0x0000000000000000,
0x0000000000000000,
0x0000000000000000,
0x0000000000000000,
0x0000000000000000,
0x0000000000000000,
0x0000000000000000,
0x0000000000000000,
0x0000000000000000,
0x0000000000000000,
0x0000000000000000,
0x0000000000000000,
0x0000000000000000,
0x0000000000000000,
0x0000000000000000,
0x0000000000000000,
0x0000000000000000,
0x0000000000000000,
0x0000000000000000,
0x0000000000000000,
0x0000000000000000,
0x0000000000000000,
0x0000000000000000,
0x0000000000000000,
0x0000000000000000,
0x0000000000000000,
0x0000000000000000,
0xfbfdfe8dff9200b2,
0xffb5ff80032e0371,
0x0009fe42ffb6ff52,
0xfdf800a300a2ffc3,
0xff78ffb1006cff2d,
0x00260057ff54ff48,
0xff62ff86fe2000ed,
0xff0000570039ffaa,
0x0000000000000000,
0x0000000000000000,
0x0000000000000000,
0x0000000000000000,
0x0000000000000000,
0x0000000000000000,
0x0000000000000000,
0x0000000000000000,
0x0000000000000000,
0x0000000000000000,
0x0000000000000000,
0x0000000000000000,
0x0000000000000000,
0x0000000000000000,
0x0000000000000000,
0x0000000000000000,
0x0000000000000000,
0x0000000000000000,
0x0000000000000000,
0x0000000000000000,
0x0000000000000000,
0x0000000000000000,
0x0000000000000000,
0x0000000000000000,
0x0000000000000000,
0x0000000000000000,
0x0000000000000000,
0x0000000000000000,
0x0000000000000000,
0x0000000000000000,
0x0000000000000000,
0x0000000000000000,
0x0000000000000000,
0x0000000000000000,
0x0000000000000000,
0x0000000000000000,
0x0000000000000000,
0x0000000000000000,
0x0000000000000000,
0x0000000000000000,
0x0000000000000000,
0x0000000000000000,
0x0000000000000000,
0x0000000000000000,
0x0000000000000000,
0x0000000000000000,
0x0000000000000000,
0x0000000000000000,
0x0000000000000000,
0x0000000000000000,
0x0000000000000000,
0x0000000000000000,
0x0000000000000000,
0x0000000000000000,
0x0000000000000000,
0x0000000000000000,
0xed31a11a946c474e,
0x2e9872a767c18bee,
0x2cccc4321dbf338e,
0x8662ddfacf151069,
0xc2dfa9722740ebb0,
0x77f6f6238bae3cf9,
0xe011f6206cce329f,
0xb787335ccf9ce075,
0xe6a8eeb8cfa38ece,
0xe8dc21cdd3b56b31,
0x0a9a8ceef34f299b,
0xabbed4d3e8dd4cb4,
0x246fea03cdfea791,
0x7212eff5f7f02c01,
0x75759dd86fa68fee,
0xe73f16f5f3279f6f,
0x90e0d1d91eed18aa,
0x003d37ab375d6724,
0x35355289ddc81f76,
0xb311c5e7eb228cd5,
0x77243a446e11aa14,
0x8f2362606a83f833,
0x1e51b32f3bcffc71,
0x820e335485ff40e4,
0xdcdcf687a1dd3711,
0xfdbff81867666662,
0xe53071fb2ecfec00,
0xac81fd3d1c847122,
0xc9fdf440640b6f8d,
0xdc8631a27187dc7b,
0xef7dd9f0f3c33c43,
0x980e40a8777c6a44,
0x2f964017249fcf3e,
0x4fc3e70127bf78d6,
0x2f66558a5072f2be,
0xbbfdddc5f9b78a01,
0x9f7af10e181e3671,
0xfd74f93f4f9d5467,
0x0e20e054f636f4cd,
0x787094ab734caf09,
0xd9c9040b0d451cf8,
0x7109378e78885ece,
0x7ff6dede1bffabc6,
0xfc117c19e0abc048,
0x33a27bf7a102bff1,
0x567f7a437766f632,
0xe1b31cddf843770e,
0x51c998e920be0082,
0xa8ca63bd8fbfc4af,
0xaf65e3d0e54b3aef,
0x36cf7d193d4a7ffd,
0xe972dd3d57e79d9d,
0xffe10a9064a1a223,
0x83fc23fc62939b7f,
0x79db149bdddaea3f,
0x18bf2470ecd9fbff,
0x6d48f30cbad0dc87,
0xfc11f34f17693710,
0x0d47fc217fdbc613,
0xde3177fffdbf5719,
0xac115423878fd6eb,
0xf6cffd70628b108c,
0x1f01753a379aaf8a,
0x7982c7b80e23c533,
0x8e6fce00cf661ba0,
0xe7c269d0991811d8,
0xfce372af3eaf909e,
0x6dfa3e44949ab13c,
0x8b53b7e5c3a7368b,
0xf00d0b17cf4ac27e,
0xd602ac65b0af71d8,
0xcffffa06c889ecb0,
0x434b087032080b98,
0xf4cf9eb1aff18621,
0x365508eaf66c23bf,
0x4d0a4a0e99377a32,
0x8bcd6e1bc1ab8827,
0xeff8e5e09e801f95,
0xa6af5d15eb3b318f,
0xe6e3f32d4c6fde12,
0xe70568cd2f0cf233,
0x5e94b9990d4c57fe,
0xeb5706816ca4b02b,
0x80cafdcb7dc94354,
0x4e1dce5cbf02c522,
0x0b051f33d8c8eebc,
0xd49b035b861b0cba,
0x0074ff6390df7f35,
0x3807f97b5d5c86fe,
0xa7d127157fe0d9a8,
0xb75c40ff503e9542,
0x3730df765ea467ea,
0xdfce3aa3a9c4a0ef,
0x803470ccc721beee,
0x8ffcc8fc3d1f2315,
0x1202390f7f5c7df5,
0xa54b4f32f76124af,
0x6ed278004e14f142,
0x46cf0f8ede84e150,
0x4aef21e1c639f32e,
0xf01f5c9a760d9833,
0x1329a673bf72e7fb,
0x6ee3d90124dc1fae,
0x6787c7c6419d3d0d,
0xcbb37f8aeb4fa3f4,
0xc7e57f6ab77ec4a6,
0x0055cb0eb06ed2a9,
0xef718270f1c30fba,
0xc45f93bbe749076d,
0x2f460e668cd16381,
0x9e40ac66b835e547,
0xcc1d019374a1f37d,
0x3124b01909066f2c,
0x150976957b82d5dd,
0xd6f6a70feb71fdfd,
0x5c7b3b7dd4c50287,
0x937ff2d93bfdbfc1,
0xcc76fca75598f705,
0x0ec402c86745be16,
0xa3e41fab79985477,
0xffaff72f424a67c8,
0x1cbb910fc348e1da,
0x3f57a13f240e2c23,
0x6ffa7dfe2b3ea108,
0x7ceefe419322f004,
0xf52d6f31bb61fe2a,
0x4e9cccdf722e0221,
0x7afbf1421671033d,
0x3996ba7cee76fa08,
0xc014b9e1fdf092f7,
0x4f45583ec7cbb274,
0x089f933a8e4f9de0,
0xa9fa433332a214b3,
0xac668f32e731b14c,
0x012acd9db123d99f,
0x0007f258fb64b506,
0x13e6cfbcea00e6b4,
0x6a76018e4218e99e,
0xae4f93e2e8e8d5f1,
0xd2e0cbe99e37fcbf,
0x5762d89f15d9bb5f,
0x4df5fffd7cb30956,
0xbfe890b7d6cb2f0d,
0x7ef55d13c189efef,
0x17ff01185fbcc650,
0x09f6228599a35bee,
0x4131b048ff22f262,
0x0b18b232b233da74,
0x8daadc18c32f00fc,
0x2f6601bed66fcd3f,
0x05013f77ef6280e1,
0xd3d3427f3ae48efa,
0x697cf3742370fdf7,
0x3e9021cb059bf19f,
0x8f352142534470de,
0x7376d99240d944ff,
0x37f7c0e619d4d88c,
0xd610c90f02a8bee2,
0x9cc63d800a6c512f,
0x6cff848c00a36c9e,
0xfc46c0180332f95c,
0x205eb1730c46911e,
0xf0ceeb41cd1698f5,
0xf71af06806079413,
0x8e68188dfefaa373,
0x21d6b23adea6cb7a,
0x7eed70e1e3241f7e,
0xb076d28049374d02,
0xd1db7f3298bc1ffe,
0x10d4160c730efa77,
0xa67744915f33ae75,
0x82e690547bf6d872,
0xc8b3fe776f3300a0,
0xaa608100a8c1af2a,
0x5ec5fe9af80806ff,
0x735f4f2e25a5cf5d,
0x11cc0b9e10b3ac15,
0xcfdfa26f2a26101f,
0x0717f05054ef0000,
0xcc8dbf01c067cce0,
0xb320d16f37f96523,
0x8c6f93f80bfecb90,
0xf0700dce4209a39d,
0x9a4efcc73c95cf6f,
0x0fcfd013fe6fd6f5,
0x4d8084054a362bbd,
0x10080ad0fd3cdb7f,
0xa7b9c90df2df0724,
0xd215ad5877750375,
0xe270b11b4f433680,
0xe8a14393ab8d5007,
0x2067dd3f30c8f639,
0xbf8deca2bf526000,
0x70d4a108988646fb,
0x773ff933c6424b2e,
0xa011a1dc110bdded,
0xeaa624d77bb41a06,
0xbb842af2acee5806,
0x330ae78e001008f3,
0x003f117b00068800,
0xee9f3fd608c0e7bf,
0x890f115459b008cb,
0x3fc2e897efc0fdd7,
0xcb207f8d025076ef,
0xddf2affd29da3b05,
0x6c71cf886ed4870e,
0x0b001029f1163c19,
0x45926121880165a5,
0x848f0012ff3cee68,
0x7dff10816d993948,
0x2104800943209052,
0x00480e982e1472a4,
0x89248f38cdec4d3f,
0xffe66bb8ac9b6e7d,
0xe0032f07effe0001,
0x5854f12c7f0c7713,
0xaf061424ad33c8d7,
0x32714df60173c9d2,
0x0a98ef43e37e88d9,
0xf338e9e8ff54fc67,
0xf7c28448331bd087,
0x2ef1448d00fd4a8c,
0x1c888f60022bff7b,
0x5a31b7392965deb3,
0x7ef62f5a6110eb1c,
0x1730990f2010342c,
0xf20420909d92d841,
0x95f7400e0031e97b,
0x551d20779d730015,
0x6177b5e0dee50000,
0xfce530eb6850499b,
0xa1770012030f6b0f,
0x9eff9e1005c457d0,
0x10a90012f69e7020,
0x077784a152334f38,
0x2dcd9050ad46cdd5,
0x2713dff8a31008d9,
0x31146bff810b4620,
0x00c016ff62080ffb,
0xc2077a088cb1e704,
0x3541471f10042f14,
0xe3124423333b411b,
0x1f33035fcdc10021,
0x44fcb16780006245,
0x0fca8002319a5462,
0xa6ee94f6c8f12828,
0xee41ae690a6ddf6d,
0x219984c079967f99,
0x0100cdf376ee76bf,
0x77298c518d67ebe5,
0xf1b3ec9802ba2eef,
0x0a9ff7efcecf1220,
0x188f3998005d1a35,
0x167279cafff5b3a6,
0x73b043ed2f25836b,
0xca444da900801034,
0xdced36670508095c,
0xa19f11af0e083104,
0xf190b41f72913333,
0xd3de46352376322b,
0x974b0665487f2f53,
0xed21801030cccd78,
0x648728820092f144,
0xf200bd084263525a,
0x33575fef934f609d,
0xeabf90712948b528,
0xdd752c83033059c3,
0xd0197fcb7c991118,
0x382e15c2ffaa6c8b,
0x54ba0110f58ce309,
0x9031be0c6429fec7,
0x31017cc7bf731b6c,
0x040cc81b394302bf,
0x019ff277bc9f2848,
0x7f1378946cf9c72c,
0x586401494c750242,
0x51d9c2aefc45f409,
0xba938c4d924049d0,
0x01ce70802c1b37af,
0x253233b9cc402d85,
0x7f4db859380f08a8,
0x32ce58e9e2541975,
0xc110411cfdb7bde0,
0x20fbf8f94cfd0904,
0x8c0c7674d688db51,
0x8d963041ec110ddd,
0x68fdb0049406151d,
0x1568fe677e1bfb8f,
0xd140b5f9ed19d255,
0xb7f06667b84f76a5,
0x0207b30f195d468b,
0xa040aa2be8dcf88a,
0x4a3b7ff70819a46a,
0x4a6fc1d5afd59a37,
0x0112b4b9a01f0c19,
0x0611ed45b88ff2c5,
0x301505f0338d26fc,
0xe069dd05b801f839,
0xe1905d0d238b2456,
0x9431a1133b02172f,
0xd50084d718ee9994,
0x8d8cb1083b7d3377,
0xf020fb78d91da764,
0xfb3d26073efe6997,
0xc7f38000951edf1c,
0x44884c1c005ec5d1,
0xeb75901bc7cbf6b0,
0xb0444018ccb75ea9,
0x071dc18c0699bc25,
0x7c02aa98b0c0efc6,
0x83dcf07bf231ad24,
0x3569fc695362848d,
0x8eff7eea6c0227a2,
0xf192db81a837f44e,
0xcc1fe856bc1b900c,
0xb10184017504e7ee,
0x3cbc502c187d121d,
0xd80db8d1898d204a,
0x02c4f77ff78de008,
0xdcfaf4e9c310c010,
0x0a56955a808cb76e,
0x1bff09cbfba1eb0c,
0x848190be658eb316,
0xc9cf67bebe7e8351,
0xb6c08f7f9cc0b269,
0x48ef8c3fdfba8888,
0xbb89004cd4ef9119,
0x15fbfffbdf7ee356,
0x9f6271e1ffa2400d,
0x3ffa9ea7c408b921,
0x99bb15ec550c51a8,
0x2cbbd7cfbc6f5539,
0x718fe92679d59ffb,
0xf922bcffef36c9d2,
0xffff9bfec448b8c7,
0x383b0333befe4efd,
0x0852372b00037308,
0x55463fe91e3fcc9f,
0xc4b3e088d77afffe,
0xf933432b9a3f89ca,
0x5223908d72b3ba54,
0x6e7b9f1f06ef0168,
0xe3296cb5ffdcffe6,
0xc6f39901deec50ee,
0xcc7791e7e190bed6,
0x844ebd4e098ac2ee,
0xd9b93d0407e7fcaa,
0x690df99e01ad410a,
0x51185d5f99c193ee,
0x8b9ed113a30c06f6,
0x091ebda85f041289,
0x1cef0554cbfb6008,
0xed8ff79d4b3ab77f,
0x84ccba6c3cbe9bd1,
0x0ce9f699fd3a0c72,
0xf7305d0823f755db,
0x826d72cd9406e77d,
0x0fd36f2e8aac5e7b,
0x2939e990ff3d16fe,
0x130895cbd97254c8,
0x3108069996ec1d5f,
0xfbdd334e3b4c21ef,
0x6eb8ce32013eacf7,
0xba847efb31e05448,
0x995b5dff608b6f71,
0xdb6d29ec7eb23e3f,
0x3efbe812fa887d5f,
0x351d5fffab4e50d0,
0x97ed1610d48350ef,
0xaa4c9f094009180a,
0x2237fdad70ea325d,
0xc09176af1fe7d4ee,
0x1311d01847fcd823,
0xe1072a48a89ff3a9,
0x2ff5171f738536f8,
0x175f8affec4c5761,
0xbcff808ebb881957,
0x1603bf7e7ffd08c4,
0x3010144efd7efb30,
0x7778fd9ca03e47ff,
0x402c7f733d7dd480,
0xfe0c9c252dffae04,
0x9cbbebbf02a09d5e,
0xb9074908785e4f67,
0x8619b912028d76d0,
0x210362a577fbd37e,
0x1b90c08a00af53be,
0xdfba8c06814a3463,
0xc60d205a0b73114e,
0x4efe886c1a2f0135,
0x0001f0525fe3685b,
0x93f7f3dc8cfc3396,
0x7ff468d2edd86b9f,
0x4cfebeed63ec7b01,
0x282048fa17ee43a2,
0xd99377c3ff1a5412,
0x3914e83718c65906,
0xd202250db7fa6d00,
0xf10d35d741021c24,
0xa3b37103f17ddf7e,
0x073703f6b2ccf806,
0x574415e90196860c,
0x5535f09d480fcdf3,
0x76ed642f5730c74f,
0xd723900d6d917288,
0x06f7807852f3309d,
0x1101a539f7fd9cfa,
0x0b030482ffe446d4,
0x595733fe79147d82,
0x023fece7cfd357fb,
0xd000d30377371416,
0xfbeb803110252111,
0x1122c7ec3e8bd08f,
0x080173b087fd08f3,
0x01adfd23200ff0ba,
0x454e87e5139d6fd2,
0xf019218e714319df,
0x00826cef159ef199,
0xfbff0003d4024efd,
0xb733084510ddb349,
0xebff7ea5398b1bf5,
0xd4d3b1f600800679,
0x0711d102ff2e3882,
0x09f0f717c3eff7bc,
0x5545499a0012c371,
0xd591e5a700003490,
0x7f23b65789e67aef,
0x4e850033e99d4092,
0x03ffefee712000b1,
0xdff49501e718fee9,
0x9231b15a081067ee,
0xb04cffc8593b4080,
0xb7fd54443002401a,
0xcee6beb12f7e00b3,
0x73f2b00e4fa3d872,
0x0379a0019ffdd7ec,
0x770242780f20f33f,
0xf7fe01f16eddfb23,
0xd1f2d53fe4120955,
0x52c585ff7ef1dfe4,
0x1bd795ff39802107,
0x6300fffe0a27e313,
0x30889ffb3475a001,
0x385c7419c43f67fe,
0x9915c0c1549e33fb,
0xf3bef83423ef6e36,
0x4021c7b132018004,
0xcb77c186b007c105,
0xb53d4cceef757656,
0x0340f2ab19d6b7ff,
0x3e2d01101fe359ac,
0x217b0a003218c628,
0xbd1e258379809edf,
0x3e370faed4e301ff,
0x77fff373f3299f7e,
0x005a3a99838dfb48,
0xf7f6eefb2caebee3,
0x775a58ff9f33640e,
0x0cec980dff650c77,
0x39d398ca0dbe4277,
0x1c6647aaa9b700e9,
0x46a43f20577b067f,
0x63fac736f1040e7b,
0xefffd0214fa0f603,
0x87e55198df7eea05,
0x9ed708101038b9ea,
0xb1a8b2630902ae0d,
0xcbc89c7de8662774,
0xe7e04e2b81be8cbe,
0x3b206b8e9b7fe7fb,
0xc510ffef9ba202ff,
0x308c82be32b9d5e6,
0x3901836d8e4c67ef,
0x3797f7ff957fc7f3,
0x479dfb032f1ba8f8,
0xf710c131b8cf76f5,
0x1042cfef6faf08a3,
0x1553640cc7f72eb3,
0xd45edd802dd64d75,
0x7eea03899166effe,
0xd476000204f6c272,
0x2112f3ef45bf802e,
0xd777012ac42201ec,
0x579db794ced5c04c,
0x08d4fefe56ffcd3d,
0x266faa31478067f4,
0xef6e81886fa1929a,
0x1cf6176c109a37f2,
0xfcff510008212efe,
0xebfeff3fb30e503e,
0x377c3cfe37fc3930,
0xa86d113060fe1d56,
0xd1b6ebb17f6713b8,
0x93ab183e69dfc398,
0x8964afef4912bf33,
0x7dfd22280b036572,
0x4ebe4e7ce4e5a556,
0xef7ff6ba7eff55db,
0x174e0310bd570170,
0x92fdc39d8f72fdba,
0x666d51870f8fd6dd,
0xb5fcd1bf7f721f01,
0x2a30f1cf1860214b,
0x95ff18478f944feb,
0x1c140dddd4fd02a6,
0x3dd35fbf71b9d184,
0x891b2760160f406f,
0x3b36130d717fa33b,
0x10ce3819508ad22f,
0x1b7affe293c89f25,
0x64d3911f248f8ec0,
0x678e10f7cce29e1f,
0xfd81a3fd00bb7d0b,
0xd72307de3eae9211,
0x72ae14530214771d,
0x5cbae47bcc2d1fdf,
0x510284150031540f,
0x351f8983279b8c17,
0x06f68840b843c719,
0x5833fbe6854d4c65,
0x225a09b0b7a3c016,
0x4aa0ebb5809f7eeb,
0xc091225c82259100,
0x8457f9e747762233,
0xc90eeafc7508f521,
0xad17a2f522106773,
0x6e77bdd105a5186a,
0x0cffd5b4c8769c17,
0x4e7756f6a113a7d7,
0x6f12b173eed4abaf,
0x3d4cea1355940ddf,
0x215d7d451539ce91,
0x40ccdd4851352501,
0x700bfee81857012f,
0x44edd1bc6f299ec0,
0x311d333bde89ccd6,
0xdb30ed58fc2a97fe,
0x48c3d6af052e51ee,
0x6dd3c9edf83dccca,
0xd89eba22f01b038b,
0x2611818de46ccc3f,
0xcceb215cb02786ec,
0x1605ea85933c2ada,
0xf6001b22be678916,
0x9493c897dc9f840f,
0x046c6693768db69d,
0xe320e0d9b3334459,
0xc2cfcc2f010c3e63,
0x0847f3a7b8eff4ef,
0xb2ab046cc88a5776,
0x0c32fba466a0e933,
0x437bed1f8ce7cfb2,
0x6c49cec4d09bc811,
0x0386c1bdfcdda4e2,
0x7103b10f869da893,
0x847dccdeb0f74300,
0xf4549c4e0ccf8fcf,
0x58941a29c7277063,
0x3b7f01755df11442,
0x92efd623e53945e4,
0xda61cbfe9598dcae,
0xcf70b3f4a95f8330,
0xde2e98de8a3e1443,
0x103361d3954776c6,
0x4044b3df2976a9f6,
0x81199311323ce6a8,
0x88c8195f4bd2cd0d,
0xff6df7d94642c1c1,
0x10cae4cc13bd8a5c,
0xd37cd5615cc79af5,
0x9643f96eb94662b9,
0xed9900e7560d8547,
0xdb23553879019844,
0x6b2f88751404cbb5,
0xd0bbe0abb06776d9,
0x5df6e68efd5984f7,
0xef5aefbf02310831,
0x3533c9a090852170,
0xfbbf8efd739dfeee,
0x018c276110c13375,
0x6263037504e02615,
0xdaf3005fb04fa300,
0xbc2204407fdc200b,
0x899375c8f27af330,
0xffc727de55fce91c,
0x124cd68f415dedf5,
0xe5c0eff1910cefd4,
0x7ea50da6ac3e8d32,
0xabf6e7cdc900fc53,
0xfc471a97716ecd54,
0x020c3b4504c07c03,
0x37ce522da003d767,
0xff3b13c526eef340,
0xfc4e00026e01d308,
0x234e9b0ea8219162,
0x74efa207d62591a8,
0xb120b08d7760fc5e,
0xafa0c30263e65ff9,
0x008ddce94f379d48,
0x8f4211397e44f40a,
0x1b77fe0ff7c71b05,
0x0c022f069573753f,
0x1338365c5535015a,
0xda4b999bfe716900,
0x6304ec4b16663a7f,
0x8938f612135c321e,
0x182a8350bc4e3810,
0xbcac06112be3feb8,
0xa1b3037a5348339a,
0x8ff26a4f392c5811,
0x8537768bb51d2902,
0x04ccd00f11215808,
0x0e8023d900477f7b,
0xd011ad1a36a202db,
0xaf34edf38f050d7e,
0x72f5e0db617fd6a8,
0xc24ce7fe634550e8,
0x82c1a7cc001f0067,
0xebf33fb6781ab7f0,
0xa3505322911dedf5,
0x916e17f47a310840,
0x033830f82771fffb,
0x96c4cef343a3ff52,
0xb602ecc57c929688,
0x34f777ae134c2646,
0xe842f6d713aa8c53,
0x205cbf08e5f54009,
0x8d690050d1f54aa7,
0x05dc30cec554d0ae,
0xafa21ad2efff4846,
0xc34962a7022beb42,
0xc284eeede840a4cc,
0xfef8e82d36380f3f,
0x638d8b3c6f2706c0,
0x969a8d8004a36fd1,
0x451df608e8d467ea,
0x2e77068a14a51fea,
0xb397a8e1cde8e8c4,
0x0762bff7077d4204,
0x406260880060c17c,
0xcc377988ce6dd988,
0x6084fba718f42d66,
0xf6fa0131664152ff,
0x0f63880265840288,
0x9acd290803b9f5f6,
0x8ef34c10e1d74e47,
0xf79f962ba81fae77,
0x18348420e8de27ff,
0xe1466def6ab1aca5,
0xb39983316df0a976,
0x4e65eccc45f3c7d0,
0x12dfc2e86a980fd4,
0x946686fb8aadf985,
0x80f1efa047c07e10,
0x81afe015db71df7b,
0xffe6068d6ac7f7ee,
0xf3dffb9307e7288b,
0x21f037b212b45680,
0x83ee1751ead38b88,
0x21c49b1167f8a52b,
0xbfd784e22391d8b6,
0x8ce5e7ffac426cdd,
0x0a90761e2e3c8088,
0x85a7660b2fdd0f23,
0x6344ebec64fd6a89,
0x4623dfe4cc65fff2,
0x7cd1ef4e0170fb1b,
0x37ff3eaf4845effd,
0x6fcfeedc31860a06,
0x66bfaccc1ab70004,
0x7720c61cbb820200,
0x235d59734ca768e3,
0x0075f07b8641f9bc,
0xfe0777df21fc231e,
0x35cb797e4293e1f3,
0x7e939af5fe51325d,
0x5efc572f4faf4ef6,
0xdd7e2bcf36666f41,
0x3666829dccc00c08,
0xd4bc299f12866b7e,
0xf39bfee7c7901ff7,
0x1e037e5124fbf2c7,
0x6ef7922513d0aff2,
0xbdc792054a076e73,
0x9122e5d0344518c8,
0x3a55ef551019edc7,
0x8da632f48d333fe6,
0x2860a3847fb80628,
0x5b041020006b8c05,
0xfb906c62106632f1,
0x0047f919cef7b79b,
0x4de36c6609c8481c,
0x660e14f55e41ea24,
0x9ee084f7857a96b7,
0x9021c26ecededebf,
0xbb5df7c04caa2614,
0x8f80e7f7cf77c486,
0xefb90d2141ff5063,
0x14760ee110b77f75,
0x2bc4e29f66ed3bd7,
0x4c00c99cc44cb6e8,
0x102b7723ea1a62eb,
0x7f48faf2ce1df209,
0x2120e08206198c01,
0xdc232ff406700110,
0xd231346e0feb4021,
0x2edc6f11819019bc,
0x9b03fe76c574e99b,
0x1b2ebd11237de247,
0xd7f5f5eba0a00fb4,
0x5510fdddef622938,
0xbebd314417b20027,
0x09b4ca3eaf0212d9,
0xf810bb319dc277bc,
0xab1c021077ef1c86,
0xa2d28c360995b901,
0x94026c77c50aaf81,
0xf0f03b29748ebf1e,
0xf18baddac11403c3,
0x998ace9e5030e7fe,
0x000a7f7278ae0327,
0xc428bd3677f0cc81,
0xcfc47d31c4904c43,
0xade408dc05603024,
0x91cd57209cc80c12,
0x68a52db5d783aad7,
0x0cc2797b3df42c24,
0x71088313f5d70a21,
0x84888b619018731f,
0xb0c49e48cf8a6661,
0xbc0081f32fe0accc,
0x5e1805e8433add6b,
0x07e35831c544cc31,
0xce9484488e382b81,
0xee5014f721aea9dc,
0x824e32eb96f819ca,
0xaee0cc23fbb74e20,
0xb267b6642293ba46,
0x61536061f7d046f0,
0x2ff507a06f092a24,
0x3bf71495edb807f3,
0x1c3b9c242ff15043,
0x5900d1809d70ff14,
0x0e9b740c1be425bb,
0x8f970caaa9371f23,
0x0187afdbfe47ec8a,
0x43a234689d856be7,
0xd13be475a21013b8,
0x95049bfffec00c82,
0x4103ea8f1adf49b1,
0xbd0b0b209e750bf6,
0xfaa2c135033018b0,
0x071138272ee20f13,
0xa8514c5063420028,
0x2a87fe9d0b3b14b2,
0x5d93e7bb0f273e30,
0x72ee0e49d5378694,
0x0e0e268c2cf0a644,
0x9c0033ff30220a3b,
0x7e5d3f1b03354011,
0x83d6767cf8be4b07,
0xffd41eb02765e3d3,
0x16636f731a026c9f,
0xbf1001f39f51d56f,
0x8e1158b50811096b,
0x7645fb40bac14eef,
0xc839eff17a0a7804,
0xb732d6daefe576b7,
0x1f2052b45e86afd0,
0x31e6b20bc83605b2,
0x067c2301f690aae0,
0xa0140919302ccb37,
0xde7e6c02fb70f7fc,
0x0809fa1888dfc1bb,
0xa9ecf07e30903062,
0x80c1841aac02d08f,
0x8244cdc110d5fc2f,
0x8907c99871ff0253,
0x8322a5107e5cbc4d,
0x473b35a5b7819b88,
0xf8f41571d89bb4ae,
0x2bfffefeaefc36e0,
0x8d086a48b6c9461d,
0xc002027988d06118,
0xded12148d6bd4e6f,
0xf4e9a8c4ea009855,
0x3012901a97376702,
0xc4987a8863ac71be,
0xea000d32ee6ca792,
0xfadeb7ca7049bc01,
0x91723e2f1aba0100,
0x487e7c4d7122fe29,
0x5e0ff03a87af8040,
0xcb022f1180778c00,
0xab228fed801cc221,
0xbf5013c07fa97fe7,
0xb86782e669df0b28,
0xf72e1a3059cde300,
0x0cfc02014afea0d5,
0x0886bbb50824f431,
0xb0efb8ce8109c896,
0x7204ccefce581fee,
0x9e0208732f7f7e02,
0x566eeeccf86d6793,
0x95928d23d8f45e01,
0xd7ec931af830180d,
0xa3640b840942ec2e,
0xf46e0afe301fe8ef,
0x22fcee652f044d9e,
0x642940eaaee41c78,
0x089529a0658b6794,
0xa3b2a8268e4d88c3,
0x20746080bf34b8d7,
0x3eed2bfb80c88801,
0x028cd5c5310f6abc,
0x88a330405ed61611,
0xe7badd972141cc29,
0xdeb233e0730eed8c,
0x003b8442d4c7b1e3,
0x803763949e04ac61,
0xc09d9205f9410f4e,
0x4bbed0469812cc67,
0xaf5680a02600fecf,
0xdb00c81096aa6480,
0xa5f51d835053aecb,
0xc0ffa841cf96f4a1,
0x80deec5a038653f7,
0x9017f2b549d6180a,
0x09f78fb3ab5503ae,
0x89cc21c777f2b0f6,
0xf8001280cf1e2a36,
0xea6d7a29a02fb6ca,
0xf8f44d3f6748f243,
0xca7e2033bbfa6e19,
0x88a1b79f1c9c3c9e,
0x7a8e1cd4f8d92db7,
0xd8ea3f7559338b5b,
0xdce2c01f57c38ada,
0xf330b944d8e72219,
0x8ef5fb72def591a4,
0xcb940090068c8d1a,
0x290b1933efa3cead,
0xee5c28f77f714fcc,
0x2a0fc714c9ae2d75,
0x8395ffb5c19b9137,
0xef78cde2c97edde5,
0x07ca413b0964829b,
0xc800604e6c0789de,
0xef03acd1ac99b8f7,
0xf5f2fc136c545061,
0x83d84684fcc03831,
0x92319beaf1a373f9,
0xd010aa942d7262ee,
0x78c92d724f9420b2,
0x8d9109ebc9ef236a,
0x13f9f4cb94f2f045,
0xb16c8f51cb6e70d6,
0x4fb84127e616c8e9,
0xc6104f93e16f3181,
0x6309cff501b76eb2,
0x2f64080173117cfe,
0x0710e05b8f1e60a6,
0xccbc59e614a7668a,
0x108f03eecf3fc940,
0xafa69f0af56064b6,
0x5ef09df24b3ae349,
0xe0a23e1448eebdc8,
0x0f7761e0c71db84d,
0x88df5286dd7cd425,
0xccf334a4fd18859b,
0xdbf2f574c997c1fe,
0x873a5113888b218f,
0xce9747466fdff900,
0x19802243ff73e91a,
0x84e78f9a657758e7,
0xa634ee84f159a336,
0xef16187f10572e84,
0xe48ccfbd905a7cd7,
0xdf10aeb698bec067,
0xd40301fa95f07b37,
0xbbb2050981006ef0,
0x03a8d6ecf9c1809f,
0xe26b2e144bc594d4,
0x4cd7167e94f12153,
0x59ef77d08fb48029,
0x9a1bd67d6cb1f5ed,
0xf7f00f10b914bef6,
0x02d74b7be8971936,
0xb0d1bf2fcebb2fec,
0x02e1bddeb2c5b166,
0x47d2bc7792ff4ba9,
0xdf9f3138c4bb1142,
0x03feec178ab8812d,
0xfdb3f734d27c631f,
0xd28c0cd712f490c5,
0x5f48eb4a35014197,
0x8fef78170029f11f,
0x05e8e0d1d524938e,
0xd356ffefb80bcfef,
0x86acb00dd200e2be,
0xc200bfee80490252,
0xa94cf025d08ce7dd,
0xc0c7fc0b1701fe65,
0x36efd43d30009d49,
0xba7166cd712657be,
0x4bded27afb1c0bf7,
0xe6795aa7008c9df1,
0x75bf2dfbc52f9bea,
0xfe1d8cc0ffb405bf,
0x97b60408802ccee3,
0xc8f1732d8cf3ce90,
0x523279f7ae219232,
0x08c78b91326486e0,
0xc37e5008b93b335d,
0x8afb2bf700628088,
0xd15056636c0c6bc2,
0xcfdfecc5a6672fef,
0x3f604ce5a82327c0,
0x2e9e5cb9091bd058,
0xc50b7352ff0bcb8d,
0x577e7d836b6547f8,
0x00074c6897fd0100,
0x47fff025f7b10542,
0xd4a39e570e6c3088,
0x68204675a1006e7c,
0xf3009ec699fc341f,
0x32114d01213cf960,
0x61c9ef3929ac4ff7,
0xb3fe7fecdc69bbc9,
0x4e831200802477cd,
0xb188cdf8705f4c07,
0x8c0560491060f593,
0xd3131676235d4086,
0xc0baa5b8e476ab45,
0xc6fe163eb046406d,
0x602caa031140f6fd,
0x3371ff64d76643f1,
0x148a9f332df04eb7,
0x88092577c4718000,
0x05cefe0a46bf3f72,
0x2b851900040cbc4a,
0x00188fd70f1ba80d,
0x85fbc5dd20ff2d10,
0x5fed1e7b0c00ffd4,
0x006e141f0465dafd,
0xa4600026111db032,
0x7f95df590efd5a92,
0x17eab80e580070a3,
0x7c5c10c333935070,
0x4ea6c044808e0886,
0x670c656bc4ccef19,
0x34fffee911446ff6,
0x0220adad316e6ff6,
0x730784eecd84800c,
0x2b1c8c400bc7efff,
0x917a600ea01d2495,
0xfcedcfca0088b2d1,
0x54b7008c01b94806,
0xebf89244af710001,
0xce66513700c6cf03,
0xf598e311872beff0,
0xa34a2a113bc5e754,
0x0f1148b9b58336d2,
0xc00000c08418ec20,
0xeff220c3cce7ddec,
0x2ea0005d2f5e503f,
0x38ebdc43684e50ef,
0xd0c2f1b88dd0f205,
0x3fffc4d040c08ef3,
0x90f70155c42eec01,
0x00ca26701acc6fc8,
0x5abadfd3c41247de,
0x66f06336d888aa47,
0xc407cffeeffec681,
0x80801b51a1caa007,
0x06357300a8fd7af0,
0xf7ef10bcd765c814,
0x5e53c05a31113a7e,
0x0513c0094868ddfe,
0x775c8a2f7669d7eb,
0x72322400672ece88,
0x6cf2f83972f9b53b,
0xc00c68fb47fd1d00,
0xa3ff512f32cceef6,
0x9b1ce18ebf35cd01,
0x1582e7d7b131d2ca,
0x4316ff15c6371ee9,
0x59fbdd1fb7ff24a7,
0x57b6e6ee36337f9b,
0x8054333200778420,
0x0cfea1a7d7461039,
0x4628826d23f5efae,
0x241f219e0100a99b,
0x8e9c9de5efe4d338,
0x4ef258c8c1023c14,
0x057679ec10bf801d,
0x46a320fa2902cf41,
0xd7def83c00b20cfc,
0x661f001057309e80,
0x373319fcf183c31c,
0xc4574f7122481194,
0xc08de5740056139b,
0x4e657fd1333aafdc,
0x6ecd0a22fe764cc4,
0x00b1f6dc1341557f,
0x8e607d62afff5498,
0x840134eb23867253,
0x0008880841d2b761,
0xbd28770c6101da60,
0xeeaeff73111cdfd3,
0x9113108458c1c8f7,
0xc0bd088b5ef490e7,
0xaa131150a980c733,
0xeefc68bac8f7ff06,
0xff7f058ff55bdfff,
0x4bd202ee1cccccea,
0xe96d09c84e1a1e8d,
0x4300fd10eb779041,
0xf01f0c1c3f7ff630,
0x005d44bde8fe0398,
0x8c35d9dcef77bbe7,
0xa2c698fffce24804,
0x6a8077479a9b9f88,
0xc84dd90438008104,
0x3f71f9795919f34c,
0x0213fd69b3fd4b18,
0x334406b7411f3764,
0x42871daaaedb9075,
0x63290443d3663b23,
0x7fb744c1ce428b14,
0xf508fb4be7ff4117,
0xf499bdd87799ba3b,
0x3be7cb8e65498133,
0x8cfa13fdcf8960b5,
0x8fe622f9b3e1c1a0,
0xaba6cc8a63ff7735,
0x31a72f7a9ccc1fbf,
0xb90affbfff792f04,
0x6d89ddd328feea9e,
0x3f1817801f1fe617,
0xf81b03889007cd84,
0xdbecf18bb98b41f6,
0x7b19591dd8101523,
0x937f828bd6cb8fe8,
0x431fbe8b271d8db8,
0xbffd3f3d6ee891bc,
0x138334f7eff9106f,
0x62008be0f65e18bb,
0x4f74e177835f76bc,
0xfa179dee4507deaa,
0x1c977d914f3270a2,
0xfdfaf9fb1f34ae71,
0x8132e4dc342b90df,
0x818767efd06e3af7,
0x3ffa7d88203b6ccc,
0xdf0f2b7d57df23c2,
0x8507bb8b4714e367,
0x795e7f80021da819,
0xf2bf5bc38f19de9b,
0x6fef88a3eff71ef4,
0x8e730fdf7ebe8b21,
0xadb96e6f13b207f8,
0x15517118cc57b23f,
0x097acf92c7abaf34,
0xbed78c6aaac1cf94,
0x9cebadfebd5b90b8,
0x37bb4f4e092ac3af,
0xbe001aa2d93cd324,
0x99d8eb3ffd831ff0,
0xc519f1fd95ba7f27,
0xe4c1a38a30396517,
0x0ba7667c092b71c0,
0x3f5d0125b00036f2,
0xf56b8cbfd3031154,
0x8f76b98bef1ad877,
0xdc9b6f6f33e390fd,
0x33aaee806f7da66d,
0xf4381a9b7afd5f23,
0xfe72333bf8b515ef,
0xcfbafeef7d1d9cbb,
0x0173bdffb2c4350b,
0xb307d71f3f7c3d17,
0xdf96767e376a3c91,
0x3ffb33fc7d5faf1d,
0x9e1b7cf9d4038002,
0xf062bffebe79f790,
0x4fd9af3e328e0001,
0xb9e2fc607f17f56b,
0x81700993c14df6ef,
0x0631eb2e934d1975,
0xa9e402ff01bde954,
0xab565fbbdd918563,
0x65962bb145d2ac3e,
0x5cec9f5591d5aed8,
0xe31beaadd4ea8970,
0x36d9fdbcdfc074d2,
0xdbc98ff9dd958acc,
0x32ceddbb8b5f14f5,
0x9ff382536a459590,
0xaf6a5c014de754fe,
0x1100de88e9bc29e6,
0xd7e8cfcefae8b1b5,
0xcff99c73104effdb,
0x852e88046401c002,
0xadfe08291880bac5,
0xc0e0eda9dd7ade77,
0x9450463f7e5ac885,
0x1234d1db83e7a2ba,
0xdfe5cf8c149295e6,
0xf80100a62aeb1784,
0x87c1fced4fdb8bfd,
0x16e81ace94fe2ced,
0x1560d04515e2edfe,
0xaa1764a735e12779,
0x8ed51086f6fbbff6,
0xfce77c251dc86b32,
0xa91fece3eec99cfa,
0x4f08dbf599e655fb,
0x8d6d7d8e6fb51e64,
0x87118c4edd160404,
0xbcffefb8f8623772,
0x524ef86acc590b54,
0xf3fbcfc4ccbb84ce,
0x0f97776091ceaa4f,
0x92627efad2a2bfa5,
0xbc12327f15f3876f,
0x3e79c1b18617106e,
0xccc6ff848842c8ec,
0x0c5a9fab053c0c0f,
0x00883f94ef90b088,
0x16e6c976134e15e6,
0x8e0436efe94ec5b6,
0x024a8ecf49603678,
0x458b99c7949e6cad,
0x9ff33cd8253e4007,
0xd38055df88a23950,
0x508583dcc0be5219,
0x6aedecff6cc8f7c6,
0xdacb8fe2bebf734f,
0x7cd15ffd6ee18049,
0x4121a0018ff3ce01,
0xaac57d5e4839bd0e,
0x66bb1772bf098090,
0xd705fc7f6f1d9157,
0x1572b61d20e1ac74,
0xbed7dc4ebf5f67c6,
0x610c048fa535948d,
0xdf2b20ad43192dd8,
0x11ffee5f04860048,
0xcce8c0b2c2cd448f,
0xdaec1567128089ff,
0xfecc365e76fbdf3b,
0x91938fe7009dfe47,
0xcb092563bf40f200,
0x030cbac61bfefa38,
0x31087666de6450f1,
0xf832b9561c40b21a,
0xffbfbfef8bea8101,
0x2881d8cf5abf0004,
0x805dff81e7f1d023,
0xf9f95b3a9dded915,
0x3c19ff279f1c3ef9,
0xfa2a224192541191,
0x8cd541df64d72010,
0x2911ece4087be905,
0xba84324caab61b0f,
0xcee2ddfec4258370,
0xae1451df0079394f,
0x78101df15404b9b2,
0xc21271f1f75fe8a9,
0xd1e736e03d047ce7,
0x5ddf457fe56007c0,
0x1980f818197720a0,
0x383f39dddb3911f2,
0x97e36daafffdefe2,
0x30280b9adeff5184,
0x5d98a8f37218ffff,
0x37059ce2358913ad,
0xb0cf11b58fee44ce,
0x7344066c660d000b,
0x0198e101e18e0c8d,
0x140024d481daaff7,
0x1a7e75e7877a1aba,
0xdc4a820c1b1e3080,
0xa80b380511a38466,
0x413aeee2ee193989,
0x3fd7f1139f084f30,
0xeeee1fa909a32aee,
0xb3fd7b3038d2b960,
0x354582ec75805eb2,
0x088df108ff1cea92,
0x030b9524ffe6083f,
0x4ec51108f0ab1810,
0x5604918f11102c47,
0x7910641210fd198e,
0xb01891fdeef81300,
0xbf45a96f58cb37d7,
0xcc86ec87efb85361,
0xb2ff6f107c00604e,
0x7eb39bf2813d010f,
0xc57b73aabef11a8a,
0x8cffa9896d251000,
0x1bff30be8e391170,
0x709cbfbfbe6efcef,
0x33660ee9cfffda0c,
0x01105a407884fd6c,
0xbcc097586811001f,
0xb6f7be6fb67593f7,
0x004ecc60b0080332,
0x13cd57fbb0d6c900,
0x47f0eb77fe52689e,
0xaed711590dbfdc70,
0x048074a0e88bb958,
0xf6e09d6e12cf58e0,
0x3015ddb8308f48fe,
0x650ed5fd7fe0ebff,
0xa19b977d8d240dc0,
0xee9f50af3e456990,
0xcc84f1356997f131,
0xff016067e1eca167,
0xd529fa2d084de14f,
0x473f85477b380d7b,
0x7e8bd330aeb65531,
0xff306cb8457f727f,
0x4171319851a7004a,
0xec73bc50d9cd7181,
0xd28d3e3099ac0208,
0xb29b04e29f82a481,
0x280a4224e20ee888,
0x9090ec0f1b806590,
0xd35dcbdc818570e6,
0x303ebfc1fffe886e,
0x7c26ffb710671997,
0xa30ebff4b07cb080,
0x02dd233454decfa7,
0xf83541a3d369dc77,
0x77b1926d1913e240,
0x91b77c54d3c47112,
0x5b9b109144247b4d,
0xe96f2a93c0cdf584,
0xd9d6fecfd74c341e,
0xcced9390f300576b,
0x91f333370c8fad02,
0x6d0a028d0d3316a0,
0x82fa31760b16251d,
0x28a53572ff92f1d4,
0xe2df32079d8aa08e,
0x096fab09f6b12348,
0x8011c145aeef137d,
0xc1c746c1779ffada,
0x1f2afb7bc000338f,
0x4214d9d5efe08840,
0xa8f1bf38110eb7e1,
0x1a895a0c06046c67,
0x01086005d77fec99,
0x16bfdd3eee4484b1,
0xdc1001f3e993a87e,
0x7ea1918589907d91,
0x75111b46f0ceacc7,
0xda11113fb3380838,
0xdb8dac66ddfb4b1f,
0x5ee68080fe6a4177,
0xf4d621000cb7bd44,
0x08b1e4caf2df90e7,
0xa81140bc77cff10e,
0x418c1823a87da2ec,
0xa84f59bf8b1b6efc,
0xbd3144967face200,
0x00135fbd40882913,
0xd8d7e6e916f34207,
0x19fc503f09348180,
0x1ed907e0664e4082,
0xfce4d6ed3010391f,
0x84b67290d1b79113,
0xcef8d107f811c000,
0xa5400293d8acdeee,
0x8e114606cc1971ea,
0x8801bdd194881e1c,
0x805ff93884f7e69b,
0x5d52e188cf3fec87,
0x040833e2c11f9bc0,
0xbb08890a7f81e05e,
0x8710028cff7d3290,
0x48ba1334417045bb,
0xdfe921374493ecf4,
0xb8881a2991c6972f,
0x3f520e9a010ef266,
0x88d9af0851b37c04,
0x661202ccd14c6e02,
0xa29ecaeadb009bee,
0xb99232d0f72c1f2c,
0xa9c7b2d984eeb71a,
0x2010c58e80c2288c,
0xf745a6fcf9ffd715,
0x1aff0eed427faa00,
0x19e8595ee0cc01fb,
0xff84e915961d92ce,
0xd65700e42258c334,
0xe033ca67d608213f,
0xb37f8493ff20e756,
0x98a2adc8b031aa8c,
0xa853d4c5393f109f,
0x2425fa9dcfd11cd0,
0x01852a0de0d4b756,
0x2c8cc013fe80b1b2,
0x64177fe68867beb2,
0x311f7d6dceab0ed8,
0x0ff56e88c0b81981,
0x4535ca28a7b26d8b,
0x008e504492566469,
0x8ffea017b604096f,
0x67fc728546f815b3,
0xc00f30969b0a4508,
0x1bbdfff07c240b9c,
0xbfd77902458da6a4,
0x5c0159ea9137fe4d,
0x47d200aaf49e8c3a,
0x5deced2a800ddd70,
0x4c5101915fe18810,
0x41006220d861b1a2,
0x957439513110fc91,
0x0c9c927a03870ecb,
0xfc4248c8488c473c,
0x71776033461104c4,
0x2fe1420103700ced,
0xcff0250b9fed6493,
0x0c2f527f7c205d3a,
0x02b8d480097619b6,
0x4988ebf165aaa88a,
0xfe57c3f45008bbc2,
0xb000eb3ee0c191ed,
0xd08e332f8ceb60ec,
0xf027bb73abafa6e7,
0x7e5cbc17102e9cd0,
0x043c33f92eeb948f,
0xac66fc6eddf33d4e,
0xc096e1c974bf1622,
0xe305ede163d14a5a,
0x3fff8304fffbd08f,
0x9ebe50cfffffc114,
0xcc10fd0c98223601,
0x5d1364c7c8ddffba,
0x35003898878f75c6,
0xe843fdc8bf669a39,
0x47b002dbb04e46cc,
0xec13711eb2b8dccb,
0x65ece53711da1b1c,
0xee6a4b6bcf68d84b,
0xd8cdbb5fd803d67d,
0x866e6ef7e908bf72,
0xcad8cc7f8763663a,
0xffec005d8bae9bbc,
0xd5e2edfacf91a5c8,
0x31daa3cd90eddc0e,
0x2bb3933811af772a,
0x1bb293e7fd193d11,
0x5f73eea01c4d6699,
0x339202bc30426404,
0x9fec8694d20c2ddd,
0xf33bb4e4932cc7dc,
0x91995a2322b81b87,
0x0402f72a773655ff,
0x7f307d80bcbd4bfb,
0x99b9772f1537aeac,
0xcaf6de9c12b330f6,
0x2234588857e201fe,
0x0c608e7d6206bfed,
0x2b1e0bfb647756ea,
0x60eeab45d201243c,
0x2f99b881643143fe,
0xe4be9cd32457469c,
0x8c27055763c8f11e,
0xd106ee330aaf663f,
0x1ede02a2bca147f6,
0xe657842261e63dfc,
0x1caefc1647bd9c20,
0xca78906912af9dfe,
0x3321807b13783296,
0x457383ce129cf9d2,
0x90883fbcd03b9a44,
0xa0dab9cd05afb572,
0xfd8c033c7f3162ea,
0x2114a117ce193237,
0xbe8893278b2b14ce,
0x228f33398dbe3cbf,
0xffee62fbe8ce9ffe,
0xb2e0cec83a2cf2e7,
0x98776320916f44da,
0x7133b2f703331780,
0x488f9e1f70ef6ef0,
0x224349bace77bafa,
0xfff67572030a3b29,
0xa69f2ad5802be66f,
0x881a8058d31f4d88,
0x24781aac7d627f26,
0xe8c06f2057f3ddcc,
0xf6a87f7ed3e43732,
0xa0dc004d02221007,
0x46ff13a2cb92926e,
0x850ec1ffcc115f72,
0x6e73df0efde6d057,
0xb282576c2bb57336,
0xac6933b5e5d2e8dc,
0x7bf1dc92751cff24,
0x36014c8d73bfe96f,
0x495b0471e0a698de,
0x7e23c652679b1a34,
0xa413725ff6ff22eb,
0x6e58f0135dd0e531,
0x6d181c904364819c,
0xae58dcec003f5e85,
0x12b11097f38040c5,
0xe054175627fb8ab9,
0x2000f8811a3f7624,
0xfbbf6a2640191895,
0xd36a009535108e01,
0x3e706023c0e2d408,
0xbcf64ddcb6d7aaf0,
0x4021026f0500337c,
0x58dea053c6724109,
0xdc9032aff6ced7fe,
0x03261f8587f325d8,
0x689040762b90cc25,
0x26b3fdc82efcb320,
0xc16d47a2a5461f90,
0x02163009303fa018,
0x48592291834d919a,
0x37ed4eeade0d881a,
0xe71191b3847f27b5,
0x2e187fb6a5b1e6ac,
0x74118eebe7415cf8,
0x8a8e87e4a30964bc,
0xaff6f08c6b478cc9,
0x4cebf5fc13998bea,
0xc18e7a6bf1b87032,
0x6c237f77ae440645,
0x70e7c6012e60b9be,
0xfa6677a272b7907f,
0xf36f8d49055541d2,
0xf511c42049f0a23d,
0x823953744444b2ef,
0xeb1dde88f4fdf1d4,
0x18b880dee9066efe,
0x08af887777de2781,
0xba11837220611009,
0x711e0affa21fef75,
0x2519c20863f18009,
0x7ff882727700f79c,
0xf6bfca55d358b75d,
0x9cc2533f29e09ef5,
0x10009de41afe8808,
0x5aba76a9406c46fe,
0x63ef3d088db2f51b,
0x32088e186fe6b889,
0x84779c09acc7f50d,
0x10049d492a04c1c4,
0xdc74bab25c07410c,
0xaff7cc30cd99cb80,
0xd6d400aa502c784c,
0xfbe82000510023ff,
0x8cd7e5d23d806872,
0xd110e0613fcc088a,
0x7a7fdc011bc788df,
0x119014f8b9d9bdfb,
0xa321c0d80ce00539,
0x5528d0fa6b213b3c,
0xaa3d3d0c0b44a6b3,
0x2df91eb7007e8019,
0xed130cd3c09f8856,
0x8a0a3778ffeaee45,
0x0ff18008f5524d18,
0xff7ebc05c002a881,
0xf1f480d620240028,
0xdef78cdf09514889,
0x80a5f6e08880c40a,
0xbfccffb1fb10eef6,
0x8047ffe4e004e904,
0xd01710816c866edc,
0x947057784fd9ef18,
0x7fcf48e6b22786ff,
0x888a2083433719d8,
0x4f15ff99a90e67d1,
0x54d39c058a732591,
0x7f00078c76009121,
0xaccb2547773f86f6,
0x35f908512317fa6c,
0x7882a8a61febe2fa,
0xb755eef86f728369,
0x01b16ecf29004d09,
0x2de9ff0355051980,
0x7ee827f2057da309,
0x4ea607c468d72090,
0xf58ad43157630171,
0xe09680220a008820,
0x9ec9ec86000c02ae,
0x5659cdb50e8f8000,
0x4e6fdfb9002f2408};
const Word bin_dense_wt_1_1[] = {0xadfe7303fe324ac2};
