Word bin_conv_wt[] = {0x009f1857,
0x8387e5c0,
0xf2fd8036,
0xfe041e42,
0xe2d63d03,
0xe1e310f0,
0xbbf70027,
0x9a8f7181,
0x38bd479c,
0xc6e49aa3,
0xd760fe07,
0x68de0ff9,
0xc933f213,
0x309bf333,
0x491b33bb,
0x20d707cc,
0x3e190df9,
0x6626764e,
0x4ec88804,
0x0330cef9,
0x06d2b265,
0x6100004d,
0x86e065c9,
0x687d9e24,
0x07ff29f6,
0xc8afce63,
0xddb010ff,
0x1d27fe3f,
0xb1260ff6,
0xa00d4b00,
0xfc001749,
0xf89af25f,
0xb2792d4b,
0x08acfe27,
0x900cffc4,
0x1bed3c01,
0xe610001b,
0xb3535fe7,
0x25b7a201,
0xdc93ee00,
0xdc9f2006,
0xd013dc9a,
0x17fd923e,
0xf800c12b,
0xffbe54b5,
0x09357882,
0xe60292c5,
0x37fffe4f,
0x20ddfe32,
0x4ffc00cb,
0x317b908f,
0x36164729,
0x000762ff,
0xcbea6c9b,
0x009b9e4b,
0x2a9ffec8,
0x697ed802,
0xd0018004,
0x040c7162,
0x83264e27,
0x4760721e,
0x37123600,
0x93623c79,
0xc733a8cd,
0xfabd5b6a,
0xe568beb7,
0x62577ecd,
0xda554adb,
0x6dcad700,
0xaa55ab52,
0x2c0bffe0,
0x954a9aad,
0xd8eaa685,
0x36a1262d,
0x9892fc0d,
0xdc92d566,
0x619a59ff,
0x9b550f52,
0x34b12b93,
0x9001b272,
0x6b4ee525,
0xde3ec96e,
0xe306ccd9,
0xfe2ce580,
0x037c03a0,
0x0ffb400b,
0x71fc3346,
0x49fb7e56,
0xf00096ec,
0x7f3701d1,
0xb6885daf,
0x12f9b1ff,
0x7ad43045,
0x413ed28c,
0xf800dfbf,
0xfd8ae7f6,
0x2efd3b62,
0x0113fd4a,
0x37fc4faf,
0x5ef7ff7b,
0xb5b7b2fa,
0x3259a1bc,
0xc2487800,
0xc2c28d6c,
0x1a60d168,
0x5c1f254f,
0x67017497,
0xd0e470da,
0x92ee4eda,
0x80016f69,
0x363390c9,
0x99139033,
0x3367fe07,
0xc8db9026,
0xb19a4dca,
0x78dc67cc,
0x1d6718ce,
0x50cccdcc,
0xc1b66f37,
0x57098c35,
0x320076ec,
0x43b04eed,
0xd3a867f3,
0x9ccf9188,
0xbce4e4d8,
0x46306608,
0x899dced1,
0xde3f62ee,
0x9c2e27f9,
0x2324d3b7,
0x3327d9b9,
0xcced4bbf,
0xde904a46,
0xdfe84dea,
0xdf640000,
0x4fe98945,
0x4313d226,
0xfe868d12,
0x86d078fe,
0x0b7c00d6,
0xcb78960b,
0xf4a749f0,
0x970652da,
0xc7fc84b6,
0xbc8382fa,
0xb405f5d9,
0x7f178601,
0xcfe062c7,
0xef9186f0,
0x97e20ef1,
0xe7a0f3c5,
0xa1c4707b,
0xdc038c07,
0x8f0e9ff8,
0x18f147e8,
0x67858f80,
0x4c5f803f,
0x4f001ec0,
0x57ef03b7,
0x33326e27,
0xc0de92bc,
0x353c7dc8,
0xe800cbb8,
0xc4cd2fe0,
0xb89f81c8,
0xde57c926,
0x5db57205,
0xefa43442,
0xe57527b6,
0x965ad326,
0x97b2caed,
0x3a48dbad,
0x68f097b7,
0x28005ad2,
0xf28f5cfa,
0xb5a3591a,
0x76b95256,
0xac81525c,
0x51d542ab,
0x85d8bd2f,
0x7171cbab,
0x12d6b54a,
0xf9f8e371,
0x5ffd1768,
0xfe5cd089,
0xb69bfe06,
0xc765f92e,
0xa0840714,
0xe1e17ff9,
0x265fb6fa,
0x20af36f9,
0xd036489b,
0x27b1e793,
0x025f7240,
0x04f201ff,
0x3fe2d9ff,
0x9c052605,
0x67f0d8bb,
0xe7f80000,
0xbf34bf66,
0xfa037e68,
0xded89bc6,
0xa7cf3049,
0x5ff3909b,
0xb13fedff,
0x4790016d,
0x92cff9c9,
0x409a4149,
0xd1906d92,
0xca58b737,
0xc253ec0b,
0xa4615aa9,
0x0581db6b,
0xd13c926f,
0x9deaa75a,
0x7a95b2a5,
0x434125df,
0x6d28b528,
0x6da6df65,
0x0ebb4af8,
0xf165ada6,
0x216f6cc9,
0xb29196cb,
0xfd25b40b,
0x236e7096,
0x07272176,
0xb6d9b7b4,
0xfa69be59,
0x361cfe1b,
0x5cc0d622,
0x9612fe00,
0x47e0dc26,
0xe6644c70,
0x673a321d,
0x882f1970,
0x7b306c61,
0x70df3d60,
0xf800e0e5,
0x9bf80020,
0xda4369cb,
0x0401e822,
0x0365b699,
0xdc87fe58,
0xfe4b3789,
0x07f60a00,
0x0c235f59,
0x2604a5c0,
0x00007f39,
0x6f4afbc8,
0x27c9fe44,
0x07007e9b,
0xdc7c8982,
0xddfe2059,
0x03ebef00,
0x5c9e4b84,
0xf9317161,
0x47a2db92,
0xfa48806d,
0x3417ff6f,
0x45b74bfb,
0xd2c97400,
0x68b4da92,
0x68fc01fb,
0x2f0465c7,
0x124a9b6d,
0x6db525c5,
0x9240da92,
0x6ad8da6d,
0x65942601,
0x964b952a,
0x69b52762,
0x60152592,
0x6a4ad141,
0x92b6da6d,
0xf04cd74d,
0xf1fe161d,
0x06983efc,
0x5ff3e80e,
0x08680ee8,
0x23d1fdd4,
0x00001ee8,
0xf9d380fe,
0x202f5a7f,
0x94f1efa0,
0x6a2fb3ee,
0xf17eca7d,
0xf8029c88,
0xdd89e1da,
0x27dc6f52,
0x074bfbf5,
0x87fe0e00,
0x69a3fe40,
0x0787d200,
0xf153505e,
0xfae0bc03,
0x487c9e03,
0x7fc1bd72,
0xf078e383,
0x7680f8a5,
0x01787ee1,
0x2bf856f4,
0xb79d1ef4,
0x897fcdff,
0x0003fedb,
0x0c1001fe,
0x240285b5,
0xdd8bd313,
0xcf64d8ed,
0xd813f9be,
0xbcd1b6b5,
0x0bbb2598,
0x10036d77,
0x0480b9b4,
0x9fec9727,
0x46d173a3,
0xdf83c1b9,
0xcc67c817,
0x4fce0184,
0x59f09809,
0x91787a74,
0x85394b5a,
0xd352a5bd,
0x56845b2d,
0xdad65525,
0x5d6b1716,
0x29714ad6,
0x187849d8,
0xa3d1e92d,
0x0b48aba4,
0x63a5bc75,
0x9f739035,
0x3e819cc6,
0x319bb21e,
0xa46518e6,
0x74d72333,
0x306400cc,
0x61ccddc8,
0x9e209835,
0x74d8cc67,
0x06fef057,
0xfcd84f24,
0x39204641,
0x95bf74c6,
0xe5a48269,
0xfefea200,
0xc2b081bf,
0x3cd6c849,
0xb2166dff,
0xa2d5cb65,
0x7b96daa5,
0x5faedab6,
0xa34ad3a0,
0x92d16b69,
0x92589769,
0x4d2f492b,
0x6db64a5a,
0xcc94312b,
0x2105b702,
0x658017ff,
0xfd824c00,
0x14d801fe,
0xb107a82b,
0x17ff8364,
0xf80001f8,
0x25224cc1,
0x3c05e006,
0x9238ac82,
0xa16a495a,
0x952e5ad6,
0xa52ed696,
0xd2d15b69,
0x0b59681a,
0xd2d54b0a,
0x9294b55a,
0xc258eb6d,
0xf002c529,
0x05d162fe,
0x237997f6,
0xa3f8f269,
0x5f4a6cf6,
0x4a3f346b,
0x002fe9ef,
0x199db934,
0x597492dd,
0xfa7c4c07,
0x03affe0f,
0x07c00160,
0xf89db1ff,
0xb362b1ff,
0xff73b1a4,
0x7f8001ff,
0x1dcf51c4,
0xf9e74887,
0x213b43b8,
0x5e8203a8,
0xf6d1b7c8,
0x33d3fdde,
0x89681721,
0x837a930b,
0x082301a0,
0x5d2c3cf6,
0xe53da452,
0x74e21c8b,
0x98d6c79c,
0x7267338c,
0xe4cec199,
0x3cdd38a8,
0x798cca67,
0x09033296,
0x663066e6,
0x964cc799,
0x467391d8,
0xd939e5a6,
0xa16f685b,
0x3249364b,
0xa3256adb,
0xa36cb985,
0x2526489b,
0xee91b724,
0x98d9b6a9,
0xb36df3b6,
0xa8bb41a7,
0x61a4180b,
0xe9915a00,
0x97236dbc,
0xfa5e8532,
0x37fc74ab,
0xf85e0f6f,
0xc93c96b7,
0x7c005d93,
0x1e0b6532,
0x8a6405ed,
0x9db00099,
0x4b67e533,
0x46654b63,
0xb6466732,
0x4890e49b,
0x9a67cd32,
0xfdcd9a6d,
0x3afdfee9,
0xb000a411,
0xa003f1ff,
0x000131e4,
0x4fb65d87,
0x0af4bcd5,
0x0263fc03,
0x3766a724,
0xe88ee553,
0xf07f685d,
0x047b960f,
0x00e367a1,
0x813cb697,
0x0b2bc25e,
0xfb87c3a0,
0x770c0000,
0xe47b013e,
0xe16b688b,
0xf8fcaf34,
0xa7010f88,
0xe001c67f,
0xd99c0a07,
0x1743ac78,
0x86c55404,
0xc323fe67,
0x3bc0ce37,
0xf13fc391,
0x3664c7d9,
0x03fe61d6,
0x20693f80,
0x0edbeddb,
0xa9fc9304,
0x33fbff3f,
0xfffc9290,
0x4f7f09ff,
0x985c4dff,
0x3719f65b,
0x19c5e387,
0x3b85e3e3,
0x401dc23c,
0x41c70fe3,
0xc2e070e3,
0x071c4fc1,
0x1f31f1c7,
0xe0e78738,
0x1b3c00b0,
0x003f5840,
0x7f03e7c0,
0x001f89fc,
0xd567ff29,
0x271b05b1,
0x68b85e0a,
0x3923700f,
0x6702f126,
0xf8bc0e21,
0xeb55fe07,
0xc0fc0138,
0xca6001f9,
0x8125c51c,
0xd5e03427,
0x11e71807,
0xe3318e3f,
0xfe236239,
0x063bf1e0,
0x96592492,
0xb002d3db,
0x65a52d6d,
0x6b2d3c96,
0xab36da6d,
0x92492492,
0xa24bd400,
0x6b49a569,
0x9db6db92,
0x270127a6,
0xb8e9f61b,
0xf8027f08,
0x6f08c9ff,
0x6db33db0,
0xdb81b31a,
0xc8027fff,
0x5c81686e,
0xb7f89514,
0x003c7a59,
0x202fff87,
0x0007c00f,
0xecebfe00,
0x87467f06,
0x3f0b94ff,
0x001fff34,
0x67007aaa,
0xb3ae0f0a,
0x10ce29f8,
0x33a92af3,
0x25edc573,
0x90de0823,
0x646ee552,
0x4e372895,
0x6a67cde3,
0x8d885add,
0x662a5b6c,
0x89cd93b6,
0xced9f809,
0x0bf99a7b,
0x036dedf6,
0x26b3c7a4,
0x1cfcc3d4,
0xe25fe0f4,
0x0f9a9efb,
0xf686f7fe,
0x8a6490f6,
0xbd42fbfb,
0x87e375b0,
0xcb612e8f,
0x63e86f98,
0xd90bf0cb,
0x816391c0,
0xdfdd8bc8,
0x37fc0e60,
0x000082d8,
0xe1e07c38,
0x7561778e,
0xc71d8778,
0xc0f6f18e,
0x3ce18e68,
0xc4f10fc7,
0x78e4f3c7,
0xe71e393c,
0xde5c7170,
0x30000103,
0xffff4211,
0x3fff7dda,
0x0401e0da,
0x75d0993a,
0xc7830f26,
0xdee3b7fd,
0xc6b28e4b,
0xc4df71bf,
0x8edc92cd,
0xf8b24cd9,
0xb325a449,
0xcb2669ff,
0x4eda99a6,
0x9a4de449,
0xe6eecd24,
0x5c6092d9,
0x24d897b6,
0x0c183d6b,
0x741d0983,
0xffe3f803,
0x38e00fff,
0x5f9c03c3,
0x37e5adc0,
0xf7000e23,
0xe7727005,
0xdaf207d1,
0x5ec7f03f,
0x0f2743a1,
0x817f404e,
0xa3fff9a1,
0xf42e8e1e,
0x71ac27a3,
0x06014af6,
0x7c2cf511,
0xdf009c09,
0x133a36df,
0xfaed0248,
0x40cfffc0,
0xff6003f9,
0xfdf57424,
0xdffc8966,
0xbac79825,
0x878bff39,
0x4acf7fa4,
0x8001fe47,
0x7879a605,
0x797c1e01,
0xd6ce1700,
0x1b73ffa0,
0xfc0cfd61,
0x1fe1fcfc,
0xe07c1efc,
0xb406e80e,
0x69f9e45e,
0xfcc00030,
0x00fc80c9,
0xff8521ff,
0xd7227fcc,
0x4b652f20,
0x005f1635,
0x40024fff,
0x037f539b,
0xb68e9753,
0x71d616a9,
0xa080a95e,
0x85b9ca09,
0x916d6bab,
0x4eea24ab,
0xea9738b5,
0x2aaabcb4,
0x4956a857,
0x2bcea6d5,
0xf96e6d25,
0xfd3f91f6,
0xbff807a0,
0x01fdb600,
0x234749ff,
0xe17b29a0,
0xc16ffffe,
0x8a6f4bec,
0x8b7340df,
0x26989ea2,
0xdb276d49,
0xb68e4d36,
0x96d093b4,
0x592596f2,
0x26929897,
0xb25c924b,
0xb14e6608,
0x5d9949b4,
0x9a7ae5b6,
0xcef48e33,
0x37fb9823,
0x6ffef7c8,
0x8c4d9c43,
0x1c464066,
0x34cbb09f,
0x339be366,
0xef60cf88,
0xabba99fb,
0x03f05433,
0x989f9825,
0x67fc6e6a,
0x445d23d8,
0x30771999,
0x009f8193,
0x8b211a45,
0x36106799,
0x889a4960,
0x64e07637,
0xca1ef3bb,
0x70e58c16,
0xc4e3b23b,
0x37133398,
0xcce231c3,
0xbb184e3b,
0x30df8938,
0x47eaa039,
0xb2a8bc8e,
0xa17801d6,
0xf17803b6,
0x24ded0f4,
0xf6865643,
0x03d16a08,
0xf3fd560b,
0xf6ada854,
0xc3d3e973,
0xc0e7707a,
0xc07c8f0f,
0xb81f9204,
0xe7609ff0,
0xc31bd063,
0x451e0e47,
0xeea38e06,
0x3db2b047,
0x0fc38358,
0x1f15dd47,
0xe1c47bcb,
0xff0e4987,
0x3be38f6d,
0xe64e39c7,
0xc0e0703e,
0x70e001a2,
0x0b1cf3c3,
0x3a1f0f38,
0x236cbee7,
0xc9076d04,
0xb483ff20,
0xae9197a4,
0xb37c12d9,
0xf480b76e,
0xb2d0004d,
0xc36c65c9,
0x236a492c,
0xa781a9f7,
0xa7fb7a58,
0x5c3791fb,
0x9ffdb780,
0x38d185fc,
0x98700154,
0x3cffbdff,
0x0d4dfe00,
0x62ea7e80,
0x3fa001b8,
0x0d648d26,
0x219c857f,
0x300c6fd9,
0x31b7373d,
0x33e6c9e2,
0x009c0476,
0x5493b240,
0xdf6e6fd9,
0x184c0126,
0x63fa0e38,
0xeb54587f,
0xffd3e007,
0x800f00c0,
0xc4ad5eb1,
0x23eef5fa,
0xd80404f2,
0x9be1e96b,
0x2803f84a,
0x770cbfa2,
0xe13cd75e,
0x742e02f6,
0xa03b52be,
0x53d3430b,
0x8178af0b,
0xf9774303,
0xfe8cbc5e,
0xa05de9e9,
0x3874f1bb,
0xcffe9608,
0x2003ee37,
0x4017f226,
0x672cc8c5,
0xcee70a45,
0x36640048,
0x26ec6446,
0xcca88591,
0x7afb0eb8,
0xdf23b307,
0x07e1b033,
0x0f407c6f,
0xc05ccc07,
0x070a4f41,
0xc7600000,
0x84c70e1f,
0xfba063ae,
0x38d90e2b,
0x989ff399,
0x3f03e845,
0x3c2ff7c1,
0xc7635cce,
0xc7c3c9f8,
0xe4cc00ec,
0x67c1e113,
0xfd9a17b8,
0x38fbe0c1,
0x48ff843e,
0xed707e8e,
0xc1bc1e37,
0x8cdd8dd8,
0x499f0f87,
0x100a7118,
0x46605e07,
0xcb3f9235,
0xb631f000,
0xed2062d7,
0xae453a34,
0xbfdd2372,
0xc275d0ec,
0x9592f68d,
0x12ca2aa9,
0x6ccedda6,
0xae05ba6d,
0x6b4a7791,
0xd91a40b6,
0xbf8892c9,
0x4ad3b6db,
0x676e6d24,
0x8993b624,
0x94984926,
0x3599b276,
0x97cdbe66,
0x400349b6,
0x007d91c2,
0x2e1ff4d8,
0x04902437,
0xb8149fc9,
0xd0b5b426,
0xff0790d9,
0x4723803f,
0x2ed1921b,
0x07206fa4,
0xdffdfe36,
0x04903ffb,
0x580383ff,
0x03606f5b,
0x6cdb922d,
0xbb7f37f4,
0x047e0004,
0x2a2be1a4,
0xfae9ffb4,
0x23b888c4,
0xccd44f68,
0x4983b2d8,
0x39b262df,
0xb67f5c27,
0x374b648e,
0x36ef9000,
0x61ada271,
0xbadd8dc2,
0x0c396373,
0x5bd64eab,
0x112da0af,
0x515605cb,
0xa956b0d5,
0x8d29d7c1,
0x8c0394a5,
0x5e8a3d14,
0xe6a8e30e,
0x269317a2,
0x34a0965f,
0xde901e5b,
0xdffede4f,
0x8604a85b,
0x4e9007a5,
0x07e3cbfc,
0x2759bee2,
0x216d9613,
0x3682ca09,
0x0113ffbf,
0xb11a92a2,
0xfb441406,
0xbdec9374,
0x24fd6d50,
0x0317ff5d,
0x2ffc0309,
0xf9238e02,
0x8487fe2b,
0x733d73ff,
0xfb9c4640,
0xfffec3ff,
0x47fd41fe,
0x0ba68fb4,
0xd001bd6d,
0x0ffff536,
0xc37a41b6,
0xb4a6bb9e,
0x89e9e90d,
0x0bd038f4,
0xe1789fa1,
0x0bd03fe1,
0xa6861c5f,
0x1f83025e,
0x86d6565e,
0xa42da8f5,
0x940f43c3,
0xcef772c6,
0xc024cd32,
0x9cce63f6,
0x36658bd9,
0x69336367,
0x603b3687,
0x367fb203,
0x264b3426,
0xcd30cd32,
0x31929a93,
0x546489cb,
0x48dfe166,
0x31a4cecc,
0x8b9b32ce,
0x359a4a89,
0x74c913c8,
0x29ba6233,
0x8a6d996c,
0x27eb3663,
0x5b21f60d,
0xfc93fe09,
0x5016d926,
0x2359b372,
0xb913ff7f,
0xb124801b,
0xb3e9ebd9,
0x47cc0a44,
0x22cbc9db,
0xfc1dd3a7,
0x0cff796d,
0xa1180126,
0x127c2565,
0x2e0f6d92,
0x682575f8,
0x95a78bb6,
0xe916dba6,
0x31fbfa34,
0xccb09259,
0xcb25b4c9,
0xbe81974e,
0xb2b5c449,
0x092654de,
0x36976c49,
0x6e4c97b6,
0xd92c926e,
0x43677c59,
0xdb348a49,
0x4a2d9200,
0x4b25b227,
0x6b6e4836,
0x4ed39764,
0xa26acac8,
0xd9a36c83,
0xcb2ee424,
0x2f6d7b24,
0x3d190ff6,
0x93040169,
0x9ba001b5,
0xb8856f70,
0x46542eac,
0xf5b42158,
0x0b00bfbf,
0x3c54c76a,
0xf9c85edb,
0x7c90c933,
0xe89b76d8,
0x6103ed24,
0xdb2e734c,
0x36ec98d2,
0x98f4876c,
0x44d26898,
0xc4cec8d1,
0xab6cb3b7,
0xf81ac69b,
0x4fc3647f,
0x07fc9749,
0x214b5800,
0x803b1036,
0x04dab3e1,
0xc7fd9220,
0x8cdbf346,
0x85ab6a59,
0xa4de5727,
0x976736c8,
0x209e4e6a,
0xd9a59000,
0x6197b733,
0x4b526c00,
0x27fef259,
0x75211fbf,
0x4cdcb8ca,
0x95b59040,
0xc41a5ab6,
0x02480c92,
0xb13d245f,
0x489cfa82,
0x91b76f7d,
0x00bedb7f,
0x260b37e2,
0x5a49a560,
0xcb09ec2f,
0xcdab3830,
0xec631959,
0xffef3062,
0xfe373a09,
0x179ad58d,
0x06c77f9e,
0xe1438e75,
0x999a329d,
0x6026c955,
0xb76936d4,
0xa248dbbf,
0x364a4d7e,
0xee985e4f,
0x6da92ad9,
0x6a43b312,
0x85b57e92,
0x93535b4b,
0xdc832565,
0x47ff3ffb,
0x913f417f,
0x039000bd,
0x182565c2,
0xf985063f,
0xf6d344d2,
0xf8002534,
0xb8150126,
0x07687b04,
0x1782fef1,
0xc97ce9bc,
0xe02fc35f,
0x8680aba3,
0x0e223da3,
0x89ae3ca5,
0xcc283cb0,
0x7bd4e870,
0xdb85c7a3,
0x5a49652d,
0x0da5c8d9,
0x216966b4,
0x21482796,
0x24b76bb4,
0xb2c9a5bc,
0xb1240000,
0x17a2d297,
0x5d27c8d2,
0x46699066,
0xdfe3f05a,
0x3cbd87cb,
0xc70bf3ee,
0x6673f033,
0xf0d63c7d,
0x38e781c0,
0x508dc7f8,
0x66383817,
0x7975c647,
0xf7f16c3c,
0xfc2dfda1,
0xd50c01fe,
0x57f89da0,
0x0607fda5,
0xfc01e00a,
0x04a6fff6,
0x0b1e41ff,
0xaec34000,
0x43c1c04f,
0xf78383e4,
0x0803e1b6,
0x05e057ca,
0xffe0ab8c,
0x00787fc1,
0x2f0e81b4,
0x86c7f9e0,
0xeafc01e0,
0x57612cd8,
0xde48b73f,
0xb64ed727,
0xeb599372,
0x5da92a2d,
0x6ed9b4d2,
0xb1276cb2,
0x936c5b53,
0xdff6266d,
0x2f166de7,
0xde93feba,
0x2cd90964,
0xb4d98ad8,
0xdf1c97b6,
0xd9253249,
0x312d8ba4,
0x14c09327,
0xf8bbaca6,
0x789fe1e0,
0x07ff8903,
0x188fe1b4,
0x787fd078,
0xe1d91e1f,
0x8721c60f,
0x7fc38600,
0x074b140f,
0x80f3e03e,
0x66659946,
0xcb1a6eac,
0x9b3b80cc,
0xab305bbb,
0x74c6e736,
0x6a753f51,
0xa3780132,
0xaa57dcee,
0x3dca2299,
0x01d90aae,
0xa00fdf29,
0x0003b279,
0xc72bf9fc,
0x5c49b647,
0xafd83dff,
0x687fecc0,
0xab14e9a0,
0x0bc0b27a,
0xc71da0df,
0x78b475c7,
0x072b8e39,
0x09678047,
0xe07c77c3,
0xf0f0123e,
0xffff8400,
0xcd1c0019,
0x36987818,
0x912ffeff,
0x6f44db9c,
0x6931932c,
0xdcd898d1,
0xdabba7b6,
0xb49a668c,
0x0649b72e,
0x736e4cd9,
0xcb245872,
0x6591f386,
0xaf069fa1,
0x0d8f6a50,
0x5f85607e,
0xac2f4a99,
0x0386165c,
0xa16f124e,
0x7e86c716,
0x5e86f1e1,
0x2be6730b,
0x2dae6c6d,
0x6ed87eb7,
0x22789334,
0x2ec99729,
0xada6b4d3,
0x5cb65b6c,
0xb136d9a6,
0x25c9122d,
0xcda3249a,
0x1c9ffec7,
0xe7fcbc1b,
0xd80001ff,
0xc0462fa8,
0x60b6e8f1,
0x625f3665,
0x01a77dff,
0x2d52b104,
0xa9c8cf60,
0x998b36b9,
0xbc75b7f3,
0x24e26d13,
0x1eec62cf,
0xc99ddc48,
0xc5ce0cab,
0xd4c00000,
0xc9ea2b31,
0x8331d562,
0x48972135,
0x97667ef5,
0x235f99cc,
0x2f4bfecb,
0xc4ce7266,
0x611e6a26,
0x001f77d8,
0xc39acdf9,
0x9c769a6b,
0xcb89f4cc,
0x00000000,
0x00000000,
0x00000000,
0x00000000,
0x00000000,
0x00000000,
0x00000000,
0x00000000,
0x00000000,
0x00000000,
0x00000000,
0x00000000,
0x00000000,
0x00000000,
0x00000000,
0x00000000,
0x00000000,
0x00000000,
0x00000000,
0x00000000,
0x00000000,
0x00000000,
0x00000000,
0x00000000,
0x00000000,
0x00000000,
0x00000000,
0x00000000,
0x00000000,
0x00000000,
0x00000000,
0x00000000,
0x00000000,
0x00000000,
0x00000000,
0x00000000,
0x00000000,
0x00000000,
0x00000000,
0x00000000,
0x00000000,
0x00000000,
0x00000000,
0x00000000,
0x00000000,
0x00000000,
0x00000000,
0x00000000,
0x00000000,
0x00000000,
0x00000000,
0x00000000,
0x00000000,
0x00000000,
0x00000000,
0x00000000,
0x00000000,
0x00000000,
0x00000000,
0x00000000,
0x00000000,
0x00000000,
0x00000000,
0x00000000,
0x00000000,
0x00000000,
0x00000000,
0x00000000,
0x00000000,
0x00000000,
0x00000000,
0x00000000,
0x00000000,
0x00000000,
0x00000000,
0x00000000,
0x00000000,
0x00000000,
0x00000000,
0x00000000,
0x00000000,
0x00000000,
0x00000000,
0x00000000,
0x00000000,
0x00000000,
0x00000000,
0x00000000,
0x00000000,
0x00000000,
0x00000000,
0x00000000,
0x00000000,
0x00000000,
0x00000000,
0x00000000,
0x00000000,
0x00000000,
0x00000000,
0x00000000,
0x00000000,
0x00000000,
0x00000000,
0x00000000,
0x00000000,
0x00000000,
0x00000000,
0x00000000,
0x00000000,
0x00000000,
0x00000000,
0x00000000,
0x00000000,
0x00000000,
0x00000000,
0x00000000,
0x00000000,
0x00000000,
0x00000000,
0x00000000,
0x00000000,
0x00000000,
0x00000000,
0x00000000,
0x00000000,
0x00000000,
0x00000000,
0x00000000,
0x00000000,
0x00000000,
0x00000000,
0x00000000,
0x00000000,
0x00000000,
0x00000000,
0x00000000,
0x00000000,
0x00000000,
0x00000000,
0x00000000,
0x00000000,
0x00000000,
0x00000000,
0x00000000,
0x00000000,
0x00000000,
0x00000000,
0x00000000,
0x00000000,
0x00000000,
0x00000000,
0x00000000,
0x00000000,
0x00000000,
0x00000000,
0x00000000,
0x00000000,
0x00000000,
0x00000000,
0x00000000,
0x00000000,
0x00000000,
0x00000000,
0x00000000,
0x00000000,
0x00000000,
0x00000000,
0x00000000,
0x00000000,
0x00000000,
0x00000000,
0x00000000,
0x00000000,
0x00000000,
0x00000000,
0x00000000,
0x00000000,
0x00000000,
0x00000000,
0x00000000,
0x00000000,
0x00000000,
0x00000000,
0x00000000,
0x00000000,
0x00000000,
0x00000000,
0x00000000,
0x00000000,
0x00000000,
0x00000000,
0x00000000,
0x00000000,
0x00000000,
0x00000000,
0x00000000,
0x00000000,
0x00000000,
0x00000000,
0x00000000,
0x00000000,
0x00000000,
0x00000000,
0x00000000,
0x00000000,
0x00000000,
0x00000000,
0x00000000,
0x00000000,
0x00000000,
0x00000000,
0x00000000,
0x00000000,
0x00000000,
0x00000000,
0x00000000,
0x00000000,
0x00000000,
0x00000000,
0x00000000,
0x00000000,
0x00000000,
0x00000000,
0x00000000,
0x00000000,
0x00000000,
0x00000000,
0x00000000,
0x00000000,
0x00000000,
0x00000000,
0x00000000,
0x00000000,
0x00000000,
0x00000000,
0x00000000,
0x00000000,
0x00000000,
0x00000000,
0x00000000,
0x00000000,
0x00000000,
0x00000000,
0x00000000,
0x00000000,
0x00000000,
0x00000000,
0x00000000,
0x00000000,
0x00000000,
0x00000000,
0x00000000,
0x00000000,
0x00000000,
0x00000000,
0x00000000,
0x00000000,
0x00000000,
0x00000000,
0x00000000,
0x00000000,
0x00000000,
0x00000000,
0x00000000,
0x00000000,
0x00000000,
0x00000000,
0x00000000,
0x00000000,
0x00000000,
0x00000000,
0x00000000,
0x00000000,
0x00000000,
0x00000000,
0x00000000,
0x00000000,
0x00000000,
0x00000000,
0x00000000,
0x00000000,
0x00000000,
0x00000000,
0x00000000,
0x00000000,
0x00000000,
0x00000000,
0x00000000,
0x00000000,
0x00000000,
0x00000000,
0x00000000,
0x00000000,
0x00000000,
0x00000000,
0x00000000,
0x00000000,
0x00000000,
0x00000000,
0x00000000,
0x00000000,
0x00000000,
0x00000000,
0x00000000,
0x00000000,
0x00000000,
0x00000000,
0x00000000,
0x00000000,
0x00000000,
0x00000000,
0x00000000,
0x00000000,
0x00000000,
0x00000000,
0x00000000,
0x00000000,
0x00000000,
0x00000000,
0x00000000,
0x00000000,
0x00000000,
0x00000000,
0x00000000,
0x00000000,
0x00000000,
0x00000000,
0x00000000,
0x00000000,
0x00000000,
0x00000000,
0x00000000,
0x00000000,
0x00000000,
0x00000000,
0x00000000,
0x00000000,
0x00000000,
0x00000000,
0x00000000,
0x00000000,
0x00000000,
0x00000000,
0x00000000,
0x00000000,
0x00000000,
0x00000000,
0x00000000,
0x00000000,
0x00000000,
0x00000000,
0x00000000,
0x00000000,
0x00000000,
0x00000000,
0x00000000,
0x00000000,
0x00000000,
0x00000000,
0x00000000,
0x00000000,
0x00000000,
0x00000000,
0x00000000,
0x00000000,
0x00000000,
0x00000000,
0x00000000,
0x00000000,
0x00000000,
0x00000000,
0x00000000,
0x00000000,
0x00000000,
0x00000000,
0x00000000,
0x00000000,
0x00000000,
0x00000000,
0x00000000,
0x00000000,
0x00000000,
0x00000000,
0x00000000,
0x00000000,
0x00000000,
0x00000000,
0x00000000,
0x00000000,
0x00000000,
0x00000000,
0x00000000,
0x00000000,
0x00000000,
0x00000000,
0x00000000,
0x00000000,
0x00000000,
0x00000000,
0x00000000,
0x00000000,
0x00000000,
0x00000000,
0x00000000,
0x00000000,
0x00000000,
0x00000000,
0x00000000,
0x00000000,
0x00000000,
0x00000000,
0x00000000,
0x00000000,
0x00000000,
0x00000000,
0x00000000,
0x00000000,
0x00000000,
0x00000000,
0x00000000,
0x00000000,
0x00000000,
0x00000000,
0x00000000,
0x00000000,
0x00000000,
0x00000000,
0x00000000,
0x00000000,
0x00000000,
0x00000000,
0x00000000,
0x00000000,
0x00000000,
0x00000000,
0x00000000,
0x00000000,
0x00000000,
0x00000000,
0x00000000,
0x00000000,
0x00000000,
0x00000000,
0x00000000,
0x00000000,
0x00000000,
0x00000000,
0x00000000,
0x00000000,
0x00000000,
0x00000000,
0x00000000,
0x00000000,
0x00000000,
0x00000000,
0x00000000,
0x00000000,
0x00000000,
0x00000000,
0x00000000,
0x00000000,
0x00000000,
0x00000000,
0x00000000,
0x00000000,
0x00000000,
0x00000000,
0x00000000,
0x00000000,
0x00000000,
0x00000000,
0x00000000,
0x00000000,
0x00000000,
0x00000000,
0x00000000,
0x00000000,
0x00000000,
0x00000000,
0x00000000,
0x00000000,
0x00000000,
0x00000000,
0x00000000,
0x00000000,
0x00000000,
0x00000000,
0x00000000,
0x00000000,
0x00000000,
0x00000000,
0x00000000,
0x00000000,
0x00000000,
0x00000000,
0x00000000,
0x00000000,
0x00000000,
0x00000000,
0x00000000,
0x00000000,
0x00000000,
0x00000000,
0x00000000,
0x00000000,
0x00000000,
0x00000000,
0x00000000,
0x00000000,
0x00000000,
0x00000000,
0x00000000,
0x00000000,
0x00000000,
0x00000000,
0x00000000,
0x00000000,
0x00000000,
0x00000000,
0x00000000,
0x00000000,
0x00000000,
0x00000000,
0x00000000,
0x00000000,
0x00000000,
0x00000000,
0x00000000,
0x00000000,
0x00000000,
0x00000000,
0x00000000,
0x00000000,
0x00000000,
0x00000000,
0x00000000,
0x00000000,
0x00000000,
0x00000000,
0x00000000,
0x00000000,
0x00000000,
0x00000000,
0x00000000,
0x00000000,
0x00000000,
0x00000000,
0x00000000,
0x00000000,
0x00000000,
0x00000000,
0x00000000,
0x00000000,
0x00000000,
0x00000000,
0x00000000,
0x00000000,
0x00000000,
0x00000000,
0x00000000,
0x00000000,
0x00000000,
0x00000000,
0x00000000,
0x00000000,
0x00000000,
0x00000000,
0x00000000,
0x00000000,
0x00000000,
0x00000000,
0x00000000,
0x00000000,
0x00000000,
0x00000000,
0x00000000,
0x00000000,
0x00000000,
0x00000000,
0x00000000,
0x00000000,
0x00000000,
0x00000000,
0x00000000,
0x00000000,
0x00000000,
0x00000000,
0x00000000,
0x00000000,
0x00000000,
0x00000000,
0x00000000,
0x00000000,
0x00000000,
0x00000000,
0x00000000,
0x00000000,
0x00000000,
0x00000000,
0x00000000,
0x00000000,
0x00000000,
0x00000000,
0x00000000,
0x00000000,
0x00000000,
0x00000000,
0x00000000,
0x00000000,
0x00000000,
0x00000000,
0x00000000,
0x00000000,
0x00000000,
0x00000000,
0x00000000,
0x00000000,
0x00000000,
0x00000000,
0x00000000,
0x00000000,
0x00000000,
0x00000000,
0x00000000,
0x00000000,
0x00000000,
0x00000000,
0x00000000,
0x00000000,
0x00000000,
0x00000000,
0x00000000,
0x00000000,
0x00000000,
0x00000000,
0x00000000,
0x00000000,
0x00000000,
0x00000000,
0x00000000,
0x00000000,
0x00000000,
0x00000000,
0x00000000,
0x00000000,
0x00000000,
0x00000000,
0x00000000,
0x00000000,
0x00000000,
0x00000000,
0x00000000,
0x00000000,
0x00000000,
0x00000000,
0x00000000,
0x00000000,
0x00000000,
0x00000000,
0x00000000,
0x00000000,
0x00000000,
0x00000000,
0x00000000,
0x00000000,
0x00000000,
0x00000000,
0x00000000,
0x00000000,
0x00000000,
0x00000000,
0x00000000,
0x00000000,
0x00000000,
0x00000000,
0x00000000,
0x00000000,
0x00000000,
0x00000000,
0x00000000,
0x00000000,
0x00000000,
0x00000000,
0x00000000,
0x00000000,
0x00000000,
0x00000000,
0x00000000,
0x00000000,
0x00000000,
0x00000000,
0x00000000,
0x00000000,
0x00000000,
0x00000000,
0x00000000,
0x00000000,
0x00000000,
0x00000000,
0x00000000,
0x00000000,
0x00000000,
0x00000000,
0x00000000,
0x00000000,
0x00000000,
0x00000000,
0x00000000,
0x00000000,
0x00000000,
0x00000000,
0x00000000,
0x00000000,
0x00000000,
0x00000000,
0x00000000,
0x00000000,
0x00000000,
0x00000000,
0x00000000,
0x00000000,
0x00000000,
0x00000000,
0x00000000,
0x00000000,
0x00000000,
0x00000000,
0x00000000,
0x00000000,
0x00000000,
0x00000000,
0x00000000,
0x00000000,
0x00000000,
0x00000000,
0x00000000,
0x00000000,
0x00000000,
0x00000000,
0x00000000,
0x00000000,
0x00000000,
0x00000000,
0x00000000,
0x00000000,
0x00000000,
0x00000000,
0x00000000,
0x00000000,
0x00000000,
0x00000000,
0x00000000,
0x00000000,
0x00000000,
0x00000000,
0x00000000,
0x00000000,
0x00000000,
0x00000000,
0x00000000,
0x00000000,
0x00000000,
0x00000000,
0x00000000,
0x00000000,
0x00000000,
0x00000000,
0x00000000,
0x00000000,
0x00000000,
0x00000000,
0x00000000,
0x00000000,
0x00000000,
0x00000000,
0x00000000,
0x00000000,
0x00000000,
0x00000000,
0x00000000,
0x00000000,
0x00000000,
0x00000000,
0x00000000,
0x00000000,
0x00000000,
0x00000000,
0x00000000,
0x00000000,
0x00000000,
0x00000000,
0x00000000,
0x00000000,
0x00000000,
0x00000000,
0x00000000,
0x00000000,
0x00000000,
0x00000000,
0x00000000,
0x00000000,
0x00000000,
0x00000000,
0x00000000,
0x00000000,
0x00000000,
0x00000000,
0x00000000,
0x00000000,
0x00000000,
0x00000000,
0x00000000,
0x00000000,
0x00000000,
0x00000000,
0x00000000,
0x00000000,
0x00000000,
0x00000000,
0x00000000,
0x00000000,
0x00000000,
0x00000000,
0x00000000,
0x00000000,
0x00000000,
0x00000000,
0x00000000,
0x00000000,
0x00000000,
0x00000000,
0x00000000,
0x00000000,
0x00000000,
0x00000000,
0x00000000,
0x00000000,
0x00000000,
0x00000000,
0x00000000,
0x00000000,
0x00000000,
0x00000000,
0x00000000,
0x00000000,
0x00000000,
0x00000000,
0x00000000,
0x00000000,
0x00000000,
0x00000000,
0x00000000,
0x00000000,
0x00000000,
0x00000000,
0x00000000,
0x00000000,
0x00000000,
0x00000000,
0x00000000,
0x00000000,
0x00000000,
0x00000000,
0x00000000,
0x00000000,
0x00000000,
0x00000000,
0x00000000,
0x00000000,
0x00000000,
0x00000000,
0x00000000,
0x00000000,
0x00000000,
0x00000000,
0x00000000,
0x00000000,
0x00000000,
0x00000000,
0x00000000,
0x00000000,
0x00000000,
0x00000000,
0x00000000,
0x00000000,
0x00000000,
0x00000000,
0x00000000,
0x00000000,
0x00000000,
0x00000000,
0x00000000,
0x00000000,
0x00000000,
0x00000000,
0x00000000,
0x00000000,
0x00000000,
0x00000000,
0x00000000,
0x00000000,
0x00000000,
0x00000000,
0x00000000,
0x00000000,
0x00000000,
0x00000000,
0x00000000,
0x00000000,
0x00000000,
0x00000000,
0x00000000,
0x00000000,
0x00000000,
0x00000000,
0x00000000,
0x00000000,
0x00000000,
0x00000000,
0x00000000,
0x00000000,
0x00000000,
0x00000000,
0x00000000,
0x00000000,
0x00000000,
0x00000000,
0x00000000,
0x00000000,
0x00000000,
0x00000000,
0x00000000,
0x00000000,
0x00000000,
0x00000000,
0x00000000,
0x00000000,
0x00000000,
0x00000000,
0x00000000,
0x00000000,
0x00000000,
0x00000000,
0x00000000,
0x00000000,
0x00000000,
0x00000000,
0x00000000,
0x00000000,
0x00000000,
0x00000000,
0x00000000,
0x00000000,
0x00000000,
0x00000000,
0x00000000,
0x00000000,
0x00000000,
0x00000000,
0x00000000,
0x00000000,
0x00000000,
0x00000000,
0x00000000,
0x00000000,
0x00000000,
0x00000000,
0x00000000,
0x00000000,
0x00000000,
0x00000000,
0x00000000,
0x00000000,
0x00000000,
0x00000000,
0x00000000,
0x00000000,
0x00000000,
0x00000000,
0x00000000,
0x00000000,
0x00000000,
0x00000000,
0x00000000,
0x00000000,
0x00000000,
0x00000000,
0x00000000,
0x00000000,
0x00000000,
0x00000000,
0x00000000,
0x00000000,
0x00000000,
0x00000000,
0x00000000,
0x00000000,
0x00000000,
0x00000000,
0x00000000,
0x00000000,
0x00000000,
0x00000000,
0x00000000,
0x00000000,
0x00000000,
0x00000000,
0x00000000,
0x00000000,
0x00000000,
0x00000000,
0x00000000,
0x00000000,
0x00000000,
0x00000000,
0x00000000,
0x00000000,
0x00000000,
0x00000000,
0x00000000,
0x00000000,
0x00000000,
0x00000000,
0x00000000,
0x00000000,
0x00000000,
0x00000000,
0x00000000,
0x00000000,
0x00000000,
0x00000000,
0x00000000,
0x00000000,
0x00000000,
0x00000000,
0x00000000,
0x00000000,
0x00000000,
0x00000000,
0x00000000,
0x00000000,
0x00000000,
0x00000000,
0x00000000,
0x00000000,
0x00000000,
0x00000000,
0x00000000,
0x00000000,
0x00000000,
0x00000000,
0x00000000,
0x00000000,
0x00000000,
0x00000000,
0x00000000,
0x00000000,
0x00000000,
0x00000000,
0x00000000,
0x00000000,
0x00000000,
0x00000000,
0x00000000,
0x00000000,
0x00000000,
0x00000000,
0x00000000,
0x00000000,
0x00000000,
0x00000000,
0x00000000,
0x00000000,
0x00000000,
0x00000000,
0x00000000,
0x00000000,
0x00000000,
0x00000000,
0x00000000,
0x00000000,
0x00000000,
0x00000000,
0x00000000,
0x00000000,
0x00000000,
0x00000000,
0x00000000,
0x00000000,
0x00000000,
0x00000000,
0x00000000,
0x00000000,
0x00000000,
0x00000000,
0x00000000,
0x00000000,
0x00000000,
0x00000000,
0x00000000,
0x00000000,
0x00000000,
0x00000000,
0x00000000,
0x00000000,
0x00000000,
0x00000000,
0x00000000,
0x00000000,
0x00000000,
0x00000000,
0x00000000,
0x00000000,
0x00000000,
0x00000000,
0x00000000,
0x00000000,
0x00000000,
0x00000000,
0x00000000,
0x00000000,
0x00000000,
0x00000000,
0x00000000,
0x00000000,
0x00000000,
0x00000000,
0x00000000,
0x00000000,
0x00000000,
0x00000000,
0x00000000,
0x00000000,
0x00000000,
0x00000000,
0x00000000,
0x00000000,
0x00000000,
0x00000000,
0x00000000,
0x00000000,
0x00000000,
0x00000000,
0x00000000,
0x00000000,
0x00000000,
0x00000000,
0x00000000,
0x00000000,
0x00000000,
0x00000000,
0x00000000,
0x00000000,
0x00000000,
0x00000000,
0x00000000,
0x00000000,
0x00000000,
0x00000000,
0x00000000,
0x00000000,
0x00000000,
0x00000000,
0x00000000,
0x00000000,
0x00000000,
0x00000000,
0x00000000,
0x00000000,
0x00000000,
0x07608e5f,
0x82180789,
0x629c2783,
0xc702a6f8,
0xe3e380f8,
0xc7c2cb00,
0x207f1d19,
0xb89f831b,
0xf9fef107,
0xb91c76fa,
0xe7624dcc,
0xcb7ff327,
0x4a1b7207,
0xc5ca7fe7,
0x28185f5d,
0xd81b5036,
0x3f999dbe,
0x24ed2e08,
0x793c37b1,
0x018a91b5,
0xffc3ff01,
0xdb6fb0f7,
0x2efc0010,
0xd5360a7d,
0xf802b734,
0xadb3b659,
0xd36e901f,
0x8001ae00,
0xa127f95b,
0x3fd3f1c8,
0xb3aecad0,
0x202dfff8,
0x002655ff,
0xf82f72ff,
0x58176c01,
0x17dbe8fe,
0xfc10bff8,
0xd7ff7fd8,
0x1effcb42,
0x07fc01ec,
0xf80387ff,
0x3415763c,
0xc2dc00d1,
0x97e8a004,
0x59a75f12,
0xf8435e09,
0x2597fe59,
0x39648933,
0x58026c4a,
0x013c0000,
0xcc03b689,
0x3801b7ba,
0xdafd4740,
0xbd2598fb,
0x06880283,
0xf898b0b7,
0xb0f5adff,
0x017b93ff,
0x38000165,
0xbb736225,
0x04bc6669,
0xcb27d220,
0xbd9f64a6,
0xb818b1c8,
0x61a25d5e,
0x6d4806ad,
0x6d5300d4,
0xffb2d42d,
0x52d695e8,
0x7696d5ff,
0x91aa406d,
0x6e515aad,
0x10e5596a,
0xe599081f,
0x66dac563,
0x58a310d9,
0x6a6ac552,
0x3131b400,
0x6743272e,
0x633366d7,
0x558ad499,
0xd64d2366,
0xf7004d99,
0x87e1523a,
0x8781a9f5,
0xf178bda0,
0xf80e1e40,
0xffe203c4,
0x0cbfc2c4,
0x048201d9,
0x5d41b256,
0x917f5178,
0xdff881ff,
0x3c03fbf7,
0x23effe00,
0x47fc0111,
0x07fa0b00,
0x4f2e6000,
0xd6da1475,
0x30094bc8,
0x104ef507,
0x83608fed,
0x6a62716e,
0x38fa7e93,
0xbfb2d087,
0x926f8777,
0x7db7d167,
0x78e2d9ed,
0x93412430,
0x6ffeb3ce,
0x63fa8833,
0xcf67c43c,
0xfb206b26,
0x27311798,
0x9b6e4fcc,
0xb8118fc8,
0x36521b3b,
0x736f3ace,
0xbe67d20c,
0xdf2271c8,
0x94cf9817,
0x00e04e00,
0x60c388cc,
0xc698cdc8,
0x3d8ef1cf,
0xbe317bc4,
0x0f47ce73,
0x40106e31,
0xf9080c06,
0xc19ff797,
0x1f24009b,
0x009dd89b,
0xbef16ffb,
0x27ddd9f9,
0x50184df9,
0x09192757,
0x3b652605,
0x7f5df6c0,
0x24029bde,
0xf12c9b01,
0x5c1e1191,
0x91a481fe,
0x0c0492ff,
0xf41420f6,
0xff1dbefe,
0x00225f01,
0x007cb6d6,
0x3f1f8bc0,
0x038d7108,
0x51e5e1f8,
0xc0fc7ec7,
0x083b2cf0,
0x30687663,
0x3f0c158f,
0xb61f8d8a,
0x82814ff1,
0xe0dc7f33,
0x05f97f37,
0x20de3d01,
0x0000883f,
0xc701683f,
0x5ec70d40,
0x9f0191c0,
0x51a5b837,
0x4f004e37,
0x6f9b05db,
0xb72492b2,
0xd435376d,
0x6749253f,
0x6845643b,
0xde49ae1a,
0xdd942436,
0x2258db69,
0x92c94449,
0x1fbe0152,
0x8d451c71,
0xe4ac835e,
0x5cac00a1,
0xf42b76e6,
0x5c86558f,
0xaab647be,
0x51512bde,
0xa28743a3,
0xf813a248,
0x838678d9,
0xf161bfff,
0x376c49a3,
0xdc107e00,
0xffffefa5,
0x3ca88124,
0xc4366e5a,
0xac93fe36,
0xdec27ab0,
0x12d7fd42,
0x633009c5,
0x00070477,
0x0590800b,
0x311007ff,
0xeeec93bf,
0x07228562,
0x03e8b57b,
0xbeda6927,
0xb76c6c4b,
0x5dbf6da6,
0xb5336dd9,
0xcfda03c0,
0xd421b649,
0x34d89653,
0x5e5896a1,
0x5cd25a36,
0x53eb4c05,
0x9568b534,
0x02b74d4f,
0xac913b4a,
0xe251ae80,
0xab64b3ad,
0x254db694,
0x5569a556,
0x9262a925,
0x11492a9b,
0xb34f4adb,
0xb490245b,
0xa326485b,
0x6ffc77cb,
0xd96cbadb,
0xd96e503b,
0x59e7494b,
0x4d9b4990,
0x303c97e1,
0xccd7333f,
0x33af3398,
0xe0990cc4,
0xffe85600,
0xcf33b006,
0x35339d9d,
0x3345186a,
0xe98fa395,
0x6721d5ce,
0xf8009616,
0x21927447,
0xe8016f89,
0xd79209bf,
0x0133fa03,
0xf1edc18c,
0xde873fff,
0xf9fa0300,
0x0159f801,
0xf8009602,
0x8490b22f,
0x0327fddf,
0x07e001c0,
0x07fe6c04,
0xfa972480,
0xfc87ff42,
0x3258fe73,
0x271fffa5,
0x10f5b6b6,
0x9437b3c3,
0x6f17ffc9,
0x005d247b,
0x45b4f4b3,
0xfdf52c5f,
0xd2484c65,
0x6ebb87e6,
0xb03d75d6,
0x4a4b2440,
0x6912d16e,
0x6f209a92,
0xfe4a9b18,
0x6a492487,
0x6a4aca6d,
0x96ca9b76,
0xadaacd92,
0x6f8b246d,
0x26024992,
0xe9f072b4,
0x01f7f0f0,
0xe4187c60,
0x603fffa1,
0x80941f94,
0x03fe97c0,
0xe83e17f0,
0x5fe7cff4,
0x9fda16be,
0x1762c9ff,
0xaedffb70,
0xb948ce00,
0x1ffc00d9,
0xb5234c04,
0xd8656000,
0x0087ed1b,
0x14df7820,
0x8447253f,
0x4be3853f,
0x8fc1f11e,
0xf2f4bfa1,
0x8f03a003,
0x5b526949,
0x3f42005e,
0xdea4b4c6,
0x0bd36968,
0x5bfb0741,
0x0fffcff4,
0xfc185684,
0x0005b1f7,
0x005ffe04,
0x0042416c,
0xd000496d,
0x0db901ff,
0x7a66c820,
0xd8300038,
0x213c27f4,
0x6cb86e1c,
0x0ac00bff,
0xe6db7224,
0x27fe01ff,
0xfc03426f,
0x5d5bfeff,
0xa28cb64b,
0x1fff95aa,
0x2686538b,
0xd2950e6d,
0x2b5380f5,
0x05acbd1e,
0x84b4905a,
0xc4f2acd3,
0xb487d39a,
0x4e83d329,
0x496a14e1,
0x9ae3624b,
0xc5dcc466,
0x70018711,
0xc656c263,
0x67678037,
0x64d46ae6,
0xce644f33,
0x3388cd19,
0x338666e6,
0x1b214dc9,
0xc2f10d47,
0xf8f72400,
0x3b653396,
0xfffc01ff,
0x9fb66fc6,
0xfda195e4,
0x323d71af,
0xca4bfe67,
0xd7fe7e49,
0xcd629624,
0x6a4a9769,
0x7354d6b4,
0xa7ff249c,
0xb8b74bb4,
0x24b524da,
0xda4ad496,
0x956b4b69,
0xb25b415a,
0xd76ffe43,
0x9fff4e33,
0x3f040046,
0xf8026d68,
0x03107fc0,
0xb3000027,
0xb72091cf,
0xc9256f76,
0xd3583c01,
0x68086e96,
0x23d252d6,
0xa53d25d2,
0x5d2e09ed,
0xb02ad896,
0x6fae5c92,
0x2ca69521,
0xb3516b16,
0xc2e6db2e,
0xb40013fe,
0x1f98b209,
0x0136d007,
0xe7fe013c,
0x85ff37be,
0xfedbc3e6,
0x05d1fffe,
0xd4265249,
0xb17bf9f6,
0x691b654b,
0xa19fff89,
0xb0dffe07,
0xf81f9336,
0x305c5c24,
0x80978000,
0x27f808dd,
0xcd260a0b,
0x07a04f07,
0xf6f3e9db,
0x937c3cb4,
0x597c3d1b,
0x842df38b,
0x06b7c3fe,
0x8c2e93e4,
0xa3f007b0,
0x70f9a9bc,
0x2fa4bfe4,
0x899b6929,
0x7e313319,
0x0630cd33,
0x6b1bb833,
0xbb734ecc,
0xc33333e6,
0x1b35dcec,
0x6271cc9d,
0x619b3331,
0x205998ec,
0xae2f44db,
0xa1936c95,
0x116e4859,
0x4fbdba5b,
0x596cb659,
0xcb38c82c,
0xe9a7494a,
0x4c9668b5,
0x49adb729,
0x850bfecb,
0xa3b68f62,
0x0f24002d,
0xf0032bff,
0x6b7f019b,
0xda480143,
0xfc883ea5,
0x90b7d05b,
0xbe8a8801,
0x9e64018d,
0x16572368,
0x32e56b31,
0x4b703166,
0x6a6799b2,
0x61234332,
0xba34d966,
0x344f2311,
0x4ba898d9,
0xf8ec2e2b,
0x09b125ff,
0x037cf125,
0xf31c0122,
0xf8004a07,
0x04d90b12,
0xe4c9a580,
0xbc96f0ad,
0x3803bec8,
0x260f60f9,
0x19707f0e,
0xa03c001e,
0x00b731a3,
0x7b074fc7,
0x160f401f,
0x81d3e037,
0xd9783e5e,
0x070f061e,
0xc01e71a0,
0x70fcce2f,
0x78003fd8,
0x372361c3,
0x280fc7f8,
0x07080667,
0xc700dbb8,
0x79ce4fd8,
0xc7c01e43,
0x2482441f,
0x345a8ec3,
0xc60e59b4,
0xcfe27584,
0x61ff0001,
0xcffcb6df,
0x2d6c75c8,
0x86124b76,
0xc714c8d3,
0xe0260b5f,
0x191f8e38,
0x8a3a1ec7,
0xc1c787d3,
0xc03faf27,
0x5f85c039,
0xf4e1c317,
0x1de31dc0,
0x3e1f0c37,
0x4747530e,
0x3e9497fa,
0xc13393f0,
0x4710100f,
0x00934000,
0x3f239017,
0x90dc49f8,
0xd9ac2f59,
0x18bbd10f,
0xb813f1f8,
0xaefdbf88,
0x05c079c7,
0x03f32038,
0x19ca01c4,
0xc4f00817,
0x840c720f,
0x190f8e80,
0x0ce0ea31,
0xc75b091f,
0xde9525c9,
0x9135a5ff,
0xfecb2400,
0x6841db6d,
0x95b52569,
0x6db12569,
0x6d8ad265,
0x9a786ca5,
0x2db6c82d,
0x4beffffb,
0x33649026,
0xda93fe4e,
0x3ffdfa99,
0xfe07fe24,
0x2b00c800,
0xaffffe00,
0x3f42ce77,
0xf803993f,
0x7f668a27,
0xd7203a3a,
0xd79839f1,
0xfbe38bcc,
0x3afc0e00,
0x7f418427,
0x07fc899a,
0xc0747e17,
0x074731c0,
0x3c740e17,
0xb1cac572,
0x31ce3b8d,
0xadc8e2cd,
0x35e84191,
0xba114495,
0xe6729a71,
0x95893162,
0x8566c4ad,
0xb49aa3a4,
0x0fd803b6,
0xa627e7e3,
0x0ee7803f,
0x441e4243,
0xdbd0cb31,
0xffd8c101,
0xaff892f6,
0x3804138b,
0x4bdaef03,
0xcfe0013f,
0xb5deb0cd,
0xeffe0347,
0x380117fe,
0xc7bc6608,
0x3b10001f,
0x15a21123,
0xc703ef68,
0x47321ecf,
0xc61071c7,
0x88e31c79,
0xca770738,
0x04f18427,
0xf71f8ec7,
0xe78b1dc7,
0xc0e1c3c3,
0xc71e7038,
0x2b8d87c7,
0x00085005,
0x7b147400,
0xf6c1e5ff,
0xf801fc0f,
0x2f818687,
0xf93c900f,
0xc0b701ff,
0x1a79fd4e,
0xcffff272,
0x48db6b36,
0x696c96d9,
0x5b35b6c9,
0xf06fa8c9,
0x46179e49,
0xb34e7bc9,
0x48e81676,
0xb6db77b6,
0xd0b1926c,
0x1ff38324,
0xc8fe7039,
0x58002be4,
0x1fe38fd0,
0x1f0809ff,
0x37ef401b,
0x8fdd7143,
0xc8725203,
0xbf1833be,
0xfbc3000c,
0xfd3da85f,
0x0e2cb41f,
0xfb4d565c,
0x0e87ffe0,
0xfe6f4907,
0xf06fe8a7,
0x1253405e,
0x0878e81f,
0x200fc017,
0x2e739ae4,
0x3edbf1ec,
0x3fa7fe7f,
0x3e1800f8,
0xc82f7db9,
0x04c4ca00,
0x46d00807,
0x0101c778,
0xfa185dda,
0xe05fe40f,
0xfbd0bd83,
0x1b7406de,
0xef9301f6,
0x623f07ea,
0xa63bc103,
0xe9f3f303,
0x0f83247c,
0xa2fb0321,
0x9ffc00ca,
0x13685ada,
0x0121be3f,
0x7bebfe00,
0x46ee0125,
0xc7fc9a36,
0x65d95184,
0x1c646fb7,
0xfbbb21ff,
0xd48162fb,
0x6d790e81,
0xa3d6a9e0,
0x90db5d5a,
0xe403535a,
0x55783d4e,
0x555a97ed,
0xaeace2a9,
0x76323daa,
0x0798005f,
0x4ee00194,
0x40fc013e,
0xf7ff4320,
0x217c01be,
0x5c9a0205,
0x017f4bfb,
0xd97db8d9,
0x027e5aa1,
0xa12793da,
0xa6ca65a3,
0xb5f2c1c9,
0x4d27e54b,
0xb1269400,
0x25272474,
0x4b276c97,
0x36c966fb,
0xb78d376c,
0x78989749,
0x41b99198,
0x069c6dd0,
0x66ccc937,
0x3a3f8c44,
0x73339326,
0x3320c4a7,
0x23306c3b,
0xe099b31b,
0xca7ccc60,
0xc8ce25f3,
0xc3218513,
0x4033b05d,
0x9ffc6b93,
0xf8d5b205,
0x3f33713b,
0xab7ea2ae,
0x4099e441,
0xbe7676c7,
0xd8e7b137,
0x30c87398,
0xa09d8fc4,
0x47607bc8,
0xcb138047,
0x66a391d8,
0x34c46ee6,
0xc98f843a,
0x6b139dc6,
0x4908ffb5,
0xa39212d5,
0xc87de85e,
0x844c00fb,
0xa1eb120b,
0x8c04744b,
0x6d2eb7a0,
0x2b574254,
0xa0af536d,
0x21f00e38,
0xc03de1f8,
0x395e9000,
0x94184fd0,
0x395a3e3f,
0x00bc1ebc,
0x44af843f,
0xbbc391dc,
0x399f8f07,
0x90e28e38,
0xc7198fc5,
0x659f6dc3,
0x871f0e3c,
0x84f06138,
0xc0e38fac,
0xe1e387bc,
0x3f0f8bc7,
0xd0e071c7,
0x237d58bd,
0x36c96d24,
0x1ed1a4db,
0x2905b74c,
0x5d25b6cb,
0x872fed24,
0xdbb64f20,
0x24d34980,
0xc36fe4f8,
0xf89c9321,
0xdba7fdc6,
0xdd109e5f,
0x4523adff,
0xfba00c00,
0x5127b405,
0xf80363a6,
0x1f8c5a51,
0x0857b044,
0x4ed99000,
0x265c09ff,
0x3723b1db,
0x27240440,
0x27fe7edb,
0xd9ffd3b9,
0xfb84c93f,
0xdf65cc66,
0xccda4999,
0x0197f799,
0xa007f9c0,
0x490c0798,
0x006a01f9,
0xfe1407ff,
0xe06401ff,
0xe5ac0a04,
0xf6e7fd4b,
0x1d2c82f4,
0xf7e29605,
0x6c0c16f4,
0xa1d216f4,
0xe03de90e,
0x1626407f,
0xf42f410d,
0x66863f09,
0x892e97a0,
0xa499cb7c,
0xe7a7d303,
0xdfe29dc9,
0x22f2c77f,
0x3bef33b6,
0x22140c46,
0x27e76dad,
0x11138844,
0xcf4f7640,
0x209289e8,
0x3018abf9,
0x7f0017d8,
0x4952fe1d,
0x3fc00128,
0x001c67c0,
0xc7080ff0,
0x1f0c5ef6,
0x9fe00ff0,
0xf0e47817,
0xf763903f,
0xd7e00fc0,
0xbc1de183,
0x3f004ff0,
0x5fa06df8,
0xf7e01c3f,
0xcfe3d00f,
0xbf623c0f,
0x199e160b,
0x78db47c6,
0xc30de807,
0xfe6331d8,
0x045f88f8,
0x431f9837,
0x391ffbc8,
0xc3186b87,
0xc7414f3d,
0xe6700e39,
0x38e0f03b,
0x3f206f87,
0x6a352889,
0xcda8c6ad,
0xfbf264fc,
0xe7bfdd6a,
0x3246d8cc,
0x49a6d5fa,
0x69b93abe,
0x725ea7c9,
0x40f9d8ce,
0xd937d10f,
0x4e6fb78c,
0xdcd7d224,
0x22a732cc,
0xd1277626,
0xd499bb89,
0xd810cd24,
0x009237fb,
0x36db3ed9,
0xfefc0fb8,
0xfc9c7d45,
0x03039368,
0x00dd31c8,
0xc8ff91c9,
0x70847fc8,
0xcf0137d8,
0xd8fe4826,
0x48fc7f5a,
0x58018ffa,
0x6b2893ff,
0xfed24fff,
0x07ff7de0,
0x481f6836,
0x4c800180,
0xded1fe00,
0xd37c922e,
0x8603d025,
0xce617e99,
0x9e304d71,
0x39d000c4,
0x39133344,
0x25882a40,
0x8d2ab3da,
0x6223912e,
0x13e0e733,
0x42b383c1,
0xd4fa3427,
0xf4233456,
0x58ff159a,
0xa2d5e2eb,
0x8365eafe,
0x8a84b063,
0xd4592913,
0x7438bc17,
0xc3521c5c,
0x234cfeb5,
0xff40bfa4,
0x26ab6853,
0x0e9372da,
0xa683edfe,
0x282c97c2,
0xa00cb7a0,
0xd97cbf94,
0xa46741b0,
0xf8813693,
0x0d2287ff,
0xa683ff41,
0xfb0b9a00,
0x07fc0000,
0xfb2e0800,
0x9065a000,
0x517ff714,
0x25a378c1,
0x454da542,
0xfedc0010,
0x0003bfca,
0xcfb3ff5b,
0x07ff25ff,
0xd85ffec9,
0x233bfec8,
0x303e6e2e,
0xfb63f1bf,
0xbf37e1ff,
0x9170cba1,
0x0e84bda1,
0x1fdb427c,
0x59d8016e,
0x21f0b65e,
0x9c2ce85e,
0x0939bd0b,
0x29d756b3,
0x043a165e,
0xc81c4cd8,
0x5b3265cd,
0x689fa99f,
0x92404df8,
0x999b3244,
0x5b6933fa,
0x24c80526,
0x9ee7b0cd,
0x199abacc,
0xd661959a,
0x9b726c73,
0x499bd072,
0x8b333b59,
0x499990b2,
0x99993b36,
0x63219336,
0x319e6673,
0xecda4799,
0x37e80060,
0x4efa9601,
0x0edb75f6,
0x2f01f624,
0xbc03fe00,
0xb0926c08,
0x9102de41,
0x04244300,
0xef6fc1fe,
0x874bffcb,
0xbda2cd3d,
0x46c5b73d,
0xd85fce4d,
0x6b4b9e18,
0xd65a5ba6,
0xded988ba,
0x69a585a4,
0x02ea773e,
0x30d93316,
0x4b59b2c9,
0xccd8a4cc,
0xcaa76d26,
0x627edba4,
0x4b2692c9,
0x4bb24d3e,
0xb691aca7,
0x225632d5,
0x669093e6,
0x58359326,
0xa30db736,
0xded8d84d,
0x7df330cb,
0xdd25b3a4,
0xd492fbb8,
0x819a4d24,
0x2c91b25b,
0x37464727,
0x0fffa9f8,
0xf41d234a,
0x1002ad6f,
0x02a7fe00,
0x7a66dc56,
0x40024250,
0xa3b65dfe,
0x15492f73,
0xcf780039,
0xbf62f1a4,
0x630afbb7,
0x4cce7a26,
0x07fd80c0,
0x46667914,
0x9930ca44,
0xbeee6e48,
0x61b0ca43,
0x632273bb,
0x1b240000,
0x3dc76dcc,
0x857bff4c,
0xc915a722,
0x00fc00c9,
0xf86e16ff,
0x480081ff,
0xb7fb9e2f,
0x0ffda7da,
0x96fc6d68,
0xe0123ec9,
0xb2027d27,
0xcf136ecc,
0x337e6625,
0x69104cd8,
0xbb6640d8,
0x423d92c8,
0x248e4db4,
0x7de7b739,
0x3a090686,
0x270ed892,
0x2ce2d127,
0x1ff7a57c,
0x2f0125f2,
0x27eb712d,
0x924efa93,
0xe494a4c7,
0x7322dfc3,
0x62573bfd,
0xe39cc58c,
0x7630e601,
0xca1008ea,
0xcc4395ac,
0x70aa9800,
0x2b1d2a29,
0x4456c513,
0xabb190e3,
0xab0400ff,
0x4a5a68e5,
0x26cbde92,
0x05b6d800,
0xb5aec9d9,
0x31b6dfe5,
0x7267da4b,
0xd92e27b6,
0x69911f29,
0xfffd1701,
0xfc9d3e03,
0x0005e549,
0x0193fe05,
0x2bfc0000,
0x40004a06,
0xfd0455b0,
0x07cde721,
0xf93001f5,
0x35f87a61,
0x09e347a1,
0x8394e800,
0x9403fce2,
0xe03a3c3c,
0x1d523dc6,
0xf6183fc0,
0xae2ca671,
0x742235bc,
0x5b6b49a7,
0x2b4bbe97,
0x91ac00f6,
0x02d552b4,
0x234b696d,
0x4b5b5a4b,
0x6ed3684b,
0x992d26d3,
0x6527696d,
0xefe07ff4,
0x6799c7c5,
0x1802e314,
0xc5187633,
0x57e8742f,
0xd11e7d4e,
0x96680bbc,
0x3d8dc73d,
0x386d87c6,
0x102c7743,
0x04a5f529,
0x00ee0181,
0x2e17abba,
0x9b79be00,
0x00fdfde4,
0x0ff82c49,
0xc9d8fd03,
0xfea21101,
0x1fd0bdf4,
0x5e9c1e7f,
0x047c3e4d,
0xe157c1c0,
0xa7fc065f,
0xf783a05b,
0x8780ae01,
0x178217c4,
0x087c3e5b,
0x2703c01e,
0xaf4993b0,
0x6a59238d,
0x4ed89292,
0xf826d806,
0x992d9326,
0x65b25a4d,
0x6a58d86a,
0x9f4f2c95,
0x6924d926,
0x4fd8087c,
0xdedfe447,
0xd80093a6,
0x04d7fe49,
0x34c0936c,
0x4b63692c,
0xdc1092db,
0x56a769a6,
0x85481f24,
0x0783c41e,
0xd83de0fc,
0x7d83c01f,
0xff0b5e1f,
0x7f83825f,
0x003fc61f,
0x815fb007,
0x7aebe18c,
0x7cff87e1,
0x018f7766,
0x7447dcee,
0x323000cc,
0x05c226c6,
0x027453cc,
0x7e76e668,
0x9cc6e664,
0x7671dcae,
0x9ad59966,
0xf3c2013f,
0x57f0ac28,
0x1ffccdfe,
0xdc947e3d,
0xcdfc0fe0,
0x7e07fe0b,
0x06f03e0f,
0x09abb1b4,
0x0f11f140,
0x01000720,
0xc7078fc5,
0xff5c7440,
0x30e073b8,
0x86fc01ff,
0x3d03ac1f,
0xf03473c7,
0x2f007dc5,
0xff0b8dc4,
0x9fff0e1d,
0x73b0d936,
0x56ccb2ee,
0x622bb364,
0xa7fe4123,
0x33364d26,
0x20cb65f2,
0x54c85937,
0xb1260ec9,
0xc1ca4c59,
0x747c09ed,
0x7c3b06f0,
0x8c0fc10f,
0xfafd2830,
0x8e8de07e,
0x524c7cb0,
0x95292874,
0xf0bcd70e,
0xb68cb85e,
0x66db4d61,
0x6caea48d,
0x4ede1b26,
0xb35ab259,
0xa6d1976c,
0xca67246d,
0x5e592ac9,
0x69a6c50e,
0x92799336,
0xff80c6fe,
0x4230e5fb,
0x00de1a00,
0x47fc81ea,
0x701d6b84,
0x063313f8,
0x558cff41,
0xea3320ac,
0x190802fd,
0x0672c78d,
0x8b3b7f11,
0xc1cc0139,
0x03315d99,
0xfdcededb,
0x85884bb6,
0x7731cd8a,
0x89c22315,
0x36633b9c,
0x37e40ffb,
0xcf20dcb8,
0x61237533,
0xbc2ccec6,
0x66ed0ec6,
0x652809c8,
0xdcfc88b3,
0x4999e437,
0x259e2dc8,
0x781405b3,
0x00000000,
0x00000000,
0x00000000,
0x00000000,
0x00000000,
0x00000000,
0x00000000,
0x00000000,
0x00000000,
0x00000000,
0x00000000,
0x00000000,
0x00000000,
0x00000000,
0x00000000,
0x00000000,
0x00000000,
0x00000000,
0x00000000,
0x00000000,
0x00000000,
0x00000000,
0x00000000,
0x00000000,
0x00000000,
0x00000000,
0x00000000,
0x00000000,
0x00000000,
0x00000000,
0x00000000,
0x00000000,
0x00000000,
0x00000000,
0x00000000,
0x00000000,
0x00000000,
0x00000000,
0x00000000,
0x00000000,
0x00000000,
0x00000000,
0x00000000,
0x00000000,
0x00000000,
0x00000000,
0x00000000,
0x00000000,
0x00000000,
0x00000000,
0x00000000,
0x00000000,
0x00000000,
0x00000000,
0x00000000,
0x00000000,
0x00000000,
0x00000000,
0x00000000,
0x00000000,
0x00000000,
0x00000000,
0x00000000,
0x00000000,
0x00000000,
0x00000000,
0x00000000,
0x00000000,
0x00000000,
0x00000000,
0x00000000,
0x00000000,
0x00000000,
0x00000000,
0x00000000,
0x00000000,
0x00000000,
0x00000000,
0x00000000,
0x00000000,
0x00000000,
0x00000000,
0x00000000,
0x00000000,
0x00000000,
0x00000000,
0x00000000,
0x00000000,
0x00000000,
0x00000000,
0x00000000,
0x00000000,
0x00000000,
0x00000000,
0x00000000,
0x00000000,
0x00000000,
0x00000000,
0x00000000,
0x00000000,
0x00000000,
0x00000000,
0x00000000,
0x00000000,
0x00000000,
0x00000000,
0x00000000,
0x00000000,
0x00000000,
0x00000000,
0x00000000,
0x00000000,
0x00000000,
0x00000000,
0x00000000,
0x00000000,
0x00000000,
0x00000000,
0x00000000,
0x00000000,
0x00000000,
0x00000000,
0x00000000,
0x00000000,
0x00000000,
0x00000000,
0x00000000,
0x00000000,
0x00000000,
0x00000000,
0x00000000,
0x00000000,
0x00000000,
0x00000000,
0x00000000,
0x00000000,
0x00000000,
0x00000000,
0x00000000,
0x00000000,
0x00000000,
0x00000000,
0x00000000,
0x00000000,
0x00000000,
0x00000000,
0x00000000,
0x00000000,
0x00000000,
0x00000000,
0x00000000,
0x00000000,
0x00000000,
0x00000000,
0x00000000,
0x00000000,
0x00000000,
0x00000000,
0x00000000,
0x00000000,
0x00000000,
0x00000000,
0x00000000,
0x00000000,
0x00000000,
0x00000000,
0x00000000,
0x00000000,
0x00000000,
0x00000000,
0x00000000,
0x00000000,
0x00000000,
0x00000000,
0x00000000,
0x00000000,
0x00000000,
0x00000000,
0x00000000,
0x00000000,
0x00000000,
0x00000000,
0x00000000,
0x00000000,
0x00000000,
0x00000000,
0x00000000,
0x00000000,
0x00000000,
0x00000000,
0x00000000,
0x00000000,
0x00000000,
0x00000000,
0x00000000,
0x00000000,
0x00000000,
0x00000000,
0x00000000,
0x00000000,
0x00000000,
0x00000000,
0x00000000,
0x00000000,
0x00000000,
0x00000000,
0x00000000,
0x00000000,
0x00000000,
0x00000000,
0x00000000,
0x00000000,
0x00000000,
0x00000000,
0x00000000,
0x00000000,
0x00000000,
0x00000000,
0x00000000,
0x00000000,
0x00000000,
0x00000000,
0x00000000,
0x00000000,
0x00000000,
0x00000000,
0x00000000,
0x00000000,
0x00000000,
0x00000000,
0x00000000,
0x00000000,
0x00000000,
0x00000000,
0x00000000,
0x00000000,
0x00000000,
0x00000000,
0x00000000,
0x00000000,
0x00000000,
0x00000000,
0x00000000,
0x00000000,
0x00000000,
0x00000000,
0x00000000,
0x00000000,
0x00000000,
0x00000000,
0x00000000,
0x00000000,
0x00000000,
0x00000000,
0x00000000,
0x00000000,
0x00000000,
0x00000000,
0x00000000,
0x00000000,
0x00000000,
0x00000000,
0x00000000,
0x00000000,
0x00000000,
0x00000000,
0x00000000,
0x00000000,
0x00000000,
0x00000000,
0x00000000,
0x00000000,
0x00000000,
0x00000000,
0x00000000,
0x00000000,
0x00000000,
0x00000000,
0x00000000,
0x00000000,
0x00000000,
0x00000000,
0x00000000,
0x00000000,
0x00000000,
0x00000000,
0x00000000,
0x00000000,
0x00000000,
0x00000000,
0x00000000,
0x00000000,
0x00000000,
0x00000000,
0x00000000,
0x00000000,
0x00000000,
0x00000000,
0x00000000,
0x00000000,
0x00000000,
0x00000000,
0x00000000,
0x00000000,
0x00000000,
0x00000000,
0x00000000,
0x00000000,
0x00000000,
0x00000000,
0x00000000,
0x00000000,
0x00000000,
0x00000000,
0x00000000,
0x00000000,
0x00000000,
0x00000000,
0x00000000,
0x00000000,
0x00000000,
0x00000000,
0x00000000,
0x00000000,
0x00000000,
0x00000000,
0x00000000,
0x00000000,
0x00000000,
0x00000000,
0x00000000,
0x00000000,
0x00000000,
0x00000000,
0x00000000,
0x00000000,
0x00000000,
0x00000000,
0x00000000,
0x00000000,
0x00000000,
0x00000000,
0x00000000,
0x00000000,
0x00000000,
0x00000000,
0x00000000,
0x00000000,
0x00000000,
0x00000000,
0x00000000,
0x00000000,
0x00000000,
0x00000000,
0x00000000,
0x00000000,
0x00000000,
0x00000000,
0x00000000,
0x00000000,
0x00000000,
0x00000000,
0x00000000,
0x00000000,
0x00000000,
0x00000000,
0x00000000,
0x00000000,
0x00000000,
0x00000000,
0x00000000,
0x00000000,
0x00000000,
0x00000000,
0x00000000,
0x00000000,
0x00000000,
0x00000000,
0x00000000,
0x00000000,
0x00000000,
0x00000000,
0x00000000,
0x00000000,
0x00000000,
0x00000000,
0x00000000,
0x00000000,
0x00000000,
0x00000000,
0x00000000,
0x00000000,
0x00000000,
0x00000000,
0x00000000,
0x00000000,
0x00000000,
0x00000000,
0x00000000,
0x00000000,
0x00000000,
0x00000000,
0x00000000,
0x00000000,
0x00000000,
0x00000000,
0x00000000,
0x00000000,
0x00000000,
0x00000000,
0x00000000,
0x00000000,
0x00000000,
0x00000000,
0x00000000,
0x00000000,
0x00000000,
0x00000000,
0x00000000,
0x00000000,
0x00000000,
0x00000000,
0x00000000,
0x00000000,
0x00000000,
0x00000000,
0x00000000,
0x00000000,
0x00000000,
0x00000000,
0x00000000,
0x00000000,
0x00000000,
0x00000000,
0x00000000,
0x00000000,
0x00000000,
0x00000000,
0x00000000,
0x00000000,
0x00000000,
0x00000000,
0x00000000,
0x00000000,
0x00000000,
0x00000000,
0x00000000,
0x00000000,
0x00000000,
0x00000000,
0x00000000,
0x00000000,
0x00000000,
0x00000000,
0x00000000,
0x00000000,
0x00000000,
0x00000000,
0x00000000,
0x00000000,
0x00000000,
0x00000000,
0x00000000,
0x00000000,
0x00000000,
0x00000000,
0x00000000,
0x00000000,
0x00000000,
0x00000000,
0x00000000,
0x00000000,
0x00000000,
0x00000000,
0x00000000,
0x00000000,
0x00000000,
0x00000000,
0x00000000,
0x00000000,
0x00000000,
0x00000000,
0x00000000,
0x00000000,
0x00000000,
0x00000000,
0x00000000,
0x00000000,
0x00000000,
0x00000000,
0x00000000,
0x00000000,
0x00000000,
0x00000000,
0x00000000,
0x00000000,
0x00000000,
0x00000000,
0x00000000,
0x00000000,
0x00000000,
0x00000000,
0x00000000,
0x00000000,
0x00000000,
0x00000000,
0x00000000,
0x00000000,
0x00000000,
0x00000000,
0x00000000,
0x00000000,
0x00000000,
0x00000000,
0x00000000,
0x00000000,
0x00000000,
0x00000000,
0x00000000,
0x00000000,
0x00000000,
0x00000000,
0x00000000,
0x00000000,
0x00000000,
0x00000000,
0x00000000,
0x00000000,
0x00000000,
0x00000000,
0x00000000,
0x00000000,
0x00000000,
0x00000000,
0x00000000,
0x00000000,
0x00000000,
0x00000000,
0x00000000,
0x00000000,
0x00000000,
0x00000000,
0x00000000,
0x00000000,
0x00000000,
0x00000000,
0x00000000,
0x00000000,
0x00000000,
0x00000000,
0x00000000,
0x00000000,
0x00000000,
0x00000000,
0x00000000,
0x00000000,
0x00000000,
0x00000000,
0x00000000,
0x00000000,
0x00000000,
0x00000000,
0x00000000,
0x00000000,
0x00000000,
0x00000000,
0x00000000,
0x00000000,
0x00000000,
0x00000000,
0x00000000,
0x00000000,
0x00000000,
0x00000000,
0x00000000,
0x00000000,
0x00000000,
0x00000000,
0x00000000,
0x00000000,
0x00000000,
0x00000000,
0x00000000,
0x00000000,
0x00000000,
0x00000000,
0x00000000,
0x00000000,
0x00000000,
0x00000000,
0x00000000,
0x00000000,
0x00000000,
0x00000000,
0x00000000,
0x00000000,
0x00000000,
0x00000000,
0x00000000,
0x00000000,
0x00000000,
0x00000000,
0x00000000,
0x00000000,
0x00000000,
0x00000000,
0x00000000,
0x00000000,
0x00000000,
0x00000000,
0x00000000,
0x00000000,
0x00000000,
0x00000000,
0x00000000,
0x00000000,
0x00000000,
0x00000000,
0x00000000,
0x00000000,
0x00000000,
0x00000000,
0x00000000,
0x00000000,
0x00000000,
0x00000000,
0x00000000,
0x00000000,
0x00000000,
0x00000000,
0x00000000,
0x00000000,
0x00000000,
0x00000000,
0x00000000,
0x00000000,
0x00000000,
0x00000000,
0x00000000,
0x00000000,
0x00000000,
0x00000000,
0x00000000,
0x00000000,
0x00000000,
0x00000000,
0x00000000,
0x00000000,
0x00000000,
0x00000000,
0x00000000,
0x00000000,
0x00000000,
0x00000000,
0x00000000,
0x00000000,
0x00000000,
0x00000000,
0x00000000,
0x00000000,
0x00000000,
0x00000000,
0x00000000,
0x00000000,
0x00000000,
0x00000000,
0x00000000,
0x00000000,
0x00000000,
0x00000000,
0x00000000,
0x00000000,
0x00000000,
0x00000000,
0x00000000,
0x00000000,
0x00000000,
0x00000000,
0x00000000,
0x00000000,
0x00000000,
0x00000000,
0x00000000,
0x00000000,
0x00000000,
0x00000000,
0x00000000,
0x00000000,
0x00000000,
0x00000000,
0x00000000,
0x00000000,
0x00000000,
0x00000000,
0x00000000,
0x00000000,
0x00000000,
0x00000000,
0x00000000,
0x00000000,
0x00000000,
0x00000000,
0x00000000,
0x00000000,
0x00000000,
0x00000000,
0x00000000,
0x00000000,
0x00000000,
0x00000000,
0x00000000,
0x00000000,
0x00000000,
0x00000000,
0x00000000,
0x00000000,
0x00000000,
0x00000000,
0x00000000,
0x00000000,
0x00000000,
0x00000000,
0x00000000,
0x00000000,
0x00000000,
0x00000000,
0x00000000,
0x00000000,
0x00000000,
0x00000000,
0x00000000,
0x00000000,
0x00000000,
0x00000000,
0x00000000,
0x00000000,
0x00000000,
0x00000000,
0x00000000,
0x00000000,
0x00000000,
0x00000000,
0x00000000,
0x00000000,
0x00000000,
0x00000000,
0x00000000,
0x00000000,
0x00000000,
0x00000000,
0x00000000,
0x00000000,
0x00000000,
0x00000000,
0x00000000,
0x00000000,
0x00000000,
0x00000000,
0x00000000,
0x00000000,
0x00000000,
0x00000000,
0x00000000,
0x00000000,
0x00000000,
0x00000000,
0x00000000,
0x00000000,
0x00000000,
0x00000000,
0x00000000,
0x00000000,
0x00000000,
0x00000000,
0x00000000,
0x00000000,
0x00000000,
0x00000000,
0x00000000,
0x00000000,
0x00000000,
0x00000000,
0x00000000,
0x00000000,
0x00000000,
0x00000000,
0x00000000,
0x00000000,
0x00000000,
0x00000000,
0x00000000,
0x00000000,
0x00000000,
0x00000000,
0x00000000,
0x00000000,
0x00000000,
0x00000000,
0x00000000,
0x00000000,
0x00000000,
0x00000000,
0x00000000,
0x00000000,
0x00000000,
0x00000000,
0x00000000,
0x00000000,
0x00000000,
0x00000000,
0x00000000,
0x00000000,
0x00000000,
0x00000000,
0x00000000,
0x00000000,
0x00000000,
0x00000000,
0x00000000,
0x00000000,
0x00000000,
0x00000000,
0x00000000,
0x00000000,
0x00000000,
0x00000000,
0x00000000,
0x00000000,
0x00000000,
0x00000000,
0x00000000,
0x00000000,
0x00000000,
0x00000000,
0x00000000,
0x00000000,
0x00000000,
0x00000000,
0x00000000,
0x00000000,
0x00000000,
0x00000000,
0x00000000,
0x00000000,
0x00000000,
0x00000000,
0x00000000,
0x00000000,
0x00000000,
0x00000000,
0x00000000,
0x00000000,
0x00000000,
0x00000000,
0x00000000,
0x00000000,
0x00000000,
0x00000000,
0x00000000,
0x00000000,
0x00000000,
0x00000000,
0x00000000,
0x00000000,
0x00000000,
0x00000000,
0x00000000,
0x00000000,
0x00000000,
0x00000000,
0x00000000,
0x00000000,
0x00000000,
0x00000000,
0x00000000,
0x00000000,
0x00000000,
0x00000000,
0x00000000,
0x00000000,
0x00000000,
0x00000000,
0x00000000,
0x00000000,
0x00000000,
0x00000000,
0x00000000,
0x00000000,
0x00000000,
0x00000000,
0x00000000,
0x00000000,
0x00000000,
0x00000000,
0x00000000,
0x00000000,
0x00000000,
0x00000000,
0x00000000,
0x00000000,
0x00000000,
0x00000000,
0x00000000,
0x00000000,
0x00000000,
0x00000000,
0x00000000,
0x00000000,
0x00000000,
0x00000000,
0x00000000,
0x00000000,
0x00000000,
0x00000000,
0x00000000,
0x00000000,
0x00000000,
0x00000000,
0x00000000,
0x00000000,
0x00000000,
0x00000000,
0x00000000,
0x00000000,
0x00000000,
0x00000000,
0x00000000,
0x00000000,
0x00000000,
0x00000000,
0x00000000,
0x00000000,
0x00000000,
0x00000000,
0x00000000,
0x00000000,
0x00000000,
0x00000000,
0x00000000,
0x00000000,
0x00000000,
0x00000000,
0x00000000,
0x00000000,
0x00000000,
0x00000000,
0x00000000,
0x00000000,
0x00000000,
0x00000000,
0x00000000,
0x00000000,
0x00000000,
0x00000000,
0x00000000,
0x00000000,
0x00000000,
0x00000000,
0x00000000,
0x00000000,
0x00000000,
0x00000000,
0x00000000,
0x00000000,
0x00000000,
0x00000000,
0x00000000,
0x00000000,
0x00000000,
0x00000000,
0x00000000,
0x00000000,
0x00000000,
0x00000000,
0x00000000,
0x00000000,
0x00000000,
0x00000000,
0x00000000,
0x00000000,
0x00000000,
0x00000000,
0x00000000,
0x00000000,
0x00000000,
0x00000000,
0x00000000,
0x00000000,
0x00000000,
0x00000000,
0x00000000,
0x00000000,
0x00000000,
0x00000000,
0x00000000,
0x00000000,
0x00000000,
0x00000000,
0x00000000,
0x00000000,
0x00000000,
0x00000000,
0x00000000,
0x00000000,
0x00000000,
0x00000000,
0x00000000,
0x00000000,
0x00000000,
0x00000000,
0x00000000,
0x00000000,
0x00000000,
0x00000000,
0x00000000,
0x00000000,
0x00000000,
0x00000000,
0x00000000,
0x00000000,
0x00000000,
0x00000000,
0x00000000,
0x00000000,
0x00000000,
0x00000000,
0x00000000,
0x00000000,
0x00000000,
0x00000000,
0x00000000,
0x00000000,
0x00000000,
0x00000000,
0x00000000,
0x00000000,
0x00000000,
0x00000000,
0x00000000,
0x00000000,
0x00000000,
0x00000000,
0x00000000,
0x00000000,
0x00000000,
0x00000000,
0x00000000,
0x00000000,
0x00000000,
0x00000000,
0x00000000,
0x00000000,
0x00000000,
0x00000000,
0x00000000,
0x00000000,
0x00000000,
0x00000000,
0x00000000,
0x00000000,
0x00000000,
0x00000000,
0x00000000,
0x00000000,
0x00000000,
0x00000000,
0x00000000,
0x00000000,
0x00000000,
0x00000000,
0x00000000,
0x00000000,
0x00000000,
0x00000000,
0x00000000,
0x00000000,
0x00000000,
0x00000000,
0x00000000,
0x00000000,
0x00000000,
0x00000000,
0x00000000,
0x00000000,
0x00000000,
0x00000000,
0x00000000,
0x00000000,
0x00000000,
0x00000000,
0x00000000,
0x00000000,
0x00000000,
0x00000000,
0x00000000,
0x00000000,
0x00000000,
0x00000000,
0x00000000,
0x00000000,
0x00000000,
0x00000000,
0x00000000,
0x00000000,
0x00000000,
0x00000000,
0x00000000,
0x00000000,
0x00000000,
0x00000000,
0x00000000,
0x00000000,
0x00000000,
0x00000000,
0x00000000,
0x00000000,
0x00000000,
0x00000000,
0x00000000,
0x00000000,
0x00000000,
0x00000000,
0x00000000,
0x00000000,
0x00000000,
0x00000000,
0x00000000,
0x00000000,
0x00000000,
0x00000000,
0x00000000,
0x00000000,
0x00000000,
0x00000000,
0x00000000,
0x00000000,
0x00000000,
0x00000000,
0x00000000,
0x00000000,
0x00000000,
0x00000000,
0x00000000,
0x00000000,
0x00000000,
0x00000000,
0x00000000,
0x00000000,
0x00000000,
0x00000000,
0x00000000,
0x00000000,
0x00000000,
0x00000000,
0x00000000,
0x00000000,
0x00000000,
0x00000000,
0x00000000,
0x00000000,
0x00000000,
0x00000000,
0x00000000,
0x00000000,
0x00000000,
0x00000000,
0x00000000,
0x00000000,
0x00000000,
0x00000000,
0x00540073,
0x0050ff48,
0x007e006e,
0x0031007c,
0x0065004f,
0xff5600c3,
0x0069007c,
0x006b008d,
0xff5b0072,
0x0107004d,
0x00970061,
0x00490047,
0x004cff67,
0x00920051,
0x009200a3,
0x0056007f,
0x00460050,
0x006600c3,
0x00540070,
0x00600057,
0x004a0052,
0x005c0050,
0x001d0081,
0x005a006a,
0x00850062,
0x0057008c,
0x00a9005f,
0x0083ffbe,
0x005d005b,
0x0070004c,
0x010c00a0,
0xff7f0049,
0xcc671d9e,
0xecaec313,
0x7ee68fb6,
0x25dcddb6,
0x1059f5be,
0xa0182d64,
0x5cc99aea,
0xf631ad94,
0x1e8678f2,
0x652f21c1,
0xe7de37c5,
0xb6164a6b,
0x386e8dd9,
0x55bcde27,
0xf53fac71,
0xeac71ceb,
0xe16f061c,
0xdec90f3b,
0x2c45f8b9,
0x8d66c90e,
0xf90e0701,
0x21cdb21c,
0x3d6b9101,
0xfaef91f8,
0xc60f961e,
0x423c2d63,
0x79e278f2,
0xde35e9f9,
0x65a9e1eb,
0x79d0bf5c,
0xd3ff3c33,
0xfd23df44,
0xdfee7ef2,
0x7f20b7b7,
0xb10309ce,
0x01efeed9,
0x202dbfbf,
0x58efee17,
0xf9fc36d9,
0xbf300166,
0xff1802c0,
0x316e4bdf,
0x4c9168fc,
0x11fe2c98,
0x3be1291b,
0xa365343f,
0x07f03690,
0xcfd2490f,
0xc3e1712b,
0x4e020609,
0x42de6199,
0xcaffef86,
0xf881ad20,
0xfddb6d14,
0x99cbfe7f,
0xdcd37730,
0xc8e3fd3b,
0x036d7ec4,
0xced82d93,
0xac6e1233,
0x05eeff4b,
0xd8068290,
0x07cffdfb,
0xd973e1e0,
0xa573fc90,
0x87e0a820,
0xdfcbf1f7,
0x9160d04b,
0x820c97f0,
0x85003edf,
0xf05c5fa3,
0x4303e1ef,
0xc627fc27,
0xfc037fbe,
0x07fc264b,
0x85957e20,
0x239801e6,
0x8240019f,
0xb2dc6db2,
0xb04a48b7,
0xb4816d26,
0x4fe76934,
0x99fdb7d9,
0xb7f39920,
0x260581b6,
0x36db6d36,
0xa7347d36,
0x17f45226,
0xf9907699,
0x169341bf,
0xf7c86108,
0xc719d900,
0xb7e1313d,
0x0000b6d9,
0xbf28be17,
0x2b686ecf,
0xf01b4859,
0x70fc93fe,
0x59649627,
0xc6966a0b,
0x07ff4a07,
0xcce04bfc,
0xc890115a,
0x089a3fa7,
0xc0bcd037,
0xd80201ec,
0x5fb0013e,
0xffb4a580,
0xd93c81a9,
0xf8240044,
0x002c8800,
0x269369fc,
0x5bfc41b9,
0xda593bfe,
0xdb58368b,
0x909d980b,
0x3dbdb724,
0xb1fc4486,
0xb1274cc6,
0x2127fcc6,
0x325e113e,
0xb2122136,
0xbd654810,
0x829c0f8e,
0xb8927ff3,
0x7f00b6c0,
0xbb64b724,
0x44c74936,
0xd08009fe,
0xa07e51d7,
0x041c7fc1,
0xccbec804,
0xb122c21e,
0x62779b64,
0x49369a90,
0x5b2d1bc9,
0xb09f65b5,
0xa793e9bf,
0xfcb09f26,
0xbcf447d8,
0x9fa6e984,
0x4b264d64,
0xa020020c,
0xf86ce086,
0xbf691336,
0xbed3fa66,
0xa4d262bf,
0xb1ac48b4,
0xf48800db,
0x2367a8ba,
0xc8036b47,
0x5c2491e4,
0x3efc121e,
0x083c760b,
0x78047e0b,
0xa780027f,
0x79e49a3b,
0x6e10975e,
0xf92ebe0b,
0xf9363e0b,
0xff1c01ba,
0xddddb349,
0x5fcf8000,
0x9fedb7ff,
0x000457fa,
0xfb6d9327,
0x053d03ff,
0xfffdfe13,
0x1a83fa0e,
0x332f747b,
0x04a0277a,
0x5ef80dff,
0x7cfd6a5b,
0x86666dff,
0x88db77ff,
0xf7fc6f3f,
0x8100de3f,
0xf7f97f27,
0xc026ff1f,
0x8fdde330,
0x35c24834,
0x34d36b24,
0xa691e8c9,
0x38110e9b,
0x0b2749b6,
0x97db47b4,
0xb2da6936,
0xf6746e27,
0xbef86dc2,
0xda0791db,
0x046e1790,
0xb6149e6c,
0x78ffd749,
0x5eaf6dcb,
0x848fe92b,
0x1acb68c0,
0x46c121da,
0x8f59a107,
0xcf6371b8,
0xc3406c59,
0xbcd04fcc,
0x2891bfa3,
0x0293c1c1,
0xa7a54737,
0xa7d072b9,
0xe6e38307,
0xe46ceccd,
0x49eee13f,
0xf8918004,
0x88cfc9ed,
0xa05d77f6,
0x8a26e8a6,
0x31307e0d,
0x9c6e67c9,
0x7b00ed22,
0x573ff636,
0xff039001,
0xe493bc24,
0x032300c8,
0xc91abe42,
0x3725b1c8,
0x4f0349cd,
0x01baf9ff,
0x7907c149,
0x7c340e81,
0xf05fdf19,
0x5cdff6bf,
0xf9f40dd0,
0x381c9807,
0x02173bfe,
0xd7fb999f,
0xf80a0107,
0x087ff837,
0x82c3e3ff,
0x43e0264b,
0x9884b126,
0xd1240f66,
0x03de8406,
0xc92c9ed8,
0x6e75012b,
0x3b219725,
0x7096c0dc,
0xb8fd1ef0,
0x27df73e4,
0x08882048,
0x2705b6dc,
0x36f7f235,
0x2123dd38,
0x285f8366,
0x6693c3e8,
0x4393affb,
0xb8b7e9a0,
0x6e612564,
0x311dbc4c,
0xd7218e3f,
0x4c9c7e3f,
0xd89fb007,
0x3d206e4c,
0xb8356649,
0x407c3d20,
0x37ff67d8,
0x649f9a9b,
0xf3ef3e90,
0x97ead802,
0xc7830cc1,
0x41bc39f1,
0x2e21a9f5,
0x843e5800,
0xa485f2d8,
0xe53a4de7,
0x04ca91d9,
0x2690dbe6,
0x21ff4907,
0xd92cfe07,
0xde644c4b,
0x7d841c4d,
0x0e90bd07,
0x3c98be6d,
0x3e65b3a5,
0x35b26c16,
0x5b6d62b7,
0x201e649f,
0xa6210554,
0x823f4164,
0x46c180dc,
0xb9fdbfb2,
0xc7005320,
0x05883b36,
0x23c39381,
0x3127f604,
0x4f48fe00,
0x144381ff,
0x2c03b6ff,
0xffdbefb7,
0x013401bb,
0xf7f3fe04,
0xf803fe49,
0xfe803efa,
0x8ea72b99,
0x81fb508e,
0x02059337,
0x4492ad9c,
0xcad0e40c,
0x83fc9226,
0x8b69783e,
0xa92e7f5e,
0x37010298,
0xbcec7e3f,
0x660db9d8,
0xc2e370c8,
0xf6cce207,
0x58ddf037,
0xf2c07fde,
0xc40b6f6b,
0xff65e800,
0x3ce1b1c0,
0xc347b16c,
0x8192212d,
0xc42c97dd,
0xcf3309c4,
0xbf0183c0,
0x6cbf824d,
0x479bd1e2,
0x4f65b3cc,
0x4f2592c7,
0xcf7c3a26,
0xfb01a9b8,
0x44037f7d,
0x80007610,
0xdff2cf78,
0x07ffb740,
0x06cc01ff,
0xa2477ffb,
0x036e8000,
0x3e04004f,
0xc74000d7,
0xd6c40003,
0x00ff6ded,
0x0d3361ff,
0xfe988a06,
0x25e5b3c9,
0x3f6d6fc0,
0xa802c000,
0x6f03f007,
0xde41e924,
0xdf91c0e0,
0x3386b20f,
0x3c5f4837,
0x909c1f27,
0x202c322f,
0xd2d920d9,
0x0481a3b0,
0x00d66e2f,
0x87120ebf,
0x4d1f1ec6,
0x72e188d8,
0xb7d84de0,
0x73930c5b,
0x0b1099ec,
0xb7e18924,
0xa6739ee9,
0xbffc04fe,
0x282fef25,
0xf9fd8b98,
0xbf8fd90a,
0xff6210cb,
0x7c847dc1,
0xf7edbbff,
0x3d0e1f0f,
0x40fe41af,
0x0707830f,
0x05100230,
0xcf416a26,
0x6f309727,
0xb8a009c4,
0x7edc8848,
0x87039001,
0x80df81f6,
0x682bb9d6,
0x293cdc3e,
0x0bd8c449,
0x99643603,
0x936dfed8,
0xdc83c824,
0xb2f377ff,
0x8917649b,
0x4755fdc8,
0xdb2296c2,
0x436c9317,
0x7a4e7e0b,
0xb6c3003b,
0x2690fe27,
0x48e41a1f,
0x48040fa4,
0x0a4e4a01,
0x887f9fc0,
0x5a4c000f,
0x275c020f,
0x8cbe7624,
0x040bd233,
0xbd3b4133,
0x273120d0,
0x7d2278cf,
0x352c960f,
0x57c4d920,
0x1b009106,
0x391fb107,
0xa32c93b4,
0x01fe4849,
0x4fa3d348,
0xc1259337,
0x46002732,
0x627c3e41,
0x4692487b,
0x09344907,
0x592db648,
0xb49c3e00,
0x03fc77bf,
0x000915ff,
0x40977f00,
0x86e36830,
0x38e86e80,
0xf8ffff5e,
0xdad8ff3e,
0xf6e0a1ff,
0x8005b73e,
0x507c48fe,
0xfff203fc,
0x93f82048,
0xcb61b536,
0xfb694fb7,
0xfa6c3ffb,
0x95fcf1f9,
0x47ff9a19,
0x797c8dd8,
0x000003df,
0x31ec0210,
0x0e03f3ef,
0x710248c8,
0x048064c8,
0xe20bf126,
0x3ecdda43,
0xa7ff00ce,
0x0b277dc1,
0xdfe31adf,
0xa4fc960c,
0x489a2e3c,
0xf6ef69d7,
0x17677133,
0xf84591bf,
0xb16f9f21,
0xcf047ffb,
0xfcd8b60c,
0x24b5a5a6,
0x87e1e9c0,
0xb7da0cd6,
0x031c4ff0,
0x00dbfe1f,
0x079bb323,
0x4d361aff,
0xa6ff20df,
0x87dbfe3f,
0xe0606c3f,
0xc9644238,
0xee706c3a,
0x469c3108,
0x3f2fb1b7,
0x7258cd8f,
0x616597e6,
0x032f30b4,
0xe39c1498,
0x47901780,
0xe597dc07,
0x3b6cb4df,
0xba6c3037,
0xf402cc1b,
0xa00c2ca2,
0xfb0292ff,
0xf01fb1d8,
0xe705660b,
0xfd9ff040,
0x58d3f9ff,
0x34f037bc,
0xff9f723f,
0x04d7682e,
0xc76078b4,
0xc6d93df8,
0x479c820b,
0xd1008001,
0x31ffc1fb,
0xb8993637,
0xb34004c8,
0x008b686f,
0xffdeceda,
0xf86e3dc8,
0x01bbe8e4,
0x59348ffe,
0x31109dbb,
0x04924ea7,
0x912849b5,
0x7b64da48,
0x61b59d6b,
0x99160926,
0xe367eda6,
0x2490cda4,
0x27804c05,
0x303403bf,
0x476783c9,
0xfedf080b,
0xc7fdffd9,
0x0efd7726,
0xfff26090,
0xe2dc76be,
0xc2837cff,
0xf8434a00,
0xdc9577ff,
0xd9fe7e00,
0xc0a66c06,
0x393c6e03,
0x3cdff025,
0x0fa397cb,
0xefe26049,
0xafa24fd0,
0xc7bbe360,
0xe6a6c84e,
0x383fd3ad,
0xd7fb0032,
0x2c00ffc1,
0x07facc00,
0x209378f8,
0x91201c04,
0xe90049f9,
0x915803cc,
0xc7ffe1fc,
0xf40000d1,
0xfa01b183,
0x9096e848,
0x9e19affe,
0x676d50c8,
0x2ca41a67,
0x202812d9,
0x6ffd7c49,
0x912529f7,
0x78213ed4,
0x04901fa0,
0xdc176cfb,
0x1a936adb,
0x87924d20,
0x5e87ee0b,
0xa691f9b7,
0x06ff6f25,
0x05a50ba8,
0x24c36fb0,
0xa70412d0,
0x4e2537f6,
0xc64cfe9e,
0x0267481b,
0x08fd6e99,
0xc13fd80c,
0xb87f73b6,
0x07c06ca7,
0xcf0f11fc,
0x7c813cbc,
0xb36ffbb2,
0x9af13609,
0xa6cd64b2,
0xd459f9b4,
0xf92700b6,
0x96c360b0,
0x92c36130,
0x069becb2,
0x9ad974be,
0x637f69f8,
0x049e8120,
0x5cdea3cc,
0x385c32c9,
0x7b6fcbcb,
0x2c9c9f20,
0x641c3d33,
0xdb699fc9,
0x55bf191f,
0x7805241b,
0xc72b49d8,
0x83641df9,
0xb01c1e7f,
0x403c9d08,
0xbb3be807,
0xb4067000,
0x29279048,
0x53005e0b,
0x481e924b,
0xfc0d081b,
0xbb6e4196,
0x09b8fe4b,
0x42e349de,
0xd7c1125f,
0x59e7b049,
0xf930977f,
0xffc1b22e,
0xfffe0617,
0xf8937ff9,
0x06820180,
0xff0f0612,
0xe41ff200,
0x33ecbfbb,
0x0ed176ff,
0x18fbffff,
0x47c0cf02,
0xf81fbe04,
0x437ff1bf,
0x84018eff,
0x689c866f,
0xbffff7a0,
0xd0000200,
0x849001bf,
0xfe101601,
0xf8040002,
0x374055fb,
0x24d93336,
0x40a62e3e,
0x3cc87fd9,
0x86e09237,
0x90ebf826,
0xb9dac059,
0x3e4d26d9,
0x98fff866,
0xa11f6404,
0x0b78901f,
0xf6d0de3f,
0x6932f320,
0xb1ec99c7,
0xf109bbc9,
0x681f565a,
0x48a36a4f,
0x2c2097cf,
0x1d93d06c,
0xc1fddaa0,
0x1cef4b34,
0x0465b327,
0x7801ce0b,
0x8003f64f,
0x068449ff,
0x2b75be59,
0xc11f83b7,
0x18d27e5a,
0xbfff91d8,
0xd609f185,
0xc6034898,
0x9fff83e8,
0x28949e39,
0x0fc3f1c5,
0x4781da3f,
0x27c1a1e0,
0xc697837f,
0x58100135,
0x8007ee24,
0x2727f7b6,
0x8f9a01c8,
0xc7f390bc,
0x2ed3fcc9,
0x9ed26dff,
0x836dc4c9,
0x06f178cd,
0x08676e1e,
0x336e6e28,
0x6499a417,
0x45bdfe94,
0xfa4085ac,
0xb8c0b1e7,
0x65fff45f,
0xb1164c48,
0x48812fe8,
0x03f80002,
0xfa4afbdf,
0x4801fbfa,
0xc12e4c00,
0x3ffff26d,
0x2e02db00,
0xf9140016,
0xd5b52c04,
0x38108028,
0xd11ff5f3,
0x46c0f930,
0x8fe581b7,
0x879700c1,
0x1fb01e4f,
0x26f7ff7f,
0xc7024f89,
0x5f17baf0,
0x866791b0,
0xc01ff180,
0x07f77d58,
0xd203fc00,
0xfa454000,
0xfbede604,
0xd0110197,
0x1019fe02,
0x07effe03,
0x38311201,
0x17fbfcd8,
0x6cd83bd9,
0xdc1df7ff,
0x826733b6,
0x00027df7,
0xf8806e27,
0xbdf3427f,
0xc0fc8303,
0xdd07ef17,
0xb3c581ff,
0x23102cc9,
0x80b8b4fa,
0xc1a46db8,
0x805c9e48,
0x79679617,
0x61dbd04b,
0xc7037a24,
0x07cd2c34,
0x20c89249,
0x97e3fef8,
0x432a81ff,
0xc8a301bd,
0xdfffd012,
0xfffd25ff,
0xe5007ebd,
0x9603ffe1,
0x3313dedc,
0xc3fe5fe0,
0x71939cdb,
0x79248d97,
0x60e267b0,
0x341d2444,
0xa4235ade,
0xda9dd8dc,
0x05ec9e26,
0x7378de6b,
0x0695d921,
0xbff9f2cf,
0x26919307,
0xb7e5356d,
0xbbfa0da4,
0xe82cec24,
0x454e05fd,
0xfc9ab65f,
0x34a34017,
0x7c99e1a0,
0x46838081,
0xda22ee4a,
0xd6ef7a4c,
0x4f05bfba,
0x28003e28,
0x84e94dc0,
0xffe3fe18,
0xfbfd64f1,
0xe804f65b,
0x237592f6,
0xeec138d8,
0xff23f93d,
0x30256ce6,
0xa13267c5,
0x61b5bace,
0x4724cccc,
0x4130c8db,
0x69d1b6c2,
0xfc17c9bc,
0x482e36c9,
0x105a8fd0,
0x9f8cc90b,
0x1a81000b,
0x01fe5e3e,
0x068417b4,
0x5edb3734,
0xd0f0360b,
0xc8183ff5,
0xd0996c84,
0x9ac3f6c9,
0xa0c26cb6,
0x9eba6e7c,
0xdedbf1ce,
0xb30549af,
0xb483ec40,
0xa2992cdb,
0x86d24934,
0xffeb802f,
0x47f801e4,
0x86fc0033,
0xfb7def87,
0x40188e1b,
0x0400265f,
0x983c7ee6,
0xd83d89c0,
0x01c83fe4,
0x8b3d9e56,
0xd6db244f,
0x95fdb6ff,
0x65050fd0,
0x7b6cdfc0,
0xb13defe4,
0xdffd6c4f,
0x00fe6692,
0xb127a407,
0xb7646c9f,
0xe5c1d236,
0x8e2f0458,
0x504cbcd8,
0xc338e83f,
0x3b327d0b,
0x06f9bfc9,
0x30e36c06,
0x0a935398,
0xa1664cee,
0xc496df9d,
0x8eef9fbf,
0xb41b6427,
0x3cff6ef7,
0x36fec6a7,
0xf6204426,
0x234a0c02,
0x3dd87c16,
0x4c984717,
0xb03c9b33,
0x9993b23f,
0x3891ec6d,
0x73253736,
0x606ffd66,
0x2693e84f,
0x43b264ce,
0xb3bd6cc1,
0x20409a6d,
0xfb3e4910,
0x424b68da,
0x37c36937,
0xd4804bd1,
0x06cc9b47,
0x3fc24d24,
0xa6d768ed,
0x84db6817,
0x2ed27149,
0x370365b0,
0xbe93fd37,
0xc7e1ccff,
0xa120e380,
0xa8d98a57,
0x86d268a7,
0xc680b67b,
0x26986db0,
0xa7d3c01b,
0xfff3d1dc,
0x069013a6,
0x03034afb,
0xc1f7bebf,
0x7fad0c07,
0x07002e80,
0xd7f77de0,
0x308200c8,
0x00bdd600,
0xda7c0928,
0x95ffe439,
0xdbe71288,
0x5bd04e3b,
0xb7807011,
0xc8ee363b,
0xceda661e,
0xd8ee471b,
0xc24167f0,
0x324f91c3,
0x28cd304b,
0xda66b23c,
0xbc059607,
0x0301b64f,
0xc725bd49,
0x00f7f8a0,
0x38dc4ec9,
0x20db4127,
0xb89db6c4,
0x182e0709,
0x3d3a5f65,
0x871f83ed,
0xdeded107,
0xdda00b79,
0x2865b74d,
0x2e5f47e5,
0x2db7cbd1,
0xbf2e0b24,
0xba1be0c9,
0x4a9bb448,
0x2026b5e9,
0xb8b392d4,
0x066ec46c,
0x37999141,
0x2ff393f9,
0x4dab9abf,
0x7e5b1264,
0x476211b4,
0x40082cb6,
0x90386d88,
0xb7649e48,
0xb701901b,
0x587fe806,
0xc0fa887f,
0xbe6f9bc2,
0x2cdb485c,
0x4f3e5e01,
0xd80c9e99,
0x74fd16c7,
0xbcf241c7,
0xcf03fff9,
0x0ebc39e0,
0xb85b7dfd,
0xfefe930b,
0xf8cf81c1,
0xc15a4dd8,
0xa170b3e7,
0x61fdb7ec,
0xdda241d9,
0x2703be3c,
0xa7a56273,
0xa2ce08fc,
0x8ac86c64,
0x36206eec,
0x87036e0f,
0x007ad607,
0x089a6e5e,
0x3c0387f0,
0xf8837ff7,
0xe7102226,
0x1fff760f,
0x38103730,
0x07000007,
0x2490bfe0,
0xc4fe3604,
0x0225812e,
0x05d8efa3,
0xd5601a00,
0x03740fdf,
0xfdfe97f0,
0x38f60836,
0x03df133f,
0xfec00c4f,
0xffc04c05,
0x382fb40e,
0x4e941edf,
0x04808806,
0x6011ec00,
0xdfea0c03,
0xf7f0de04,
0x7d22de0f,
0x3b024f7f,
0xd5c9f4af,
0xa43c66b7,
0xd2e0904b,
0xd04848de,
0xded80018,
0xdbf13037,
0x90399c77,
0xc163f1e8,
0x91f805f6,
0x78fd3d97,
0xdf2ddfbf,
0x041c0a3f,
0xb17077d0,
0xe1007ff3,
0x91782726,
0x38fc1c03,
0xf88c79db,
0xf83c5e3a,
0xb37ff5e8,
0x2593684d,
0xef6efdb0,
0x086dbe40,
0x48fe0047,
0xd9020879,
0xd82cb709,
0x192e6d60,
0xffd8be01,
0xb4e76324,
0x5e9013b3,
0x8ce249b6,
0xb6de5f35,
0x04103000,
0x49044201,
0x2d2f41db,
0xfeda404f,
0x0db46df9,
0x27de89c0,
0x45f38907,
0x236e084a,
0xbf968df7,
0x7bfc3ffd,
0x401fcfc4,
0x712fa006,
0x6fd289e0,
0x340bc006,
0xb93fc1c9,
0xd8df8e00,
0xf89c6f04,
0xf92d1e3f,
0xce1f408d,
0x28108600,
0x007c013f,
0x985c05c3,
0xf85c0a27,
0x8491b7ff,
0xde816e1b,
0x4ae00c5b,
0xc16512de,
0x312412fe,
0xf827f8ff,
0xf0176a43,
0xa32cb6db,
0x400480d8,
0x3e9db2db,
0x37efd1a0,
0x5eddb7bb,
0xa36db6db,
0xe36f6936,
0x064b666c,
0x34d066b2,
0xce5429fb,
0xbb6c0000,
0xcec1f05b,
0x0f220f20,
0x1c925924,
0x84de5200,
0xf89c1b48,
0x310382cb,
0x07fc13fd,
0x07fc7ef3,
0x3b00f040,
0x080283b1,
0xf8de6c40,
0x24920844,
0x79be7f26,
0x22fcfeaf,
0x0eec1ffa,
0x28909cdf,
0x381b7be9,
0x78420804,
0x789916d8,
0xfec86eb4,
0xf7f893fc,
0x01d24848,
0x476f4f24,
0xfce583d9,
0x9fe1bf3e,
0x63000026,
0x34df79a6,
0x63127124,
0x27ee4e37,
0xffc1901f,
0x34234999,
0x4bf3766f,
0x0cd07c2e,
0xc3fcd7db,
0x200181df,
0xcb3db1fd,
0xf0ddc9f7,
0x33fac05b,
0x4b30020e,
0x27e7da5f,
0xc66097f9,
0xe0641f6c,
0xd82c95e9,
0x03027239,
0xd9b2864f,
0x3b33d264,
0x3f400307,
0x9404ae07,
0x10cfd81b,
0x22dc2fb4,
0xfefc2636,
0xf87f1113,
0xb83e9324,
0xb44a6780,
0x3e938007,
0xae000fb6,
0x341bfcb8,
0x7b68045b,
0x17fdb2db,
0x9f5a4035,
0x3143ffff,
0x3c90bbfb,
0x4b6480d8,
0x412fb13e,
0x0c87934c,
0xdf07b04e,
0x6e026c12,
0x808e4ccf,
0xdedb5ec0,
0x8f6fa025,
0x06db2636,
0xfedf01b4,
0x4fe3fc49,
0x55fc3fe0,
0x77f825d0,
0x6d920ce4,
0xbb188da8,
0x6b6c9264,
0xff67902e,
0xe1ffe85b,
0x421d7336,
0xc7864c5f,
0xb0db92c8,
0x21cfc9e4,
0xa69197a1,
0x495d87c9,
0xb7c3e3dd,
0xc4582e00,
0x072d7412,
0x286c6fb4,
0x08dee920,
0x3f83687b,
0x37e3d9b6,
0xf92e0fef,
0x0343f9f8,
0xc6fcbe58,
0x85bff200,
0x37e7b030,
0x800c8ff9,
0x0e0009f6,
0xdfe14fff,
0x7d63b01c,
0xa99f10ff,
0x7e4966c9,
0x0c1b8027,
0x41234906,
0x0f81be24,
0x4ffff308,
0x413ee1f8,
0xc91ca1b7,
0xcfe097cc,
0x07e16a30,
0xc26079db,
0xc38381d8,
0x46033520,
0x22e0763f,
0xfce28e48,
0xeffd70c0,
0xcfe5a1cc,
0x1ff741d8,
0x46f681db,
0xb0076dfb,
0x781e8080,
0x7c81b1f8,
0x0407f000,
0xdf6399f9,
0x4fe75300,
0x0774f8f0,
0x7fe3f040,
0x1d9bd1b0,
0x25a1fdb6,
0x86d2c564,
0x232c1049,
0x4b0769db,
0xb2d090d9,
0x28cb4003,
0xb683f524,
0x4ffac9ff,
0x68fa93df,
0x2b4db0cd,
0xb49992a6,
0x26017e0b,
0xebf37d1a,
0x307fed04,
0xa3bc49c0,
0x4848920b,
0x192649a4,
0x568193c9,
0x0783fdc8,
0x403ffbec,
0x381ffe59,
0x49be6c36,
0xff205e27,
0x8bebfdc1,
0xbef885d9,
0x0f6781fa,
0xd66b6ec9,
0xb5b1ecc9,
0x3ed94da0,
0x4bfb9e1b,
0x4b73b61b,
0xa02d923e,
0xb9606c0b,
0x07716cf6,
0x496c6fe6,
0x9db27d8f,
0xdb226f26,
0xe97cb5f6,
0x9f36c8d9,
0xbe1e00f9,
0xfc9e4cdb,
0xf9026d3e,
0xa323f22b,
0xb5a016c9,
0xb1246f27,
0x787f57be,
0xf87e0c58,
0x3c906c60,
0xc7e88017,
0x36909027,
0xd8986e3f,
0xc35c4e7e,
0x003efc27,
0x18fe6818,
0xff9ac247,
0x21efd9a4,
0xd87e90c0,
0xef12423f,
0xa42063e0,
0xb8fc01b7,
0x037800df,
0x453fe517,
0x0fcc81e0,
0x32683636,
0xd5b448a4,
0xa112c966,
0xf7e4b7cf,
0xe6121709,
0x5dbb9868,
0x7f82cff4,
0x359fb748,
0x60bcfecb,
0x048c1337,
0x05020000,
0x700ced27,
0x78fc7e0e,
0x009a0efd,
0x070c080c,
0x37fd91d8,
0x36fa4140,
0xfa0c5e2e,
0x7355bdc0,
0xdfe36700,
0x48f3c3a4,
0xfac58ff0,
0x9e80fd82,
0xdd273197,
0x87cc0010,
0x0b627f36,
0x27263f49,
0x4f93eda0,
0xee4a1bb6,
0x0014ca0f,
0x37a06be5,
0x23626e6d,
0x4cdb4390,
0xf84f13a6,
0xad973149,
0x349b912e,
0xa48413a1,
0x8761c700,
0xb597425b,
0x76d93fb0,
0xde043e36,
0x7e3f01a4,
0x6ee303a7,
0xb6c396d9,
0x3a6f6583,
0x785002df,
0xdc9fb6cf,
0x3eb9ec1a,
0xf87fa027,
0x40608426,
0x36ef68c0,
0x853f8c26,
0xf1c85e3f,
0xfcfe7e37,
0x31f63e3f,
0xf0000f66,
0xe8943db2,
0x07bc4db3,
0x017c0107,
0x416d9649,
0x373a2600,
0xb9736f14,
0x98cc0140,
0x080377bd,
0x048f7fed,
0x58180c00,
0x433d9032,
0x001c5fff,
0xff924806,
0xbb7c0001,
0x380f2cfb,
0x50dd0044,
0x292d8307,
0xdf2632cb,
0xf02e43fd,
0xc8e1b33f,
0xb9c030db,
0xc334fdb7,
0xfb65a8d7,
0xbb4871a0,
0xcd6e4449,
0xdb25fec0,
0x1c826f5b,
0xdb1005f9,
0xdcd80f49,
0xd7486fc8,
0xba3dabf2,
0xbfa25367,
0x782ff605,
0xfe8e6048,
0x1bda1203,
0xefff1718,
0xf01df1c8,
0x06d0911c,
0x277d9e75,
0xbfef0038,
0xc6301001,
0xdffc4c80,
0x07206ef0,
0xb7ff6608,
0xdaacff09,
0x40fdb3f1,
0x41209046,
0x595e6de0,
0xdde340c0,
0x84e666d8,
0x83fac1f9,
0xa198af26,
0xd11a9027,
0xb7ff91b0,
0xff6ffc36,
0xc926be18,
0x06dbd1d9,
0x87da28db,
0xf298b200,
0xb7fff2db,
0x402628db,
0x816e9203,
0xb13f7f7d,
0xb931b520,
0xdf506c15,
0x009df895,
0xf039e9e0,
0xf6f48c3f,
0x43e88ecc,
0x3130a399,
0x2bf04dcd,
0xcfe088fc,
0xb67d94fe,
0xf8137d36,
0x1e4a93cb,
0xdef19248,
0x02073649,
0xc96d64c9,
0xfe6412d9,
0x11a59224,
0x46a1b9db,
0xe06c9160,
0x33dfcc89,
0x4beff227,
0x10043eac,
0x8793e3ff,
0xbb00db7f,
0xfed861e8,
0xeedbe848,
0xc1627979,
0xfdefecdf,
0xfcf80c37,
0x37dc01ff,
0x0022c207,
0xf80301ff,
0xffffda43,
0x32d0000b,
0x387ffea6,
0x9fffec04,
0x217e7fa0,
0xb4d92bfd,
0xfff800da,
0xef40001f,
0xfd93fe01,
0x641c4a00,
0x227ffe49,
0x4b5a0800,
0xf7fc4290,
0x95bfb267,
0xb7126dab,
0x5951b1df,
0x69b7eda6,
0x4ccf81cb,
0x179f4c1f,
0x3bfe0e67,
0xae6712ec,
0x272134d8,
0x4ec2c1b4,
0xdc1bfe7f,
0x0003ffa1,
0x07ece200,
0xda259121,
0xf8f8be78,
0xcedfbe00,
0xd2eff700,
0x808a41cf,
0xfffff7a3,
0x7b27ccd8,
0xfb608000,
0x87fc8040,
0x2803beff,
0x050c3b3f,
0xecfe8184,
0xef0000da,
0x0801b682,
0x3b100068,
0x4f93f1ad,
0xc0042def,
0x883977c4,
0xff47c1d0,
0xbf47e880,
0x07d38003,
0x4ff381f6,
0x3f41210f,
0x8f221bc4,
0xe6d025f7,
0xf8467edf,
0x24125bff,
0xfe9ca7db,
0x789affdf,
0x61ecb1f9,
0x06dbe804,
0x3ffa4e97,
0x0090fdfd,
0x87ef6de0,
0xefffb7d6,
0x006809fc,
0x689ffe70,
0xa7189f25,
0x4fd26625,
0x1019926e,
0xf17fb724,
0x27b64883,
0x49277c49,
0x00005bb6,
0xbffc0c16,
0x800035f0,
0xf93603bb,
0x01eb01f8,
0xc7fffbc6,
0xf002dcc4,
0x0337e500,
0x38204e38,
0xcfdbbefc,
0xb80a8883,
0xd763f4c8,
0xf84fcc6c,
0xb87d784f,
0xfff0fe5f,
0xc6920878,
0xfbe1b16c,
0xb9bf77fa,
0xfbe03610,
0xde6a7fbf,
0x5c4bfc2f,
0x03e46ec0,
0x40fffc48,
0xffe2b01f,
0xfb70260f,
0xbf863f00,
0xf760b417,
0x4f41844e,
0x065b69ff,
0xfbff4b3a,
0xf2400049,
0xb36fb213,
0xd96a12db,
0xdbe4837f,
0x0df3ff15,
0xd801f636,
0x2b36782f,
0xa0940805,
0x00fccece,
0x291b8180,
0x003781b8,
0x07cc106c,
0x7dc82ab7,
0x2ff1b200,
0x609c8de8,
0xf5a99b9d,
0x4b430190,
0x5a6c9402,
0xccda4c79,
0xa09a6926,
0x7b65b324,
0xf2526d98,
0x752c80c8,
0xcb644fa5,
0x3a5a7700,
0x8b6ffeff,
0xd8d380d8,
0x07f3c224,
0xb1fd91fa,
0xb6db61b4,
0x3470006b,
0x2edf6e72,
0xa3016136,
0x0922b0db,
0x48409105,
0xa6f191d0,
0x3d83f266,
0x3fbc9136,
0xd1fbaee2,
0xa7ffeee7,
0xb001b683,
0x0101b1f4,
0xbf03ed35,
0xf88fb3ef,
0x03f67124,
0xfad367a4,
0x59000000,
0xdaec06ff,
0xf8d9f237,
0xf841b3bb,
0x9761bedf,
0xb16f7ea6,
0x861dbe83,
0x226206db,
0x340b4870,
0xfbdd6736,
0x5ade0236,
0x261041b0,
0x67fa6db4,
0x06df83b6,
0x007f41a4,
0x784c0fa3,
0xfe9b25c0,
0xbf0f83d6,
0x0488be3b,
0x9b400d03,
0x19fec226,
0x18dbf6e7,
0x66886f01,
0xc0ff6db3,
0xe2f53f9c,
0x349c1607,
0xd6ca73f4,
0x38fc2fdc,
0x1971e9b8,
0x24c4d536,
0xc0e43e1b,
0x7a6856ff,
0xa3e732e6,
0x37958217,
0x03304cc0,
0x8093eed8,
0x803ef1bf,
0x07e1329b,
0xc909bc31,
0xa4bc281a,
0x2d9c0003,
0x23dfc09b,
0x1f1b63f4,
0x23819f66,
0x093c81f6,
0x5fe44ffd,
0x94fd7934,
0x619a023f,
0x241ffcff,
0x385ecd6c,
0x3f0368c6,
0x86ca4fb4,
0x7f2b400e,
0x287c1a1b,
0x3c0412e8,
0x386861e4,
0xd4c4c0c6,
0x789e52a6,
0xff0280f8,
0xb8fe007f,
0x582199c4,
0xfedd91a4,
0x180001c1,
0x69e6f705,
0x87fc320b,
0x0fee9800,
0x4723d1e8,
0xf83fefff,
0x213c004b,
0x00dfa1db,
0x23fafab0,
0x67b09f80,
0xc343f198,
0xc7e3b3f8,
0x8741ffd8,
0x27a1f2ec,
0xcda3e1c8,
0xa37de0f8,
0x2fd380c0,
0xf92d9392,
0xc85c0c0f,
0x47a06f37,
0xb80901ef,
0x07cfb1c8,
0xfff64600,
0x486f6830,
0xb09c12b5,
0xf87e660f,
0x2324a1c6,
0x2701a1e0,
0x04ff06c1,
0x43189225,
0x4fb1d1f9,
0xe5fb8a02,
0x5e07b381,
0x7fa0b647,
0x6b6c9ff6,
0x110c66fe,
0xd3e5b7f0,
0x31103fc0,
0x40f2803f,
0xd86cb7b6,
0x716dbd5f,
0xe3240fb7,
0xf83c13ff,
0xf054be7c,
0x209a4ded,
0xfffc81b2,
0xd0007bff,
0x03f3d780,
0x307f10c6,
0x02fdfc40,
0xefe1b240,
0x48000cdf,
0x6ffdb9ff,
0x58599fff,
0xf926f780,
0x27f061a0,
0xa5fec800,
0xf923c0a0,
0xd80000d4,
0xa7ffffb6,
0x13ec365f,
0xc87c01b4,
0x3e7a4c29,
0xfdebf6ee,
0xbd2ed8da,
0x081f0f16,
0xc4dd9207,
0x06be9f03,
0xc6934369,
0xb6de15cd,
0xc32e740b,
0x5f0191c8,
0x972e0009,
0x7d008f24,
0x843400df,
0x7d234f8f,
0x6c042d02,
0xf83dbec9,
0x361d9648,
0xfdb8badb,
0xbb809207,
0xa17fb6c6,
0xea6db204,
0x6f23b299,
0x6b6f1917,
0xced7a0e0,
0x3202ff4c,
0x036dbfd9,
0xf9258623,
0x5fed96db,
0x9c7f6db5,
0x6683d1fe,
0x27b2490f,
0x2265b71b,
0x4407c7e9,
0x5f824928,
0x26932de4,
0xa7d31831,
0xcc924900,
0x07836001,
0xdebc7dbd,
0x67c2fc0e,
0x036c8bc0,
0x48ccbf01,
0x02d059c9,
0xa4dfa1fe,
0xc6e07ba5,
0xa48be0d9,
0x2e8112af,
0x06db61b3,
0xce6fa86d,
0xddbf4094,
0xc92f065f,
0x86f0fb28,
0x6b2401a0,
0xf6df67b0,
0x816c97b0,
0xb79368db,
0xa001208b,
0xb81380c0,
0x5cd839fd,
0x001d11bf,
0x0527f7ff,
0x07fe6ec3,
0x2cda4100,
0x471601c6,
0xcfbb48f8,
0x94f756aa,
0xa370c80f,
0x87b04e1f,
0xe86c26d6,
0x40af8ec4,
0xc663b799,
0x2bc0b706,
0x0098baef,
0x8ed3e183,
0xab9016c9,
0xc7e07e59,
0xf4483d20,
0xb0ac3678,
0x41ef4e5b,
0xf362a0d0,
0xf8fc07e4,
0x9b206e1d,
0xfed2b617,
0x37f3756f,
0xba7e48c3,
0xa3f87e7f,
0xc06f6f26,
0xc3d7e983,
0x40906df6,
0x1ed36d6e,
0xb17f53ff,
0x26d96599,
0xc49e69ed,
0xf09b9221,
0xb2dfc027,
0x21164d94,
0xffb24424,
0xac989048,
0x389b6f36,
0xb8db4f20,
0x349c4fb7,
0x512501e9,
0x2f27fbfc,
0xcd25b385,
0x416818db,
0x43011724,
0x0d279299,
0x436c1204,
0xc96c00c0,
0x519beecb,
0x2fd5fda6,
0x4ffc4009,
0x86ddfe17,
0x264a0006,
0x27bc97be,
0x00cf69a6,
0xf63dffff,
0xf33821a4,
0xa693fcd6,
0xcf6363d9,
0xc3fce9e7,
0x5be3d9a1,
0x3cd2ce19,
0x2866827e,
0x00247d1a,
0x6fe16daf,
0x63124480,
0x0f81b696,
0xd823c83c,
0xb3fe8918,
0x39d9fa0b,
0xa60060d2,
0x097e4837,
0x7ed83aff,
0x41239709,
0xd978bf3e,
0x4bd1a9de,
0x2bfbe72b,
0x07fdb3fb,
0xa9f84c7b,
0x7ffcda00,
0xdbe436fb,
0xfbec13db,
0xa7ffdd36,
0xc837f724,
0xc0d801e7,
0xb6817600,
0x266466db,
0xa041f7db,
0x06409248,
0x6b6db7bc,
0xdedb9bb1,
0x1684be9b,
0xe92693d2,
0x3b2593bf,
0x4b2490c8,
0x0334ff27,
0xdccc7f3e,
0xa91c2fbc,
0x7cfb91e9,
0x631388f8,
0xe700b027,
0xe94a484a,
0x3ebc310b,
0xf6bcffcb,
0xbb6b813f,
0x4f818026,
0x4522625b,
0xf81c0098,
0xb8dfbc00,
0x549a6803,
0xd8e495c8,
0x07e7f334,
0x06e07e48,
0xe7da49c6,
0x64d9b62f,
0xc7983769,
0x482e50a4,
0xb5a2c137,
0xe5137232,
0xfecfe1c8,
0xface4fa9,
0x186fa278,
0xb723b6d8,
0xf8111dff,
0xf920b998,
0x35009067,
0xb1e204fb,
0x076285e7,
0x401e6f77,
0x309bf37f,
0xfbec8249,
0xc96f5fa4,
0x58ef48c1,
0xf7e1f1bf,
0xb7a40c59,
0x76d802ff,
0xa0820dbf,
0xb06e41f8,
0x1b6cb60f,
0x826db493,
0xa1276105,
0xfec29671,
0xbfc07fb3,
0xe87e5817,
0x86724fda,
0xf3264818,
0x568873d0,
0xb8be3fe0,
0x7f406f46,
0x01fe7e07,
0xf6d24087,
0xef420ddb,
0x067990d8,
0x800273b8,
0x003e4c02,
0x80d8132d,
0x7884934b,
0xd9009180,
0x7ec00160,
0x2523d378,
0x48da363a,
0x7ee3f3f8,
0x64df0296,
0x3cff90d3,
0xde2f73bd,
0xc787d770,
0xc701fc26,
0xc7e3b19b,
0xfb7f3202,
0x584a05ff,
0x46c217ff,
0xf83e37bd,
0xc425befb,
0x864ae829,
0x2e82e130,
0x88b37f49,
0x9cc10705,
0x7ae44abe,
0xf81612ab,
0x457dbebf,
0x30fc4ce5,
0xa85d21b5,
0xfbb84f3f,
0xf80e6dbf,
0x36de4efb,
0xd8904c17,
0x49e5da49,
0xf6c1db24,
0x3b50c1fc,
0xa6cf1837,
0xb4876a19,
0x84976837,
0x22e727a4,
0xb80db7f9,
0x069032d6,
0x104b49fe,
0x1ff3a102,
0x300c0221,
0xd8cc003f,
0xd843fe24,
0x30534840,
0x057c1010,
0xdfdd3f40,
0x3802011d,
0x419e1660,
0x709e4dae,
0x77191b27,
0xc071b89f,
0xfc1bc9be,
0xa511fdc5,
0x612f370f,
0x752fd18a,
0x67209a9a,
0x2f6277eb,
0xdcd24124,
0xdd969964,
0xbfefd324,
0xfff37e7f,
0x39acda28,
0x68279164,
0x969b83cd,
0x4d166984,
0xcc9f4926,
0x70d98052,
0xa5d0d96f,
0xd926da74,
0xb8d9b84c,
0xa07e7609,
0xc0c0792e,
0x7171811d,
0x436cb327,
0xa1fdb1b7,
0x6fef13b4,
0xb1fc1b20,
0x1c8d9336,
0x336fef06,
0x439072d9,
0x1eb64ee4,
0x5c7897f1,
0x26db65e4,
0x5d2cc986,
0xcdbb93fd,
0xe9ff24c9,
0x3bb84b07,
0xb793f9c7,
0x40904dc0,
0x600b8dc4,
0x88d87e1f,
0xa00182ca,
0x672c49fe,
0x97dc6400,
0xb014a404,
0xe9186da4,
0x4ffd05dd,
0x057fcefd,
0x04458159,
0xfb2480c8,
0xc16f4854,
0x2c1b6f04,
0x07e41e00,
0x95283fc4,
0x4b6db3a4,
0xf965565a,
0x269ef0d9,
0x38c7a40b,
0x31246c23,
0xfb24f21f,
0x3f6007d8,
0x3720f5f2,
0x91004c36,
0x076749ff,
0x309b6c26,
0x3b037ed7,
0x0297f037,
0xf9604054,
0x235980f6,
0xb7f26d36,
0x03a18c36,
0x74589adb,
0x1e004f39,
0xf03f63b9,
0x209c4eec,
0x303d9ecf,
0x7b3f024f,
0x59972287,
0xeea5bfdb,
0xa335693f,
0x4d277d65,
0x0f034ded,
0xb21c8d27,
0x4b66baf0,
0x37ed6237,
0x01932641,
0x19da686e,
0xec9beaad,
0xe93e4ab1,
0xbb601e5f,
0x780c8df7,
0x59242749,
0x3ed2421f,
0xbcff4080,
0x4afc8799,
0x4151c300,
0x18084a3f,
0x784f71a0,
0x0e9a6459,
0x47a1b79b,
0x9c8f9347,
0x483ff0d8,
0x3fb64c1f,
0x2c8cb24b,
0xcbdb6de4,
0x4e6717e4,
0x0a7ae19b,
0x9fec3fe0,
0xafbc1609,
0x165c365c,
0xf87c1e17,
0xff203381,
0xb87e3f83,
0xdf800017,
0x18efddb6,
0xf3643e4f,
0x0ae791a0,
0x7b220086,
0x5b25e640,
0xb06208f6,
0x001cdfdb,
0x281f0ff7,
0x11080846,
0x25008127,
0x20311e5a,
0x400581a7,
0x403e6c32,
0xe6c01ff5,
0xbe83519a,
0x3ec849f7,
0x30cb7f4f,
0xc4559ff4,
0xcc26cde8,
0xc7ffd1f0,
0x06f00d00,
0x01200c9a,
0x31646d9b,
0x386f4ecb,
0x36dd8ccf,
0x3a7c1e59,
0x7e120ece,
0xdb200688,
0x3e041230,
0x073b7283,
0xcec068ec,
0x8807fd7f,
0x686c10a0,
0x039069b7,
0xffe761f1,
0x24edc336,
0x26f6625b,
0xcda3e8dd,
0x2961c124,
0x25bff3d8,
0x033b2c00,
0xc96f7141,
0x049a4c48,
0x07824000,
0xfd809fa6,
0xf8861636,
0x4925d92e,
0xcf69e9a7,
0x7c8d901f,
0xb81eed26,
0x386f8cc4,
0xc36088f7,
0xcb62dcc8,
0xded1b05b,
0x31700c0b,
0xce9e2f94,
0x9ff3b19f,
0x086d7237,
0xfcdb07fc,
0xce682f13,
0x3160f1d8,
0x781e8e4b,
0xb8e39985,
0xb17e1ecc,
0x2e1607b0,
0xf96e0712,
0xb693ff45,
0x9be7b202,
0xfb2d101f,
0xdf776e40,
0xfc837534,
0xc8de6cff,
0xfcd84935,
0x4fe8925b,
0xfffcb164,
0x78c391b2,
0xff676fff,
0x0003752e,
0x5dfd5677,
0x783b6f84,
0xfffc01fb,
0xbb3d3220,
0xf87c7f20,
0xf8177f14,
0xd8a17fb6,
0x075c09f6,
0x03f8017f,
0x3c10bdff,
0xf8180e05,
0x02fcc9a7,
0x00100626,
0xbd9c0dfd,
0x37ef40e6,
0xf1fbfff7,
0x85f86d26,
0x4d7c0e24,
0xf81eff24,
0x7c1ff1f8,
0x27dbffe8,
0xa01aec4f,
0xa07e7e5f,
0xb86d1064,
0x95fefe5f,
0x6e972c0d,
0x0195d840,
0x369be9e0,
0x26013524,
0xc6e052db,
0x24264e06,
0x3e9fc809,
0xa4907da7,
0x3c9613ac,
0x286c3f6c,
0xfe6f6edb,
0xb00ffeda,
0x81e25f48,
0xd7e397fa,
0xfffc7820,
0xc40101bf,
0xfffd7736,
0xbbfbfcbf,
0xfefe6ff8,
0x06e28407,
0x1a4e9641,
0xf966dab7,
0x7f664dfc,
0xc50c2e07,
0x7002262f,
0x1cdb75b0,
0x1fa7b103,
0xbc9b2f34,
0x79a5701f,
0x6fe3b037,
0x1c927f61,
0x44db4a07,
0x8cdc2fd9,
0xc16d65b6,
0xe8bc9227,
0xb127e14b,
0xd86f4837,
0x3e1281e8,
0xb81d15e4,
0xf7306c8f,
0xbc9f8844,
0x26b0a9f8,
0x04906ec7,
0x181dd14f,
0x76d9ffa6,
0x4cbf496f,
0xfb3889e4,
0x7f7093b6,
0xb493fd05,
0x9b027f7e,
0x23277ec4,
0xb79be9b7,
0x96e21d27,
0xb7d24d26,
0x185fff55,
0x4e384280,
0x15b3dff8,
0x2f27818f,
0x269193c3,
0x7c9e7fbb,
0x46ee1724,
0x7fa699f1,
0xa4da6c06,
0xee12d937,
0x97a028ff,
0xf8018620,
0xb87e65ff,
0x1003fa01,
0xf807be9a,
0x4bfc00ff,
0x001bf5ff,
0x1925e45b,
0x00ec00bf,
0x7b7417e0,
0x0817b687,
0x2393fbb4,
0x434fc844,
0x0011b4f0,
0x4e93689a,
0x27807ed9,
0x27232401,
0x2c87f5b3,
0xf81a8a5b,
0x00218049,
0xee964f27,
0x5c1fd5db,
0x18251ffb,
0x202f96fd,
0x2e5becc3,
0x9beb1800,
0x481fe136,
0x6e425bff,
0xf8016cf6,
0xffdfe800,
0x0761dff4,
0x097d01bf,
0xcbffffdf,
0x032f80df,
0xb8806dff,
0xf881ae00,
0x4c136e64,
0x249ff5fb,
0x68118840,
0x6584c6cc,
0x33bfa1a7,
0x3ffc0bb7,
0x081c0808,
0x07dbc000,
0x210589c0,
0xdf2ff780,
0x3fb9fd47,
0xc7036134,
0x38bc7e2f,
0xf2008441,
0x380fdfcf,
0x3f081edb,
0x193ec66f,
0x3cb80ec3,
0xa110fe3e,
0x484f6f1f,
0xfc914d92,
0xd683510b,
0x91b76fd8,
0x956133f7,
0xde4325a4,
0xd70010f4,
0xb36333b7,
0xfec345c9,
0xbf13c05b,
0x6713af2d,
0xc963372c,
0xa36cb259,
0x080c36c1,
0x4cd0901b,
0x61b6b20f,
0x0b620860,
0xc349101b,
0x75c9bd20,
0x35f99a7e,
0x6583e294,
0x239b407c,
0xdfe49fd9,
0x300fb6d4,
0xe6800667,
0xe21c0c2c,
0x7f6d01f0,
0x61b28a1e,
0x0227ffff,
0x90007f7f,
0xd7e79ffe,
0xf7f995f7,
0xe6fdf400,
0xf7ebf3ff,
0x0781827e,
0xffffdedb,
0x08ffc01f,
0xbcfcb400,
0xe04ffe03,
0x7cbc3eff,
0x67ec0202,
0xd82f27fc,
0x04911a9b,
0xfc0c7f4f,
0xf837fe1f,
0x27204b09,
0xb2906e27,
0x1e078806,
0x79984fca,
0xbbf18127,
0xb81607e6,
0x189c8fa0,
0xd763f188,
0x04d910ff,
0x7e98f7f8,
0xb135b724,
0x212ed1fd,
0xb7d19349,
0xdf2403b6,
0x64d1ce23,
0xb2db6e2d,
0x483e2726,
0xe3f749c0,
0xfb489248,
0x27ecc500,
0x06da4924,
0xf814025c,
0xff12000f,
0xffffffc0,
0x5c17b310,
0xe74b4283,
0x6c23d726,
0x25f45fff,
0x0cfb7f25,
0x14100048,
0x26fa90d2,
0x134db3f4,
0xf00c0e40,
0x0492009f,
0x110081c0,
0x29fe4d24,
0x26d802c0,
0x5efbfed8,
0x0007d97c,
0x201d103b,
0x3ffc0024,
0xfc03b028,
0x001be7fe,
0x4e0417fe,
0x8027bc49,
0xe8fc1ffe,
0xfe91c026,
0xc7224f06,
0x806c96df,
0x402360b5,
0xfec7efb3,
0xd05d41fc,
0x5fdad126,
0xdf817207,
0xf203f1c1,
0xfb99fec0,
0xbb0050df,
0xc5dfffb4,
0xc853f017,
0x800020b0,
0x0001bff7,
0xb7fd7fdb,
0x1bec9dd8,
0xfad3eddf,
0x92fc6c8d,
0x6fd3b7d4,
0x1b6fea59,
0x86000eb3,
0xc593fac3,
0x36e33c92,
0xc0981526,
0xce9fe3e3,
0xdc8f73e6,
0xffdd51c8,
0x32cbff6b,
0xfc000000,
0xfb026edf,
0xf923ff12,
0xf84f7fc4,
0x0003fe01,
0x07fffff1,
0x084d90d9,
0xf7fcb601,
0x62107e02,
0x9ef9b6a7,
0x4adc1200,
0x4ff9edc9,
0xfc0002de,
0x17fc9fdb,
0x27fcb6ff,
0xd8fc0000,
0x002c80fb,
0x66ffac17,
0x06630fd8,
0x022c6144,
0x055b8000,
0x0104b91b,
0x44348d00,
0x7e1fecd9,
0xf7676df4,
0x74f3005f,
0xd0efe93f,
0xc900baa5,
0xe778b2c4,
0xe4b61292,
0x6324c80b,
0x54f274fb,
0x36664db3,
0x78e777b0,
0xfcc4484b,
0x80c150e0,
0x04da7e00,
0x1c987b7b,
0xb6c82034,
0xf7e248cc,
0xbfd16dff,
0xb7e5e080,
0xb3fefdf0,
0xfbeff800,
0xc7cb01be,
0xfb5f71f8,
0xffdba121,
0x07c18133,
0x066befe4,
0x47e701e0,
0xe93fbe23,
0x6b6e73a0,
0xc45617a7,
0xdb27e5bf,
0x5c901000,
0x7bfed269,
0xf7f3d045,
0x97fc81fe,
0xffc06e00,
0x370109ab,
0xfc9ffe1b,
0x9ac3fefb,
0x0fb9fe37,
0xfe86005b,
0xc79f6da4,
0xb1271836,
0xd8bbedb4,
0x16916f6c,
0xdec01fa4,
0x4e9968ec,
0xd87f6db4,
0x21264126,
0xa00401da,
0x3b4856da,
0xd0c9ec59,
0x62ea7036,
0x802d91bf,
0xc3606dc8,
0xff01bdb4,
0xfc21e137,
0xc9213ff8,
0xfe900120,
0xdcffb0f4,
0xb2fc6e87,
0x44d80c5e,
0xb1203042,
0x4bfe4d66,
0x302be84b,
0x423c2e4c,
0x3898ba01,
0x07dc0025,
0xa81e5c20,
0x09d9b610,
0xff7fc900,
0x25d3ee87,
0x645c0fb8,
0x986efe19,
0xfce5b67b,
0x149b09b0,
0x00100426,
0x050501e6,
0xbd81b66f,
0x38e93704,
0x78265d99,
0x2c084810,
0x67400800,
0x208109c8,
0x3b3a4db4,
0x32f57693,
0x5c98c3bf,
0x5c906ad9,
0xcbe3facd,
0x2314648f,
0x9b66fedb,
0x30824060,
0x6b9996c8,
0x36dfaf3e,
0x249f968e,
0x213f4d8f,
0xb7e50d73,
0x19fd9057,
0xd88027a4,
0x3edc8f6b,
0x04dbc037,
0x67401b8c,
0xb91c079b,
0x21dcccc9,
0xb8d08937,
0xa01df9a4,
0x28b36cb2,
0x201942c2,
0x0c9eb7b6,
0x436b6f24,
0xca8d282d,
0x380c6dbe,
0xb8dca037,
0x189fd200,
0x08063c03,
0x22982429,
0xf8303f33,
0xb02e1e0f,
0xd8b7829f,
0x1b6cb7b5,
0xba6c870b,
0x207e2e40,
0x08038000,
0xba8e065f,
0x884c863b,
0x077ffde6,
0xb80c0183,
0x07ac926d,
0x4400279f,
0xffa5de7e,
0xf93601fa,
0x4fe26edb,
0xfe0171bf,
0x60ff253f,
0xb37c3ffb,
0x8bae7337,
0xd9bc685a,
0xd1e80444,
0x6addb7b6,
0x27fe267b,
0x80004c26,
0x968100d8,
0xa49202e0,
0x249341a4,
0xb4253b0b,
0x769e03f4,
0x94c3a580,
0x37db024f,
0x082257b6,
0xc8936d2f,
0xc7a03609,
0x0fe266b0,
0x5e05682f,
0xc42e489a,
0x366f130b,
0x487c91b6,
0x18fcdfc1,
0x5c3457db,
0xaefe3305,
0x7f2863f0,
0x5effe17d,
0xdcda75e4,
0xc92f31f6,
0x239f0fd8,
0x342e3d19,
0xafa30037,
0xbec9beba,
0x6169f835,
0x2373ab24,
0x12448058,
0xc80aff35,
0x10209f23,
0x4909dd67,
0xb302c649,
0xc92648fe,
0x68cff3ad,
0x4dabcebc,
0x7b226c00,
0x49219204,
0xffef93d8,
0xff01c9a0,
0x07019336,
0xe126d204,
0x882459d8,
0xf912c1b4,
0xf7613e29,
0xf81b81ff,
0x7fe005ff,
0xf08cdfa4,
0xe2202220,
0xdd13ff04,
0x0601b601,
0x00fdffc0,
0xf0be7de9,
0x801c6fb3,
0x87e1f83f,
0x37207ccc,
0xf3c3a6bd,
0x7e9e4637,
0xd898936c,
0x38670f33,
0x4363f1dc,
0xb99d2c01,
0x5c91f138,
0x3f41b0da,
0xfe031af4,
0xc7c09da7,
0xd07e01cc,
0xc78da04f,
0x67808e5a,
0x1f3051e8,
0xc7e19057,
0xdfa39236,
0x17a391df,
0x18df5849,
0x909c4cd2,
0x0c3c27a7,
0xc7866ffe,
0xe204884f,
0xb8980ec9,
0x220b40c1,
0xd81f80c0,
0xc07c17e7,
0xe0d9edf8,
0xfce337fd,
0xf79508a0,
0x80792047,
0xe53cfe5d,
0x6624f1fc,
0xd6c4963e,
0x417c6dc9,
0x5ff06939,
0x26265a49,
0xffb0bfc0,
0xeecbe3ca,
0xd7e69026,
0x4722cd4f,
0x899d9730,
0xb7109e4f,
0x23500de9,
0x04ecbe44,
0x24106e7f,
0x36ce6fd9,
0xdc3e07ba,
0xc8dfdaad,
0x3db6e02d,
0xe89e65d8,
0x1f13d94b,
0x3fe70439,
0xa4224323,
0xc7948100,
0x137b0aff,
0x804c0113,
0x4edbd878,
0xf2fc01e0,
0x75fffdbe,
0x8002097f,
0x3063fc0f,
0xb7f809f3,
0x012d00ee,
0xb300b58f,
0x32376809,
0x08102e5f,
0x81fbcb35,
0xb0d5c216,
0x46d292d8,
0xe84d9189,
0x90537378,
0xf9ff1257,
0xa32c0e3a,
0x9ee3043b,
0x82a131f8,
0x20ff614e,
0xde43693f,
0x08dd3ece,
0x87627607,
0xa0dc3ff0,
0x44efac86,
0x5f031201,
0x903731c7,
0x781fb1b7,
0x3f410c09,
0x5f8e97c3,
0x6723966c,
0x4f636c07,
0x86fbec01,
0x43ae8f90,
0xb827bfbd,
0xb8ddbfb7,
0x06df8181,
0x49664c88,
0x3322c9d9,
0xf88bfa00,
0x9d409fff,
0x1cb083fb,
0xf800807f,
0xf7ff64bf,
0xcb6248d8,
0x20a1f964,
0xf800f7f0,
0xfd209340,
0x580601ff,
0xfbefb1d0,
0x92fc812d,
0xe90f6cc8,
0xa2397ff5,
0xdad9a00b,
0x86b68396,
0xc7d136db,
0x01245ee0,
0xd5b3c027,
0x803f8809,
0xcb02f599,
0x78bdb3b0,
0x40dc9646,
0xb48efdc2,
0x78db6d9a,
0x63d1d827,
0x01181b64,
0xb41decc7,
0x24ddffe6,
0x4cc3df20,
0x23820fc6,
0xf8106fc4,
0x202c3e27,
0x78ff263a,
0x1ba32500,
0xeafc76c2,
0xfc14ffc0,
0x1a94d225,
0x7f1997c1,
0x583cde1f,
0x87018e1b,
0xc7909ea7,
0xc0ff8acf,
0xdb17f9fc,
0x37e036bc,
0x7f6c82c0,
0x7ae18984,
0x65909e1f,
0x04a3ca26,
0xd165fbc1,
0xbbd027fb,
0xbf5bb7be,
0xc02cb734,
0xa36e4c1b,
0x4fa53e9b,
0xb86fafde,
0x9362cbbf,
0x0611b293,
0xc96c13f4,
0xfe2416c1,
0xf83fc83f,
0xfaffc0d9,
0xa05b425f,
0xe87cff23,
0x01782ed0,
0xfb83ffdb,
0xb6b06d09,
0x5ff03e3f,
0x9d874b24,
0xfedcb9b3,
0xc9ed0bfa,
0xac82900c,
0x847e6801,
0x009483fb,
0x44880cce,
0xb3ef81c0,
0xb87d9a12,
0x5de34144,
0x216f9042,
0xa2d3d279,
0x7920375b,
0x6a065684,
0x3fff9017,
0x45fd13fb,
0x189992cb,
0xb0dd5dd8,
0xc96cee16,
0x77e7f65b,
0x58220fb6,
0xf3e97310,
0xdedb6406,
0x36e45d10,
0xf8e7fc1f,
0x04876cfb,
0xffff7792,
0x3ff39436,
0x8101fede,
0x564dd99b,
0xb5f9b1fc,
0xdfe40fa0,
0xc86e61b8,
0x5811bf66,
0x98a36c1c,
0xfdedbedf,
0xfb65fcd2,
0x478383db,
0x3ffc7689,
0x2528bfe4,
0xa003fe52,
0x048593c0,
0xf926119b,
0x78030000,
0xe24021fb,
0xc024004c,
0x5ecffe2f,
0xf257900d,
0xb90e15ff,
0xdffc020d,
0xd01cfd07,
0xdefff6f8,
0xdf62d44b,
0x048e6c07,
0x400c7ffd,
0x37e87b78,
0x3c02f1e9,
0xa69585ac,
0xf07ff70f,
0xdc0f7ffe,
0x32dd80cf,
0x00001356,
0x7b417de0,
0x4e5c8e27,
0x5c599336,
0xf09c583f,
0x202477b2,
0x34d352db,
0xa6736cca,
0x3ed3b27e,
0x4894cc1f,
0xc2066824,
0xbb3df093,
0xbce381ff,
0xf88296ba,
0x41b06000,
0xa1fdf7bf,
0x0c147fcb,
0x4b7c3763,
0xfef3817f,
0x273039fe,
0x3ae7f9f0,
0xf7e00138,
0x4bff23fe,
0xdf6e8680,
0x240c03fb,
0xffe13e1a,
0xcb7c6970,
0xa81fef8f,
0x9f1e80fb,
0xe110fe3b,
0xf803a4be,
0x5effc806,
0x04dd9fe8,
0xb01edde8,
0xb410f046,
0x27999647,
0x58fc6e27,
0x656e01fb,
0x67106d46,
0x66c04604,
0x0494c809,
0x672364e0,
0x682cdfaf,
0x9e4ba3a4,
0xa920dd27,
0x4c93f3b6,
0x5da248d8,
0x3c9e1cd1,
0xbf3fda76,
0xb6fc30dc,
0xb7fc4e00,
0x4362ef1a,
0x196d0098,
0xf825d048,
0x21d3edbd,
0xfefdb063,
0x8000bec9,
0xb4845830,
0x477379d2,
0x4e00dfbe,
0x0fe03684,
0x3fe6db87,
0xe6064691,
0xc7801978,
0xc06c0fdc,
0x4250fe25,
0x06b41190,
0x1a03fed7,
0xf8266487,
0x902e1238,
0x649203fe,
0x1003c801,
0x35f48ba0,
0xcc03f8cc,
0xf815f820,
0x0183fedf,
0x569fb7f9,
0x27ec40c9,
0xfa658ad9,
0x2d39a6d2,
0x636c00c3,
0x01036adf,
0x273c8490,
0xa35a80b6,
0x0b6c6def,
0x283e37f6,
0xb7e72fff,
0xb6426989,
0xb7827121,
0x4edffe06,
0xfe80f7f3,
0x3dffc9b4,
0xe6c201ff,
0x08f57bf4,
0x5cdf1b20,
0xbe6368b6,
0x07625be8,
0xb8756ffb,
0xcadda659,
0xbafbc807,
0xc079569b,
0x06e12816,
0x16c1b783,
0x4cd381d0,
0x4cfb69b7,
0x03fe4076,
0xf6c301a4,
0xfe117f25,
0xe9ee01b2,
0xbedbf3b4,
0x227cfed9,
0x9ed3674f,
0x7ad36136,
0x3fb3b1b3,
0x41fedb6b,
0xbc9ed601,
0xc5e0bf23,
0x480e6f36,
0xeb26130d,
0x13345306,
0x5c27b02c,
0x733e4ac9,
0x386c56da,
0x79f6ee2b,
0xc10f923f,
0xa13e670f,
0xf45c7fcf,
0x31bfde07,
0x7f13fe46,
0xb661f6da,
0x3aef0eac,
0xbf91bda4,
0x697e9e40,
0x4cc55b6b,
0x360090de,
0xe1869e1b,
0x40714bf6,
0xfd58b1cc,
0xd85c80db,
0xb0d81e5b,
0x10027fbf,
0x0f7e4188,
0x9802e8d9,
0x07f3fd6f,
0x000ff800,
0x07f4004a,
0x0361f492,
0xb803063f,
0x3303ffd9,
0xfffc6c00,
0xfef81ff4,
0x7d1cdfd2,
0x20024ff7,
0xb7610400,
0x021c3292,
0x28107fff,
0xe09d06db,
0xf8000080,
0x00fefe01,
0xe0c23637,
0x2018bd66,
0xd8fc924f,
0x31767824,
0x48dc37db,
0xffce4dae,
0x38142932,
0xf9686448,
0x87b06833,
0x0f26ce43,
0x38db93a4,
0xcc2c725b,
0xbf739254,
0x5bdb8109,
0xa42db1f9,
0xf3fa7fb5,
0x0d2f0280,
0xf9109fa7,
0xf4bdf7eb,
0x280ed221,
0x013c0fb0,
0xff90b5d0,
0x82000fd2,
0xd84c17f9,
0x21a34c20,
0xfbf54a1a,
0xdd2cb280,
0x3e2bf2ff,
0x048bf0d8,
0x41006be8,
0x0427b9c3,
0x7b0391d0,
0x078326ff,
0x201d1027,
0x53c180b8,
0xcf047f84,
0x3fc199f7,
0x60919126,
0x282f4c80,
0x7cd3fec9,
0xb30110df,
0xc36123b6,
0x408791d1,
0x391fe9f8,
0xa8d013fa,
0x6ff5b012,
0x693e9819,
0xc165bf69,
0x0dd36497,
0xa494964b,
0xb06300ed,
0x3bfcfa11,
0xb12fb333,
0xdc264b6b,
0xf82c81c8,
0x07946f7e,
0x07fc43c9,
0x0090017d,
0x78004040,
0x47c3ff8f,
0x36fc897f,
0xb18401ff,
0x2009fb48,
0x0f23f049,
0xc71fbff0,
0x121b953f,
0xa721b3cf,
0x0f9427d1,
0xcfc617d0,
0xd7eb7160,
0x976affc5,
0xef93e1f0,
0xdb1e0db6,
0x4a5a0e00,
0x30038d97,
0xfbf18500,
0xb01c01e4,
0xdffbfcff,
0xf803fec7,
0xfedfa1ef,
0xfe03ef88,
0xba583ed6,
0x0499b23f,
0xd743fdd1,
0x0a0311ff,
0x7a6c6ff9,
0xc13dc9ff,
0xfae76604,
0x40d04dff,
0xf2ffb1d8,
0x0400273f,
0x905fd3d5,
0x4ef9bbfc,
0x4d021edd,
0xf03c18d0,
0xc76792c9,
0x3d27640b,
0xb317c066,
0xc0decefb,
0x12202f24,
0xf8d601c8,
0x27e3c581,
0x79ff59fb,
0x3ffe5d88,
0x0411c0bf,
0x3a03fe00,
0x8f2401ff,
0xc7ffd182,
0x013ec9ec,
0x0f11b3b3,
0x0402485e,
0x760689a5,
0x7ed5d827,
0x29be4f30,
0x469f645c,
0x19607ecc,
0x3802686d,
0xbb60b7a0,
0x7368567f,
0xbff20df4,
0xb2ff4d6d,
0xcc9b4c84,
0xb32bfde8,
0x1a1f0bb5,
0x383bff08,
0xb6da6d34,
0x3eb1b64b,
0x07e14269,
0xfb19b6ca,
0x4121bcd3,
0x36cab65b,
0x46ce3efd,
0xca0b6c12,
0x5c7f33c5,
0x59e5b7d7,
0x97c106b1,
0x3793fc49,
0x209c9bc8,
0xd6e00e18,
0x3859d893,
0xb7bdf3bc,
0x3f904e64,
0x24ff68e6,
0xe8094b0d,
0x2334cbb0,
0xdf71b666,
0x182fe1f6,
0xdaff3240,
0x39db6be5,
0xc6a41de4,
0x6c4605a0,
0xb40e9a03,
0x387edf06,
0x0442c100,
0x98f7ecf8,
0x4eda6d27,
0x4253cd36,
0x24d1b7b6,
0x21bffc30,
0x349248f6,
0x059367ba,
0xfb2548e0,
0x22df6cd2,
0x26d9b327,
0xfdffe80b,
0x3ea497a1,
0xc6ffda4f,
0xff03affc,
0xf8efe07f,
0x38007f3a,
0xbea1fe37,
0xdff00091,
0xb455b324,
0x4f227c7f,
0xc369b65d,
0xf061afd4,
0x313f61f2,
0xfe619e97,
0x27273364,
0x9e8271b4,
0xd2d84f9a,
0x3b43207d,
0x60df804f,
0x120f9487,
0x1804be6d,
0x09f1f590,
0xc31da60c,
0x42cc9f24,
0x7728bd29,
0x934c4962,
0x61e737cf,
0x4f020e7c,
0x181fed26,
0xb4d0fa37,
0x10844f36,
0x765eff67,
0x3c8c4d37,
0x3a9a6987,
0x96db6d24,
0x16c00f76,
0xd9bf5f26,
0xdc0c4d46,
0xf9b76e66,
0x5edeca26,
0x9fdb9d2a,
0x49236db7,
0x43d9f3a6,
0x7b6ca6cd,
0x3dda4bfe,
0x21b16d06,
0x04113b87,
0xa784cfa4,
0x8782684d,
0x0cd0b360,
0x26b9eb2d,
0x08bcc1d1,
0xa19997a0,
0x789f6280,
0x2cd1d8cf,
0x2fa8a1a1,
0x8c9fe1b4,
0xce94ef70,
0xb127e848,
0x516d73b2,
0x2ff47e51,
0x31fe77f5,
0x4641f9b6,
0xa3669fa2,
0xfd3f5ea4,
0x07e3f37c,
0xf85dbdfe,
0x7e3beff9,
0x2ff700cf,
0xf80175ec,
0x3f93e078,
0xa76c007a,
0xc03ff120,
0xc65a4cb6,
0x00ebb93c,
0x2cdcdc2e,
0x9da837d9,
0xc6d433fb,
0xfae5122f,
0xd0dd605b,
0xc2fdc4a8,
0xe0cf21f8,
0xa70278f4,
0xde918124,
0x37922455,
0x813c7bb1,
0xf3e477d9,
0x7941b004,
0xf25ba538,
0x9e24cc33,
0x70db70f8,
0x3c9cfafc,
0xa03c49db,
0x3fc6c8db,
0x2595c964,
0x5c91b360,
0xe5e24efd,
0xf64a9623,
0x3f9c090f,
0x23103687,
0x419a4f9f,
0xb603f82f,
0x87ffd1f7,
0x45279248,
0x48607fc7,
0xa12d96c9,
0xd8cc4ca4,
0x06839117,
0x4b99b62f,
0xc8119081,
0xb366965b,
0x27779266,
0xf0df84f9,
0x4c90c206,
0x30d83c1e,
0x5d2193d8,
0xe722f236,
0x485e6df5,
0x4320dc0b,
0xc713d0ea,
0xd812805f,
0x60d7b2b9,
0x366249cb,
0xa7a6824e,
0x59e21eee,
0x47e48f36,
0xe519cfa7,
0xfffb8863,
0xe63b481b,
0x38f721af,
0x02e16b23,
0x1b3f36f6,
0xee1dc83b,
0x03fcb3a9,
0xde3d6d69,
0xb3f9b781,
0xcb6ccd7e,
0x6700167f,
0xded003f8,
0xfca383b3,
0x003ce8c8,
0x87809781,
0x9fa35fc4,
0xffc3e0d7,
0xb86f962d,
0x7aa3f1c0,
0xdfffff77,
0xbc8375b5,
0xb4000e7f,
0xc5ffceb0,
0xbb03cbf9,
0x8084cc26,
0xeffcff5a,
0x0404fe04,
0x7c33f3d8,
0x87fd9603,
0xfa69b564,
0xe3348802,
0x38ec9002,
0x201826d7,
0x5c83da5f,
0xf89c83cd,
0x7d7cbf26,
0xed7f8183,
0x317a9a5f,
0x4ff0748f,
0xe98de8df,
0x817b6425,
0xd884c600,
0x76d197de,
0xb7e0cc64,
0x34dba988,
0xd069746f,
0xd90d80d8,
0xf0ca6e1e,
0x6880d4a6,
0x14886eeb,
0x801fe04f,
0x781cf836,
0xb8ec767f,
0xf97f81f0,
0xd8ff4b90,
0xb0bc6d37,
0x68d0122f,
0x4fe53c91,
0x04406cb7,
0xa7edf285,
0x58677006,
0x78046e3e,
0x001c0042,
0xdf578045,
0x437ff7e7,
0x48136bf0,
0xc3ee4e7f,
0x697d5f4d,
0x97936c8d,
0x201441f8,
0x00be7c5e,
0xfffc0224,
0x4f0c1324,
0x6b0b0300,
0x3362803c,
0x801389bb,
0xc3e35f44,
0x201c09e4,
0x27c26fcd,
0xb8dc89c6,
0xe6d392e4,
0xa7f7d9c0,
0x9edbd8c6,
0x7f007000,
0x7bdff67f,
0x348c9e07,
0xb0198e3f,
0xfcd81005,
0xfe27821f,
0x4f000d48,
0xf99e8e1f,
0x781583c6,
0x36249007,
0x1ffbf01f,
0xd96483a4,
0xc25192db,
0x4ffb48db,
0xc92db6df,
0x5bd11ffa,
0xdc43b6d6,
0xf16bf77d,
0xfed01059,
0xb62f6bc9,
0xe0902ff0,
0xc86c3e08,
0xb39191df,
0xb3413200,
0xb77fb3bf,
0x876d004b,
0xb6900e9b,
0x0f23507b,
0xfc0013ff,
0x030013fb,
0xfff67d08,
0x0c0278ec,
0x5bf7753f,
0xe005bf28,
0x0726c9f6,
0x09fe01a4,
0x07e3ff40,
0xff5a7f7f,
0x2532fe16,
0x485193f9,
0xfbfe4926,
0xbc801900,
0x200003ff,
0x5fac8027,
0xbec85e04,
0x22f7f637,
0x4d6f69d8,
0xbfcfce00,
0x23d2a018,
0xc53e4f37,
0x44a140ff,
0x2099f60f,
0x9ca66cc0,
0x876d27b4,
0x47a26cff,
0x5dd04fcb,
0x003e6c06,
0x00be7bad,
0xc62f8cf9,
0xb1661fe0,
0xf83a4426,
0xdc182fe0,
0x47e383f9,
0x79b0a82e,
0xf7038159,
0x5d91fd24,
0xa96eb2ce,
0x093c9626,
0x20f2c9da,
0x2d97064c,
0x7f789cc9,
0x0968accb,
0x7ff3c9df,
0xc0dc0e5e,
0x06ffae05,
0x5fbee9e1,
0xbe1b008a,
0xce8a11b6,
0x000f6c91,
0x0d4f0fc3,
0x3c082d27,
0xb83e03ff,
0x01102517,
0x2093437b,
0x91697fb7,
0x1b6bad68,
0x1ff5b7b7,
0xd26cb608,
0xbcc44828,
0x90044c3f,
0x0bd00cc9,
0xc5bff02a,
0x3e664fe0,
0x5c059003,
0xbed9260b,
0x04d0f934,
0xf8836da0,
0xc72101c9,
0xa3241fa4,
0xdedc7c23,
0xdf236f34,
0x4a1f91a4,
0x4899eeea,
0xc033d096,
0x282f93c9,
0xf5479090,
0x3736fe1b,
0x3002406e,
0x38508696,
0x06e83746,
0xbf21c4c9,
0x52654edb,
0x633c90e5,
0xc7822aa3,
0xc73ba937,
0x022c4999,
0x3e46bf26,
0x1e93e809,
0xd96755e1,
0xe79e68a0,
0x6f936340,
0x5be79362,
0xffe66d04,
0xc09ff04b,
0xa52179fe,
0x0603b290,
0x8132b324,
0x07037fbf,
0x6fe0be89,
0x4febb27c,
0xe7835071,
0x40c7cf12,
0xdf81e6d1,
0x47dbb074,
0xc9672b38,
0xb4e8267f,
0xc85cb818,
0xf8fcfe97,
0xc81df9ec,
0x67e36005,
0x062092bf,
0x23fffd90,
0xc2e360c8,
0x7a03f037,
0x7e6266a8,
0xfffff099,
0xbf03f1e9,
0xff03b002,
0x506f10fb,
0xced3f1ec,
0xd906081f,
0xc5bf7fec,
0x780249c0,
0x4812fb27,
0xc7239e0c,
0x0f0385f9,
0x2184bd6c,
0x06b24107,
0xa487708f,
0xf78016ff,
0x808809a4,
0x38025ba6,
0x5d252f24,
0xc1234fa4,
0x25e04c5f,
0x4947ecfb,
0xa366c830,
0x36c00f7c,
0x0efe49b4,
0x0ed3699f,
0xdb7a9b01,
0xdc836c9f,
0x2364b20a,
0x86998059,
0xd3208127,
0xff43fedb,
0x7ed9b0db,
0x33401ec0,
0x0bf30037,
0x5e8ace19,
0x264c89e0,
0x05013edb,
0xf89289c8,
0x69db91a4,
0x3f1dcffb,
0xcfb0c9a4,
0x3e004f3f,
0x0ec8b201,
0xb0756dc6,
0x204d908b,
0xfbc24f35,
0xc8ed6d68,
0x24d99636,
0x9b2a6f4d,
0x96dd14d8,
0x5f93d8c9,
0x04d99130,
0x8a2649db,
0x04d3805f,
0xcde7b3d9,
0x17809e27,
0x4b7c6f65,
0xf0f87037,
0x309f8837,
0xa0fcfc36,
0x30747a6c,
0xf0de706e,
0xb0906e03,
0xbdd9bfe4,
0xf8fc0e34,
0x67ea3836,
0xf821f7f8,
0xff647fff,
0x40144ff9,
0x0d9fb23b,
0x8700b244,
0xcb7ff839,
0x0facb14a,
0x71dc15c8,
0x4fdcb609,
0xa06c7f8f,
0xb65616c4,
0xa580d7b0,
0xd9fd076d,
0xff93cf4b,
0x49bb83f2,
0x601feccc,
0xdbb0dc27,
0xf93ec810,
0xf822007f,
0xf7e43b9f,
0x1f9fb0da,
0xf41a0f53,
0xd800df41,
0xf8827e27,
0x0323fe04,
0xfa6c0800,
0xfc1c0040,
0x0807c1e0,
0x3ca10ffb,
0x387e5501,
0x05a34080,
0x472fe997,
0xb8272feb,
0xffb3760b,
0x6f93c3c8,
0x081b25ec,
0x07c3c82f,
0x9c99fcb4,
0xc4ea6db4,
0x249f03e0,
0x7b43ec4c,
0x7c90bc74,
0x3fc00791,
0xbfe648dc,
0x3ec0924f,
0x792f49b0,
0xe02e1db2,
0x7887089b,
0x3e4231fb,
0xc41f37cb,
0x341d3f98,
0x0f9197a7,
0x84c113b3,
0x79a29fd5,
0x873d1e91,
0xf07c0407,
0xf89c7e41,
0xf8fe7e0b,
0x7b4b941b,
0x34107f26,
0x78ef02cb,
0xb8fc05e2,
0x507fd72f,
0x9001b60f,
0xe7fc1825,
0x3681be00,
0xc6efff4c,
0xb5e741b7,
0x4e6897ff,
0x007c0bfb,
0xa360017f,
0xb8bec320,
0x40378dfb,
