const Word bin_dense_wt_5_0[] = {0x417fbdfff5b1d1e3,
0x304a9b26d74cf773,
0x108e4d5a2ae97956,
0x320399de98083026,
0x00e44e916ab824f2,
0x9266f175cb319c01,
0x8d3f4ff729f8e389,
0x757dff6fcdf71953,
0x199c93770ee6d2fa,
0x0f5affee6147358c,
0x6301840200db730c,
0xe1d87f6e999656ff,
0x26ee607f9657009d,
0xddc5426148171e86,
0x8c49e2623b32c5ed,
0x4bf1f40db667804e,
0x888dfb7aaa9f9e5e,
0x366e47362555e679,
0x5f9d0e7a159d19e0,
0xeda311c70b60e7f7,
0x83a7038546fa2abc,
0x66662229708c27e7,
0x0553fdb0904b4d7d,
0x2e8e33f708f00da0,
0x4a30c50fe20bc91a,
0x7817cfdc8808527c,
0x0195c0b753a2fb99,
0xf6fd80192d8b2bff,
0xffe40235ffae8a26,
0xcded15584a33498f,
0xc672650ce1f43863,
0xb5273744ad76450b,
0xf42e7038329df9ec,
0x1fef792330dd1b3d,
0x00e97742eeef06ef,
0xe4dd102204269bee,
0x60dc79e60a0ae000,
0x47fbff98545c390d,
0x06c8c86ec9e61e13,
0xa9003d94f1e0763c,
0x505f4e7827309fa0,
0x52880ddecd4cb1fc,
0xeadb4867421e62b6,
0x5611a280162bcc86,
0xfcf93e7de385504f,
0x7eda9237014a688d,
0x6e6b20a90df26e4a,
0xec63e5ae3061483d,
0xfc0886440c479ade,
0x4ea1a0593b04a9cf,
0xf4f0a7072b3b8e26,
0xe4cc757fdf3dda66,
0xcc22a73db714337d,
0xd196668e4b200e51,
0x6f918c90a096be61,
0x156f7a3ad7769600,
0xcebe933c1b800ebb,
0x3513a08a9603fa0b,
0x7b8dbcb1f60f4c37,
0x9c648d2f6e45dc50,
0x010fc4248eb1943a,
0xa9887bf4d6a3f808,
0xafdbef3f1cc728f7,
0x28cd1ad8b1fc90a9,
0xde79b0889fe99b98,
0xdf3cba444ccc7205,
0x8c06415cab16bc60,
0xf020c24e00c70316,
0x855941128820cf0d,
0x03737ffd7316e10a,
0xb13103f30cfdf67e,
0x506cff4722d4d104,
0x4ccecd303ab68f7f,
0xf6f43fdb98099906,
0x649ee51dbd0ecb9d,
0xfda285628bd8f644,
0xffc9537e6ef4063a,
0xb312e4e0fd9ab69c,
0xeffb00c3effc4508,
0x917cc33dbd6f8978,
0x763c313f3a9baf58,
0x13cfaf60e6e58efd,
0x2414b21cc0147276,
0xa3fc1338e1884cf9,
0xa033fbf1f4d4c97e,
0x8b504fe53cefb7b9,
0xbf7adb7e89b1323c,
0xd0df2dfba407093c,
0xad06b54502e1710a,
0x36592088e11c8088,
0xf210c89026200acc,
0xbf0ff3a3e3041836,
0xff9ccd71c080e85d,
0xc711e9198030cfbd,
0xe80b9792b78e20ae,
0xf308868b22c0e808,
0x073b0489183f2a1c,
0xce0198398e38f267,
0x917b86732ad62d0c,
0x8cf2f669099b5f7b,
0xde3a5967ddd8f6f3,
0xf77d1ffc8cee7be8,
0x198fb94380c4d0df,
0x5e3598718defffe8,
0x9eb84b02b760b713,
0x22331f84ece5fb3f,
0xcbba27f4db590c91,
0x3ba3a80dc75e84e2,
0x4be79425a22f32b8,
0x3d8b4240507ff300,
0xe5470c0ab7f845cc,
0x7f08b950eefbfec7,
0x8efe25d01eac9b82,
0x76fd34806e6ee50a,
0xffeb96e604d2f344,
0x76217a0eea87933c,
0x882bf72900e60673,
0x7630477bc921efdf,
0xfff927d7fc6ee7e6,
0xbffd2280c66d3c00,
0x0eddc48764ea72a9,
0xafb936be7a089fee,
0x3f8c944e63122d8f,
0x0fb3004d6fbd9fee,
0xcc9c39628edd8874,
0x680e392d08426504,
0xf37b06e837a2de02,
0x5d84344ec7983202,
0x2baf2a8c7fed5d43,
0xd6ffb72cbfedcf9d,
0x0fcbcdf618f06f48,
0x0b73ff8870cc2300,
0x81a15cfe0f9427f7,
0xee7ac8152b49d0cb,
0x24ecc19a755a35f1,
0x0ebaffefe2c013ea,
0x11001950daf22f00,
0x3f5e3cfee0b2b55d,
0x5211bff795fe4280,
0x51fe7cd485ccf7ee,
0xed20a8ed9ee62ebf,
0xc582d7fa68e06613,
0xd899f6a70dbdcc40,
0x51f0d727b7de2844,
0x80ca64722a02fb6f,
0xf80c320a16329ff9,
0x86e2eef9ac7efff5,
0xb1a0ef778102feeb,
0x3101e880f994e6af,
0x5b06552cc8842151,
0xfb9fdce8c378a348,
0x6d089df908c71a46,
0xd67ca7440e6a4d7e,
0x81472260b3907a76,
0x0060d234e2395b79,
0xe1bbf02c9cdc8c88,
0xd9e1633d1810eaa1,
0x9040dfb90220aee9,
0x8ebc9c4203261732,
0xf777e6f103635977,
0x1953a7800737d1af,
0x78c9ee6317fbb6e4,
0x99fdddfdbffc04cc,
0xf7e7086e8c88dffb,
0x68e7bebd72ac5c3d,
0x25547bba0c73ab93,
0x976e72a228c6dfbf,
0x9939efffeb5f94e0,
0xdb714033ff23df65,
0xa7c2faa68b4017bf,
0x68c8002338c07a4a,
0x51a9b3e06764f675,
0x718577e608010c58,
0x9e227ac45fa37a80,
0xcfc1b4ce3296fffe,
0x18d65efdc8717ffa,
0x66ae37761dcbff6f,
0x81b6d8992eeb8811,
0xdf939f02727ffbd9,
0x57444ae7ffec9e2c,
0xbac41c6eda3ed3b9,
0x311766376ecfd8ef,
0x75b3742b6153d57a,
0xffca8a2fcc7fbba8,
0x9befe3780255a124,
0x4d4cf7dfbbce4003,
0xf6cefeee75f747cb,
0x3fb3004dd0fe8487,
0x2660ef76cc75dcb9,
0xcc9dff7c8dff04cf,
0x7334bfe42054dd00,
0x51e436714ccf605f,
0x4deeae97dba4f554,
0x0e6f68319dd9a6f6,
0x0e5f4005ccc8f95a,
0x3effebebffe6efcc,
0x706042ecf67eb562,
0xce8deee109dbd7fd,
0x21f361df23c4805a,
0xe66c44da9e18de4a,
0x61048a298dd6dfbe,
0xe5c4cbff1080d62a,
0xe3abab77b392a204,
0x7b6fdd53d42347ff,
0xfeff4c9a6edd0023,
0xdae45fded7bb7eb2,
0xf2407bb45132ffe7,
0xd0d01541afeede88,
0xeeef04cf82805dbd,
0xfeacd33a59176f4b,
0xfe6fe8f9eec8f485,
0xbf1e62b8ffff11f8,
0xefffb06eadf57a04,
0x223c160cccc689fe,
0x740ad6afc7fba5ab,
0x538873ae1e4a075c,
0xe4dcb8431894fa27,
0x1190ae6fc2763f69,
0xdbf58cf8c2ec0645,
0xd3f6f7fb017cff6e,
0xecdb73ff6d20bdfe,
0x35ccbaecfef730ab,
0x141a194d310d4eef,
0x36355fbc3944e8ff,
0x1475910ebb2e0f6d,
0x3af64abd027f379f,
0x0b80037c4e990540,
0x4921b9ffff3f8aef,
0xd1c9fefe88e47c00,
0x7e38d86bec7d732f,
0x8fc0d84c8ab0cba4,
0xdb6f4953772f92c1,
0x8499ac68f1f0766f,
0xb483713af7bc4ced,
0xe8c0f0d7ffecc5eb,
0xfbf6b67cbef2acf3,
0xfe5ac2c7ce1b4891,
0xbfa0f399f6fcbfec,
0xfff6d2ff936ea26e,
0xbdf4290de52937d1,
0x005604a15cd4c26f,
0xdbe411021aba5b80,
0x298edcb9b37a2f57,
0xd8732b10000f31c0,
0x01aad1b8f7af0f98,
0x4f45909e999c29bf,
0x8af22c2895bdc89b,
0x4715a9694155512f,
0x156eebce8e3bf7e8,
0x3f470209f86e136f,
0xeafee3d41862c11d,
0xb8ce2d50622f662e,
0x1035c62d261c04f8,
0x6cbcd86e98ec0e39,
0x314e193fc9e5f037,
0xec2e472142eb688f,
0x53cd9181bef4af81,
0xbd2eff8c1d2702ef,
0x840cfa3a055c4899,
0x0ed11b56cd29fa08,
0xd6bc0ab43601a048,
0x9271efef41c434f6,
0x8bdf8864cba659aa,
0x177d1b38579d0bd8,
0x6f130533cece9b90,
0x0f5adf3e487f8928,
0x5b114000a533d3f7,
0x9880213bf7aff6af,
0xba473928cf989ca8,
0x82fde329aeefba04,
0x4ce011d3df7158ef,
0x0856df086360407b,
0x8f1c313ebd7bee58,
0x82ff00f366b7c6b1,
0x02a5832b0d201bc6,
0x30c0ae911afaab08,
0x15109c0685804c74,
0x9df04bac2d012be3,
0x706d248d6f9a589c,
0x3e1c87eaa5a0ae10,
0x0910003b23d83eac,
0x5c4f4c80f0ffa24d,
0x8ccb0a9881820850,
0xf68efff6c992493d,
0xcf960a02018868ac,
0xae1081e5592c75fd,
0x1f14341a4eff3839,
0xb11048086c6515f5,
0x61df3373ffd304f0,
0xbfb023b8b3649cbd,
0x42f33541c60af5a9,
0x242807b2d8320d9e,
0x47a825c86731cf32,
0x03bc01b251c980c1,
0xf297b7f3d698f66d,
0xb3d7e62473077e52,
0x0cb301be7c27bb14,
0x13bbcfedf18c89ad,
0x99889c4b9a9a517e,
0x894cf7771d817c04,
0xe9f30c000ef30a0f,
0xbd3a14854880aa20,
0x180b040188af00ee,
0xf750e6eaecc900b0,
0x006c8e3d7bdfbf71,
0xcfa8c760f5109583,
0x80ccba49094e6f98,
0xc2c9e4900089a050,
0x443c0ef7e0c6100f,
0x5e9dda39fa3c9f57,
0x72f0fd8c3da0e6eb,
0x1787bf3ff7205cc0,
0xb7ce5f623d4abef9,
0x510771028c2a0304,
0x1f563b76089080f2,
0xff391020f77effa4,
0x099f293815af5000,
0x301274c031205fbc,
0xca83a9341801f18f,
0xc0a32ff39134573f,
0xb003f1b6c012ef10,
0x2e20434f833aff03,
0x58348d38e300013f,
0x8e680c789c4d8080,
0x8d8966d6e3699fe4,
0xe91241105bdc65ec,
0xfd0b3ab300401c3c,
0x6060772634ccaf8c,
0xa8c810404cefdd08,
0x1a8d7c250e409110,
0x485d1e492828427c,
0x0ca036c88ee6f4f6,
0x0916860120762d24,
0x241678803729d91b,
0xebb337993fbf7798,
0x8464ed08c83d0944,
0x0f1199723c970633,
0x08d98ceba7c1ee90,
0xf99ffa802318e24e,
0x826ccd5d2319ba3d,
0x6212c1390ed4d5f2,
0x95ef0144302c2eb2,
0x08034a3db837f436,
0x4c2230ea73d5f1cc,
0xaf82634038b85688,
0x0e407bb7239c2f55,
0x2b5f6b1c8863ffc4,
0x7e97b4897fd03064,
0x0f2b0fe2ffb14209,
0x0200e9bbaae7f616,
0x6e108100fe8d213a,
0xe766384d1ee70300,
0x0c3776ba0915bc87,
0x99088b259880caae,
0xa10c26335f66cbfe,
0x379e0318a857081c,
0x8f620085575c4458,
0xb273216565591391,
0xaea7b18fee901100,
0xbc1f80e1be737073,
0x00aa1ff61067eedc,
0x9b0b4bd42d0d7d67,
0xf0bf45180882ddf3,
0x9b0311742a8857cb,
0xaef70ae88021a804,
0xe2005244481568c2,
0xf34285606653f4c7,
0x42085d050d0e1230,
0xa26eef8788574896,
0x8007d00e0d78a504,
0xf99a3bf975d6403c,
0xe6e713631f00ed78,
0x76c814601b9afdef,
0x008177fb3e03df79,
0x556b5c514b94cd48,
0x07eb1818c6f04000,
0x9fc2374d14010180,
0xed57b89486ddf7ee,
0x2c40d9dc2670d300,
0x2e9350075eed758b,
0x4ef0c9b03001cabf,
0x2cdc2f53800f2af9,
0x74d6afc23a199b14,
0x91e9cfa3c4ee8b6d,
0x97669bb902083017,
0x022001ccffd10910,
0x3a7f6430c8db9735,
0x4ef8eee9fffd5fd8,
0x2c0065ccaf7f4cef,
0xe70d26296bfd8efd,
0x79ea1a855c557c43,
0xbe3e77d49705a4dc,
0xc6732bd0e19b1a40,
0x37a90581fdcdd6e8,
0x95303971f7728c09,
0x7dd04588d7d2d5db,
0xc89e75ed44ccbe79,
0x2eee6fc827726c0d,
0xf7ff3a314206766c,
0x808a0053dd990a90,
0x2ff3488e12344e7f,
0x0de0016fdb0508c2,
0xb4ffa6cf72d42602,
0x1b9472b0b91599fc,
0x27f8380dedfd677e,
0x9abd1b838e6e818f,
0xff3cd9f72ff43078,
0x1008ceed95f3033e,
0xa65cb17b35e2f0b0,
0xa2e17f3f1ff1f0d9,
0x06f9a05c32521448,
0x35df7304f7552676,
0x94d9617ed9f331b1,
0x3325f65d26ffb604,
0x8501902f30c92ff2,
0x5fbc74c391a408ee,
0x42060303404c271f,
0x37378df8187f52e8,
0x63340ebb1a8c8488,
0x414905ce6ff2aeeb,
0x039c1689425ce41b,
0x7e7d15a054335f4c,
0x8b79fa4b88193f6d,
0xc4be96253711109e,
0x018b100cf0d81dbe,
0xab7d86427b178445,
0x082008be048d7408,
0x267cf00d27f7d311,
0xffa1444c3246029f,
0xc044e66ccee177c7,
0x05c05fe7de677f59,
0x00046bc6670a3d46,
0x2a06cdd145cc82d8,
0xf88fcec514233b97,
0x2b8abd8ed8d087f5,
0xf37e63acb669edfa,
0x748f6c16eeaf3817,
0xb9fffc85214bb0b9,
0x080848f9fdd90812,
0x000cc4eeb9879b73,
0x58883af7db01e883,
0xf991be7e914cfb39,
0x9270a380929e9220,
0xd800d4bcd8000800,
0x4913b4f4f8888e85,
0xb38e397dc02153e7,
0xaca33462045e9f6e,
0xb4eed73e48c2ffec,
0x80013f7ff7fd5ff6,
0x79efed16eb8b5aee,
0x77e5b628f239c884,
0x49cc3fe503dd10f9,
0xfc4e1c1c8037ea8e,
0xdc0a675dd8bbb39f,
0xda9c0547ce3acad8,
0xd99a90084b9ef3e7,
0xdffc6011400c8cfd,
0x018fd3a8ded838b2,
0x70a15dafc01910fc,
0xcc0ec01c921dc40a,
0x1184c296f99bd3aa,
0x03abec3afbfc3b4c,
0xb14d9b1008f927e1,
0x9ca518f312b13e1d,
0xf1f6fb99d7f7f8bb,
0x00417ee224b92044,
0xfb9811efd970b109,
0x54f3dfe6c8409c02,
0x39e6819c08720091,
0xed7fff19b319d62b,
0x7faf23b5ddcf8cfd,
0xb33a4be1eee53200,
0x3aea10b5888b1ccf,
0x5cde0e819d8ec2ff,
0x8dddd2ff90506ffb,
0x1e7f3d6a3a38f081,
0x070afeca40dc7cf7,
0x822887b72db9d17f,
0x5ae5428ffe895dea,
0xf895f8152485edbb,
0xf7753772bc450ed0,
0x97ce3d995d80550c,
0xfe7f6611f02cfba2,
0x11377ff3b0b002c0,
0x9fb2148165cf13dd,
0xbf2272a3f40696e6,
0x21ceebf73f293e5d,
0xea8e810cb7061c18,
0x5b15b35970c77ae4,
0x515eaccd203cec72,
0xb803dfd180c99b2f,
0x13008017ed837032,
0x79fe091171b8b5aa,
0xe61d157dbb9cc877,
0x5310aeaadee31b00,
0xd6797bef8fa8dcf6,
0xfb4f286fe125cc0d,
0x78af820201860cf2,
0x7f01b071b4c9dfbd,
0xec72f8739ff070ab,
0x15eab939be6ff9c5,
0xa00ba1fa00e2f763,
0xa180dfc533116946,
0x3d92ed7cfc09b817,
0x4237d27b4140c493,
0xbee52be8c35144c0,
0x119b05b9768c22c1,
0x6c2420fbc576b5cd,
0xafe07a04af7732fd,
0x44686c3f849f7fc5,
0xacc6df419bb67cfd,
0xb73f3362699f3807,
0x8203225c0dc8b7f4,
0xf75bb0ca2dd017fd,
0x2df51e2648938288,
0x4db046f3effa8ff6,
0x2f49a56099e06dbe,
0xa024ff1caa3feefd,
0xe4b131407c1117fe,
0x11423d40333af7e3,
0x3b3dffb02eff4191,
0xbd34a205fed41de5,
0xecc0a391c255cd9b,
0x84089c12ce4ca852,
0x81accb473f48babb,
0x28075f5683218015,
0x367972009cbfbae3,
0xc4ecc092ffbcc002,
0x5fa2e0855becf12f,
0x0edc3441dbfa1980,
0x6d02f34680de0437,
0x8df0fb819101995d,
0xbac4a04dbd837911,
0x237ffd09807738df,
0x17b65f4d97ff901f,
0x31955d6f749c7c44,
0xf56df176b18d420c,
0x4fe0c804937d93fb,
0x01fefb1f704dc288,
0x8fffdbe327410622,
0x9c5f751b2d14b77a,
0xa11fedbbe44fd05f,
0x0a6160bfdc94c6c4,
0x3ddd09527f82fbdb,
0xee631df0f44237e8,
0x5353d8edeffb066a,
0xae45485136131bf1,
0x00136795fa9341df,
0x33851105b0d443f4,
0x1d67b8698ca88e50,
0x6027b8160234a5dd,
0x9cfe7ecf8fb1f036,
0xbc0f81041998b9fe,
0x3bfcf80983841cf7,
0xb1018710a93a2f75,
0xf4f3800afeb7eb15,
0x31eb500d904d3780,
0x65a7cd363ef1f9d7,
0xd567cf008066577a,
0x06ad0686fb80f517,
0x8ad58c6abd00c1d7,
0x3ef7a4c49000c72e,
0xfa9db309c6f197d5,
0x774ff641e62a3ceb,
0x7e5c377bba819a98,
0x1bcc177537c986a4,
0x0a55bc420834a9fa,
0x3d523d191af2b532,
0x7cc608dcba6777ff,
0xb226e004ac0fff3f,
0x49ce7231fcdfbfd2,
0x62e56b53bfaa7218,
0xa7fcaef848fda2aa,
0x6e44f8f1467f0090,
0xc7d0bd2abc18f91b,
0xc88bbe17915f8f31,
0x4eb490678c0a15b7,
0x8a4ef49b8ebba801,
0x5875cbbb8443ac0b,
0x4f603a64f7bf9ded,
0xffe80500dafb47e0,
0x47df6603597cd6f5,
0xe5603fc3adcd10fd,
0x3f324670a252309b,
0xa822925d9021941a,
0xc4e412299378dffd,
0x33ff73caff04b797,
0x1ff3afbbfa0b277f,
0x77db1b182043ae76,
0xab272f6fba7340dc,
0xae87a9ef07765f3c,
0x9c0e04108e3627e2,
0xc5f06e7d10c302bd,
0xef20233d7f2e16fe,
0x0ced72f44271e443,
0x8bf46a89464f4234,
0x22707b36dc597f8f,
0x9f01c6d4c83efff3,
0xd89061baf0484280,
0x412d5df549b95efe,
0x7e893b318decb6fe,
0xb766e4aade670618,
0xdef0bcf29b7acccc,
0xdec0cf0da13007a0,
0x1039346bc7aec9c1,
0xb6357fcd35a885d4,
0xbc350a7f203c4c2b,
0x069bbc5816af90d7,
0x7b4d9f3cfec78e2f,
0x57ff9ff81effe45b,
0x1bfd3247047b7a40,
0xc8e8e28c7e2aacee,
0x8bccbeebf559abf0,
0x0e33a1eb49aff6b5,
0xadb356ff1e6bf8ae,
0x8cec9ce388971076,
0x341309743b601971,
0xf7f7f4ba648f0015,
0x5d18ea14e705896b,
0x4ee60efe52d040f7,
0xae00ecf4f6f82b2e,
0x09d521c4efec8fcc,
0xd5abd33b2bb84e2a,
0xb3763acde206fbc4,
0xef5466d8880952ae,
0x3215a3b52d3f29e0,
0x81080b3d9cc0511e,
0xeb7782330e01ed3e,
0x46e4f0ff60b9eccb,
0x33af928d18d91b0f,
0x7d07504c43360846,
0x46a0cdf7b8b21971,
0x2038a9a25a37fb8e,
0xd3f6f94585b6f0f2,
0x992a7ff580e68200,
0x84c17a77b8b5020d,
0x9778f01a970bca3d,
0x9f54d71bf673e37c,
0xc0473401981b2ffe,
0x332fe734e40363dc,
0xf5d18f3d421a7c14,
0x79ba09dc485e4050,
0x8177f9ba7009db71,
0x00ae7621073d937f,
0xfe82293b89ff22cf,
0x080c1f0af3bc6bb9,
0x11df4408cafe2480,
0xa09648027333389d,
0x6fff0459d195c11a,
0xb5bdde60fe4eba7f,
0xb930b04756ff8c72,
0xec324312ea7ca812,
0x0190dfece51ddc99,
0xa015610a37ebd8b8,
0x8424f15faee7c2ff,
0xc005d8ff01a83710,
0x71b75cc54bb720ef,
0x04f8416f8c8c5096,
0x1030396da2f4103e,
0xd9dc7e3b0119b002,
0x39ff800071a150e2,
0xcb399aa627643e77,
0xcc3bf5b770755002,
0xc222d3f70da7e3ba,
0x528d0027d0cfa6fb,
0x9be92422b9b76a1d,
0x05fb564250cf6438,
0x28dc248c5a7b86ba,
0x108dacdb0379bd44,
0x830bac0591fdfe56,
0xc001c03999011d0c,
0x886d90cb6323b02e,
0x7330ef7119db211a,
0x0e7f43cd10778368,
0xafd45641188e7fcb,
0x1933f2f67ff4011d,
0xaff503e8ddd5f732,
0x329c35ff6b32420c,
0x01f6c9970d99c2c9,
0x40de8a07b5bde8c3,
0xc873f245d091382e,
0x231306ee000297d7,
0x1f90ebb49c0bbcf5,
0x00748147b4f7630c,
0x7b7c4b5c5ae6bf02,
0xd0dd477d9371a73e,
0xd8854affce67101a,
0x33b969fd9f886822,
0xeb1318eb832489d8,
0xeb974219cca77f6f,
0x211d18c031744b1f,
0x602593a0f9f006f4,
0xc5253b19aa20ebe7,
0x0f3fff3f4560078d,
0x3d25cf10a6a71d49,
0xf6a1b2204a9a0122,
0x66bd9e713697256b,
0x8f1ebf46229a5e7c,
0x12728b65d376b585,
0x6f8deb32c409d3f0,
0x17f02252cccdf077,
0xb34734688a7405e1,
0xc79f65c8b11336eb,
0xed16a1bcb4cda682,
0x81af537c511b6a11,
0xff6c331b28db0513,
0x7f741d98c8a6ed49,
0x0c1c6661266d6b90,
0xcfc3b3d5b7089668,
0x44177fbd000436f0,
0x3d2dfd32b66c5844,
0xee19d8323710bf3d,
0xbfabeabb80439537,
0xcda702a01a7a9bf7,
0x22ac33b54a8446a3,
0x1fbe9c553b88ef0b,
0xb3d8ab3cb93bfae6,
0x2eef351b644160c6,
0x139a770d94aae70d,
0x004bacbcf853423f,
0xc7a1fb24c59027ab,
0xe7f692ff1973292f,
0x71630d24702f455f,
0x130de20ba35ada18,
0x423efb702a40e359,
0xb9af341f67dde6fa,
0xd3f50aec4718ee63,
0x3337a71d9b3bba94,
0xbf2ae2e68cdf1b37,
0xf61f7b74b76fc587,
0x42243531fa1b4f7f,
0x2f012a63cfe3a308,
0x42091ba32237a553,
0xec4b62ec3f10e864,
0x11273b745e3a059e,
0x088694d346469d3e,
0xd3c42f27022f0231,
0xf48d9c2f8828ef61,
0x06e704491364c362,
0xf721f67dfbf28005,
0x0163c676bf755738,
0x208fb331cf88624f,
0xa6745c2d79fedbad,
0x7d6c2bacf7ea8161,
0x213fb82de15b6b01,
0x27f61b36550bfcd0,
0x5691a170b7393071,
0xf78e393f4c7c3349,
0xb185d2b7cafea277,
0x3301fd2b4f1b2654,
0x97991b1e801d6384,
0x11b31ff6cad6192b,
0x780b1aea8644ea9a,
0xa3f94d7ad39ef5ff,
0xe42120cbc3c5b755,
0x6cd2ee084c31d07e,
0xa227640237e8af61,
0x11126bf01a0e0af8,
0xb59994d7f383ee01,
0xb70ec713c6e80644,
0xbdd17e2e75800e5e,
0xbdff596e9f004064,
0x7751fc0315acec7b,
0xfed30e24f48f4dca,
0xd14dbde3a6433a62,
0x653302328f8ce312,
0x6166ee54dc860006,
0xfe031398711450ba,
0x6650fe07dc1b182a,
0x82d9ebf14401d58e,
0x2d06c8aaf33ebe5e,
0x7731538c08c7c08e,
0x6c7173a183701e6c,
0xbb70086332cee898,
0x306e470e2e10ba11,
0x2411e513f43ca716,
0x1852e4406bf27506,
0x1c133c8691771ae7,
0x00d36080c0446884,
0x3138be3083e78fc1,
0x4dc232f76a7e1f43,
0x2713f4306488bee2,
0x471508f0798c433b,
0x2778f5261548ee02,
0xfcf0f714ae41316a,
0x68f3f7e09f09a65d,
0xdf323759ea994bb1,
0x4e3910b9bc8866e9,
0xc0972648df0e36c7,
0x7342fb74fa675091,
0x7b177760ce53b914,
0xee9f04d95c45fd4c,
0x1139248cc5275220,
0x7fc08d98a18079af,
0x4300c0b0dbbab577,
0xbf8037dcaf884832,
0x116817b33827f481,
0xd28df49c1220dc8f,
0x5aa8ae0eb3e7ee17,
0xcd08f7c1fff96bba,
0xc8e8099047772182,
0xec81106145c17c01,
0xcc8cccd57a13c821,
0x9ec5d66016dbe964,
0x7c02ed0fc89092e6,
0x89c30dfd9d32cd86,
0xd00a7665bace279d,
0xbe138bd2ca15fcd9,
0xd6294797d272c692,
0xaba05b10fea85a00,
0x7c8732c9f44a3a22,
0xafbf370306f10b75,
0x430ac631e5ef90ba,
0x8fd5f704fcf59187,
0x6f18550ba20be953,
0x2000671018f87f54,
0x3efd4350fe3a35c1,
0xbee7d5049cabfa38,
0xfff3b107d032b851,
0xde037222af60d498,
0x621f34a0890a1c93,
0xb646571912ab5913,
0xace63031c03b84c2,
0x3567ecbe37d57bb1,
0xdeba1ce2ca7733b9,
0x8c4738ab8890f5d3,
0xfeb817ad3417672d,
0x12896247e60c1fbf,
0xefe0073010e30ce3,
0xef79bd890db16001,
0x317046203b958ccb,
0x006b84f32192ce6b,
0x016dbaf2cde18eff,
0x76454768dd9fa4cf,
0xb673c0670013c8f7,
0x0e80a77f5d203b21,
0xeccaec372fa6f069,
0x0ce300e4ad601660,
0xd0d0913e0c8db86d,
0x7e49ec81861570eb,
0x901a49a1050301e8,
0xe7a50af5d100c033,
0xabbbee85d0376644,
0xbeddc5160d10e733,
0xff1d6a783f9aa232,
0xc5006de5e81c7a08,
0xc8c7fa1f8c46cd46,
0x987fc495efc4abb4,
0xb2c9404fbb18cc91,
0x7000912dae372cfb,
0x36c97aa3fb922ecf,
0x0846daef1982fee9,
0x0ba704222d8561f0,
0x0b75ff816a47e660,
0xfdd458aae7b901cb,
0x9f009b7806c60917,
0x7cab98077aeaedde,
0xd3d1a6015822726f,
0x4139e0b17b8050a1,
0xf4eb82ea80730bb0,
0x28833ebdb8e1bc82,
0x2848b4b05be6eae1,
0x89ff084580050931,
0x75d734c308024d66,
0xd94f5c49fa119f48,
0x97f3fea3fbf9be67,
0xa1d794fabdffceef,
0xee21b8e339141bf3,
0x3ef6a1bee6df7f83,
0x4c59631be4d6190c,
0x90048a1910f3d93f,
0xc020df0a70b690e6,
0x8f19f001bd501523,
0x8632ff2c36ac617a,
0x7cc8f568a7280790,
0x3800fee9dfa85d35,
0xc8371ce200406ee7,
0x5ca015456ffd3510,
0x1cc0d00058099fc6,
0x96f31be4848724e3,
0xe735ff9320024332,
0x8180d89d6f28e768,
0xcbb95fdbb3beaa8a,
0x1c565ffdffea9afd,
0x8fcb10d0fbb0fa89,
0xc9b334767f4bcb59,
0x087f556d0119955d,
0x7fc0287eb0a0f93d,
0x8f2672191805a144,
0xc19cddcdfbff8307,
0xec80ce8877f6f3db,
0x36f5e85dd85d201d,
0xf7f6efffbdf3d6ff,
0xcd3d7f13fbfd80cb,
0xd686ff58307cb3bf,
0x337f4634dfcea37d,
0x7d438c573bf8fedc,
0xcf2d40c1eb7b02f3,
0x717f7b2c57e1c21e,
0xbfde277bff7effdc,
0xf152220c6cfff953,
0xf80dfefe8bdd0ffc,
0x1b824efe01ef4b46,
0xf386528894489d18,
0x6003ff7bdd90bbfe,
0xddc40104a202e27a,
0x8f2e0c73bfb9f30b,
0xa8886dc7d80118c8,
0xffff9c8c4c81063e,
0xf9ec733de73d3b92,
0x9fb4009653827737,
0x76d917cbffe1f39f,
0xbf8786cfd0a85b48,
0xffefd350693d0c8c,
0x219e8879e6e42d54,
0xd9de72b8fde700c4,
0x2fff777fefa55244,
0x003438a674cf1af8,
0xe4699cf2ef3b137a,
0x1005c1a68c1805f4,
0xe0edff503700e888,
0x42e12d6cdfff7d71,
0xfff5fcfb45ff9c24,
0xe3167c9396487b66,
0xfc88331f9963bd23,
0x7d4df8eff876e00b,
0xf8dfcffff10e0df1,
0x1a11114e7d4db8fe,
0x0dcc89ddf300266e,
0x4e73221ddb77120c,
0x4dde662c18141108,
0x424dbd577f9fa7ef,
0x2590ffaad2f7ffd0,
0x6a9380037bff7f20,
0x8df4ec480f7b5b17,
0x31f6920e7409939f,
0x009b2f6e3ed81003,
0x15dfb3135fbf0471,
0xe8def8ccffbee7f1,
0xffbe68c54f720181,
0xde72c84e7f38eb11,
0xf8ccf7abf7e6f7f0,
0xdff143ed136db118,
0x61c40b04f47dfaba,
0xa8008090f931834c,
0xdb90c9944c9076d3,
0x235c308143c0868b,
0x1b48f20c6728dcab,
0xc6d9909d7f99c9fa,
0xe26cdf23838af5b0,
0x01290143e4558db9,
0xdfd7fd57e992ffba,
0x9321e3ff75b9f3b5,
0xcec8d98e8a54c091,
0xca28fab3fef6a119,
0xe7fb517de82071b0,
0x1eb6f708b646f625,
0x7bfdfec971a4e6e6,
0x7a2ee600104f0b3a,
0xea36fb25981eef7e,
0x426cb76b2119f30f,
0x036afffe2210e135,
0x366c1919f65b83f4,
0x8ed7d4641c638f7f,
0x3b7393312de3d400,
0x9e0d460cdf328d79,
0xd180ab3d620bac16,
0x22507110e711ff78,
0x5c27911f445bd39c,
0xd5c2f17b024b8031,
0x1b9fdc192083b7ff,
0x8e98babcf1172044,
0xc000518a31d0d994,
0xa1df4494e7c0f9a9,
0xf339ff91efce776c,
0x2a25b488ce046724,
0xe581f08035b6901a,
0x296198e136d1c5ef,
0x77fbbb93f7351ac3,
0x0c125fd2fb041704,
0x8f72f028f88064be,
0xfd30dc6e942be7c0,
0x9c46647377974d52,
0x9b3d07cc7e8cddb5,
0xe5bfd02932c89e7c,
0xc00adec8e2eef1d7,
0xf5d123f7ccd1cde9,
0x4ed3e6adbf887df0,
0x8e33afdb52a5a9c9,
0x7080cef37feb69e9,
0x831721007f936c31,
0x90809dcb68903370,
0x105e321fdcd0ee10,
0x5f5d80a703408e21,
0x728014807f7b7f2f,
0x37af0489644e0451,
0xf9ff04ecccd31536,
0x7d14cf8f28c27044,
0xebd97f669fc64eb5,
0xc657c892bace609c,
0x652ef71df9110664,
0xf4d8df79f986ef56,
0xfa93f3debca03d3d,
0xc97d32333f73fe7f,
0xbf712a06000e932d,
0x478be046fbfe5ff7,
0x0919c14877f9a010,
0x7dd656bf2e0a0a2a,
0xb13c9e69c0148e60,
0x0404bb5202ee983a,
0x3614c8944f734824,
0x8fb6c0afcfb4e138,
0xeccf6e204a7d5ea7,
0x73798d2b484f4644,
0x013e02a169ce9314,
0x849be53aeb3fc2de,
0x8e0e226f9e8e0813,
0xd91745e18e8106e4,
0x3aefe3ccf6a0f734,
0x0020726acedebec4,
0x3a628833022eff3b,
0xb8cefe06f0389032,
0xe1a16f4b765947d4,
0xa695f64e046770a4,
0x70f26e1e000f760a,
0x01a160c6d3f25c32,
0xc76d87fabff877be,
0xd1297dffacc7f20a,
0x4012c856462f1dad,
0xf347000f36c27508,
0x31fa3c07a3128cbb,
0x0914bcdef2b65764,
0xe49c6a15f1c66710,
0xf30c3b04b7275587,
0xff71cfb9d2a09c06,
0x623ad3f4d6c6c244,
0x022133856e4c7577,
0x083ba00250a7a8de,
0xce8fcd3b5000607e,
0xfba1000275a406e5,
0x0c6f3fe9bd5f6064,
0xcc0241bf5916f184,
0xdfff511bd8c2bf3c,
0x3b3640b0332841d8,
0x18d1c6440b5f7cde,
0x77deeffa4cc7f000,
0xeccbace7277b0bc4,
0xf37f57137ffd6c01,
0x3231e2f0cf213343,
0xf4727f7fef513108,
0x78d25f43e3f5ad20,
0x042ead2b6f7f76bb,
0x6184b258af7e7fb8,
0x31308cc494822243,
0x662156b9b01cf639,
0xd4d39c763ddf9043,
0x4420c708f518ee27,
0x1705fd111699d2ff,
0x311eff30f34ee38c,
0x629210ff9c930ea4,
0xc2ad0d0171c0db73,
0xecde1146b2504336,
0x26091000113e85f2,
0x864550c404826dec,
0x7bc8fc79106112fe,
0xf40f0742b1df1db1,
0x0c2ce5037f7ed69f,
0xe88ffd2c5f177089,
0xc3c2670de518e55e,
0x7240f42da7f3cc4c,
0x343cd7195d65821d,
0x6729b547e4062c65,
0x0f6571136e1ecf44,
0x48f35ed7edf772d1,
0x7faf56367372dffe,
0x862161281f29437d,
0x8227350908e762e2,
0x1063ff22511bd39a,
0x7f79efff3f478340,
0x4011d03fc157b9a3,
0x60cf26cda71db32e,
0xf6b5bff64470eeef,
0xb2440742b2ce1449,
0x37be11b0c866917b,
0x111096c3f836ecf7,
0x057ef83031d00ea3,
0xf79e00013fffce09,
0x8f15bebc6de32665,
0x332a69e1ffee5fe3,
0x309e7fc19defdcfd,
0xf39bbe668a33669c,
0x839fab2a81a161c1,
0x03f82f3f318f233e,
0x463e1038409b819b,
0x857c1065756ebfed,
0x1345405fe3ec20fb,
0x8280bac5f1bec4fd,
0xb2fad9fc3710cbcc,
0x521bffede37b00a3,
0xf1fff415dbec3f7d,
0x005eceac9ed9c210,
0x48108afd24d4662a,
0xe1c3f7ce499b4d12,
0x60dd0f3ecec2deea,
0x47ae0ce5858cffbe,
0x100692026039ff79,
0x3befafffba676044,
0x0de688fd0555df46,
0x4a4a1c9529812f84,
0x39cff70b48efb018,
0xe21ec9a48cfd94f9,
0xef80bfbd3ed13b40,
0xe27d44d08a4b1d5d,
0xf11e6d759b3feeef,
0x80acdca0d17e1333,
0x2077a431913d8019,
0x133c73f916f19de7,
0x205c11273d33faaf,
0xdfffc930137a0545,
0x7f7f73020bd17c3b,
0xb8d3a6c2c3b1e98f,
0xb754e7eedf085ff5,
0x0fd8acdfbbf9640b,
0x6f2f8cb6a8e3ffe7,
0x60c504477eef90d8,
0x3d56f37d96e60258,
0x207f4e008bbd622d,
0xf836a67ff9724013,
0xffcd2423eef34ba7,
0xef73aa3fee6d0495,
0x5ec11cd80022d36e,
0x11e2f33048dcb3f1,
0xf93e372e91105ee7,
0x1fc777ec184c8035,
0x015febfe3194dff6,
0xdc9717fcbe0f2767,
0x005eb7b5b32a277f,
0x601f3337eecbc73a,
0x8a0e36e88ed453c9,
0x1cf59838df3105d9,
0x24fb7d531ec8b6cc,
0xb84a08029ec34a34,
0xf0cedc77f4abea0d,
0x2318cc9150040d11,
0x200529e2cc8b4cf3,
0x074e24f3322c2be0,
0x350d27201ee46bc0,
0x22241e7e88e2218b,
0x3f608b85be9f77bd,
0xff8467c37e8c6af9,
0x74776bd3ea7006b0,
0xf6d4e2897fa3fa31,
0xe6d2470ccae63730,
0xc0356e3a88ae0191,
0xe9902c2233fd679a,
0x2f9bb8b77f124e0b,
0x5476aa860ebb61c5,
0xcb0bbf5202ea1930,
0xdaf9576524ef36ff,
0x0003890007ff5d13,
0x9d112e42f2aaf5e3,
0x606d8744fffb1fc6,
0xfc310930ddf87760,
0xa02a080fb2e9081b,
0xbf89344cd6f1fdbb,
0x3819880810849788,
0x036089bc77fa9885,
0x77dd61cb6f8362f3,
0x280b2489c93c1efa,
0xe893bd85486cb273,
0xaa02d1123ae2ab30,
0xc3ddad10310dd097,
0xeb13b03869bc3f48,
0x609f6762ff5b93e5,
0x0f69b2024ebda11f,
0x2aafcab37f713199,
0x3a95011e6de6bce2,
0x27f1813d85956059,
0x3ef39281dd9f04b3,
0x8c2829801bef4f17,
0x73c444c9cb73441c,
0xd18d1b6387d455ec,
0x03e7f85fbe126d11,
0x44754426b201aaee,
0xdd52dc4d0ddb79d0,
0x8fbf1dfac6db5739,
0x04f88991360387bb,
0x0877cf562fb3cb07,
0x309d770b70f9eb14,
0x2d110cfa92363e6f,
0x0a019474ca033a1f,
0x200df4978e87ff3f,
0xd413203fca07529f,
0x793425680506328d,
0x134e162a7784e775,
0xac01d755a7314fc2,
0x0c1115c77f7a6fb2,
0x0258cf7586120999,
0x2e08ef854cdd11a4,
0x57bd2085ff58c090,
0x8102a0e07fca618a,
0x0000000000000000,
0x0000000000000000,
0x0000000000000000,
0x0000000000000000,
0x0000000000000000,
0x0000000000000000,
0x0000000000000000,
0x0000000000000000,
0x0000000000000000,
0x0000000000000000,
0x0000000000000000,
0x0000000000000000,
0x0000000000000000,
0x0000000000000000,
0x0000000000000000,
0x0000000000000000,
0x0000000000000000,
0x0000000000000000,
0x0000000000000000,
0x0000000000000000,
0x0000000000000000,
0x0000000000000000,
0x0000000000000000,
0x0000000000000000,
0x0000000000000000,
0x0000000000000000,
0x0000000000000000,
0x0000000000000000,
0x0000000000000000,
0x0000000000000000,
0x0000000000000000,
0x0000000000000000,
0x0000000000000000,
0x0000000000000000,
0x0000000000000000,
0x0000000000000000,
0x0000000000000000,
0x0000000000000000,
0x0000000000000000,
0x0000000000000000,
0x0000000000000000,
0x0000000000000000,
0x0000000000000000,
0x0000000000000000,
0x0000000000000000,
0x0000000000000000,
0x0000000000000000,
0x0000000000000000,
0x0000000000000000,
0x0000000000000000,
0x0000000000000000,
0x0000000000000000,
0x0000000000000000,
0x0000000000000000,
0x0000000000000000,
0x0000000000000000,
0x0000000000000000,
0x0000000000000000,
0x0000000000000000,
0x0000000000000000,
0x0000000000000000,
0x0000000000000000,
0x0000000000000000,
0x0000000000000000,
0x0000000000000000,
0x0000000000000000,
0x0000000000000000,
0x0000000000000000,
0x0000000000000000,
0x0000000000000000,
0x0000000000000000,
0x0000000000000000,
0x0000000000000000,
0x0000000000000000,
0x0000000000000000,
0x0000000000000000,
0x0000000000000000,
0x0000000000000000,
0x0000000000000000,
0x0000000000000000,
0x0000000000000000,
0x0000000000000000,
0x0000000000000000,
0x0000000000000000,
0x0000000000000000,
0x0000000000000000,
0x0000000000000000,
0x0000000000000000,
0x0000000000000000,
0x0000000000000000,
0x0000000000000000,
0x0000000000000000,
0x0000000000000000,
0x0000000000000000,
0x0000000000000000,
0x0000000000000000,
0x0000000000000000,
0x0000000000000000,
0x0000000000000000,
0x0000000000000000,
0x0000000000000000,
0x0000000000000000,
0x0000000000000000,
0x0000000000000000,
0x0000000000000000,
0x0000000000000000,
0x0000000000000000,
0x0000000000000000,
0x0000000000000000,
0x0000000000000000,
0x0000000000000000,
0x0000000000000000,
0x0000000000000000,
0x0000000000000000,
0x0000000000000000,
0x0000000000000000,
0x0000000000000000,
0x0000000000000000,
0x0000000000000000,
0x0000000000000000,
0x0000000000000000,
0x0000000000000000,
0x0000000000000000,
0x0000000000000000,
0x0000000000000000,
0x0000000000000000,
0x0000000000000000,
0x0000000000000000,
0x0000000000000000,
0x0000000000000000,
0x0000000000000000,
0x0000000000000000,
0x0000000000000000,
0x0000000000000000,
0x0000000000000000,
0x0000000000000000,
0x0000000000000000,
0x0000000000000000,
0x0000000000000000,
0x0000000000000000,
0x0000000000000000,
0x0000000000000000,
0x0000000000000000,
0x0000000000000000,
0x0000000000000000,
0x0000000000000000,
0x0000000000000000,
0x0000000000000000,
0x0000000000000000,
0x0000000000000000,
0x0000000000000000,
0x0000000000000000,
0x0000000000000000,
0x0000000000000000,
0x0000000000000000,
0x0000000000000000,
0x0000000000000000,
0x0000000000000000,
0x0000000000000000,
0x0000000000000000,
0x0000000000000000,
0x0000000000000000,
0x0000000000000000,
0x0000000000000000,
0x0000000000000000,
0x0000000000000000,
0x0000000000000000,
0x0000000000000000,
0x0000000000000000,
0x0000000000000000,
0x0000000000000000,
0x0000000000000000,
0x0000000000000000,
0x0000000000000000,
0x0000000000000000,
0x0000000000000000,
0x0000000000000000,
0x0000000000000000,
0x0000000000000000,
0x0000000000000000,
0x0000000000000000,
0x0000000000000000,
0x0000000000000000,
0x0000000000000000,
0x0000000000000000,
0x0000000000000000,
0x0000000000000000,
0x0000000000000000,
0x0000000000000000,
0x0000000000000000,
0x0000000000000000,
0x0000000000000000,
0x0000000000000000,
0x0000000000000000,
0x0000000000000000,
0x0000000000000000,
0x0000000000000000,
0x0000000000000000,
0x0000000000000000,
0x0000000000000000,
0x0000000000000000,
0x0000000000000000,
0x0000000000000000,
0x0000000000000000,
0x0000000000000000,
0x0000000000000000,
0x0000000000000000,
0x0000000000000000,
0x0000000000000000,
0x0000000000000000,
0x0000000000000000,
0x0000000000000000,
0x0000000000000000,
0x0000000000000000,
0x0000000000000000,
0x0000000000000000,
0x0000000000000000,
0x0000000000000000,
0x0000000000000000,
0x0000000000000000,
0x0000000000000000,
0x0000000000000000,
0x0000000000000000,
0x0000000000000000,
0x0000000000000000,
0x0000000000000000,
0x0000000000000000,
0x0000000000000000,
0x0000000000000000,
0x0000000000000000,
0x0000000000000000,
0x0000000000000000,
0x0000000000000000,
0x0000000000000000,
0x0000000000000000,
0x0000000000000000,
0x0000000000000000,
0x0000000000000000,
0x0000000000000000,
0x0000000000000000,
0x0000000000000000,
0x0000000000000000,
0x0000000000000000,
0x0000000000000000,
0x0000000000000000,
0x0000000000000000,
0x0000000000000000,
0x0000000000000000,
0x0000000000000000,
0x0000000000000000,
0x0000000000000000,
0x0000000000000000,
0x0000000000000000,
0x0000000000000000,
0x0000000000000000,
0x0000000000000000,
0x0000000000000000,
0x0000000000000000,
0x0000000000000000,
0x0000000000000000,
0x0000000000000000,
0x0000000000000000,
0x0000000000000000,
0x0000000000000000,
0x0000000000000000,
0x0000000000000000,
0x0000000000000000,
0x0000000000000000,
0x0000000000000000,
0x0000000000000000,
0x0000000000000000,
0x0000000000000000,
0x0000000000000000,
0x0000000000000000,
0x0000000000000000,
0x0000000000000000,
0x0000000000000000,
0x0000000000000000,
0x0000000000000000,
0x0000000000000000,
0x0000000000000000,
0x0000000000000000,
0x0000000000000000,
0x0000000000000000,
0x0000000000000000,
0x0000000000000000,
0x0000000000000000,
0x0000000000000000,
0x0000000000000000,
0x0000000000000000,
0x0000000000000000,
0x0000000000000000,
0x0000000000000000,
0xff3f002c01bb00d6,
0x000eff63fff5ffa6,
0x0010000a009dff73,
0x00cd00490020005f,
0xffd6fe3bff270254,
0x005301c101d900b2,
0x0233fedbfee5ff44,
0xfe7101daffc50120,
0x0000000000000000,
0x0000000000000000,
0x0000000000000000,
0x0000000000000000,
0x0000000000000000,
0x0000000000000000,
0x0000000000000000,
0x0000000000000000,
0x0000000000000000,
0x0000000000000000,
0x0000000000000000,
0x0000000000000000,
0x0000000000000000,
0x0000000000000000,
0x0000000000000000,
0x0000000000000000,
0x0000000000000000,
0x0000000000000000,
0x0000000000000000,
0x0000000000000000,
0x0000000000000000,
0x0000000000000000,
0x0000000000000000,
0x0000000000000000,
0x0000000000000000,
0x0000000000000000,
0x0000000000000000,
0x0000000000000000,
0x0000000000000000,
0x0000000000000000,
0x0000000000000000,
0x0000000000000000,
0x0000000000000000,
0x0000000000000000,
0x0000000000000000,
0x0000000000000000,
0x0000000000000000,
0x0000000000000000,
0x0000000000000000,
0x0000000000000000,
0x0000000000000000,
0x0000000000000000,
0x0000000000000000,
0x0000000000000000,
0x0000000000000000,
0x0000000000000000,
0x0000000000000000,
0x0000000000000000,
0x0000000000000000,
0x0000000000000000,
0x0000000000000000,
0x0000000000000000,
0x0000000000000000,
0x0000000000000000,
0x0000000000000000,
0x0000000000000000,
0x0ccfb417bf7efdd5,
0x7136d82208583eee,
0x8f0ad434f0a83391,
0xb8cc62abd8ae0448,
0x2e0048c1f74f8444,
0xaed85a04e4cd1cf9,
0x674bdd733003fdca,
0x100481f908079494,
0x47fb944128cd2cc8,
0x9cdff151df446287,
0x90ced9e66fdf6774,
0x7039122318222dce,
0xfe745df43e354903,
0x2055be7ebcce6338,
0x20b5664fdbff288d,
0xdc04600ad0dca0c9,
0x37dcd878e6f9fa4d,
0x05f00aff11080f1c,
0xb020b83f3ecee16e,
0x310888e230993ff9,
0xaeb57cf34e8239dc,
0x851716f171e72ccf,
0xb092555300000049,
0x57efc4bd607afd7a,
0xdc202e8c4fd1e301,
0x9e6e2716a055aee5,
0x28dc1f7f0b5d0fee,
0x3f170b0e93a88efb,
0xcbc1ffcceb3c1e93,
0x063b73364c844823,
0x594227ba3b4ad149,
0x078da80c8d9d9ffb,
0x34fc8559a55ae8ee,
0x99db5b768c402039,
0xdc4d3b7ef842fbd4,
0x55f06699ceed831f,
0x10ccd1cd1755e8b6,
0x9f16ae0800b31930,
0xbfd5619545c934ae,
0xd830faed10084590,
0x8981fabf41571f5c,
0x2b8cfc818cfc1bfe,
0xacee5a0164781df2,
0xbbc7729c805d78f7,
0x809503c6ff21193f,
0x2cc442075e61dccc,
0x4c8314dfd72378ee,
0x94ca68813813fb3c,
0x9320c9f2219d8cc8,
0x19af3973110ce9dd,
0x344a2134fbbeb399,
0xbdf5c86ce8c418a1,
0xf7f929db1286140e,
0x8eff1e6eede6c807,
0x471f36cc27c090e0,
0xe80296067231dca7,
0x31a4ca8407daf68e,
0xc6a628ac6fab7147,
0xc41cd0dd87709913,
0x4309d7afc0645ab4,
0x32e1aa3d3da8de37,
0xbfd3fc75bf46f706,
0x9e4d8c9e7483a921,
0x08c5c87eaeb2991c,
0x7e0dec57afe1f7f0,
0xc9982f00594495c7,
0x7f0f7bb0964f9b44,
0x81319b949103c7fd,
0xeec2a8524e51bebc,
0x7000f918c17f5073,
0x096b6cf6211319f7,
0x804701fc6d129081,
0x2b36e84d40c0ff20,
0xb8fc494f9ab58cdb,
0x4162b750588d7d57,
0x57fff0cbe1fe5412,
0xfb7399f0baf39114,
0x060fedff88e6c502,
0xe7ae738cf39eca29,
0x54bde000c8742b33,
0x777d1139747d9626,
0x233100c8c8ab6a6b,
0x5032a05fb7687917,
0x6455eeea4e00e7ff,
0x8eb0bf30644e0c86,
0x2c00d848753bfae9,
0xd028bf1f87bdff31,
0x98b67ed6309d1cec,
0xfb3a709c6bd5a447,
0x8880684f11113bea,
0x61ee380ce689936a,
0xc5f60e1cfd0894af,
0x1526c72363fd6f94,
0xd22a59701adb8b81,
0x16dec4b76737d9df,
0xae76da2c61b4fef8,
0x662b28868002e6a3,
0x9234dd45ce6cca46,
0x7f9001cbed9a6f8c,
0x847ce7ac08672717,
0xe522946939a2441f,
0x75dc93baea021c70,
0xa811101a11748182,
0x7dce16f37f987f3e,
0xe4fdff7eca905590,
0x99d340fe81e71ccb,
0xb9056fd0d476ce14,
0x019600b0ec2f40c0,
0x67b3f909cf52d0b3,
0x77c8b61aefe47f88,
0x8caf95cf658af11f,
0x510a59bb2c15b762,
0xbd18fa5e82034807,
0xcfd3ef887f0c5fd2,
0x3492036ad09110d7,
0x9015b10a5e108aed,
0x9c8f80a3fd81c521,
0xd331642459b64815,
0xbe754de90649d88f,
0x4bb7c4f2bc13fdba,
0x1103cc88527b057d,
0x9420e852012e2137,
0x200d0809536cb6fb,
0x00fcbc5d2adbd01f,
0x1d11a4c1b1b2c3fd,
0x0b4a68192db01c52,
0x68807386491b0f62,
0xea4f5a46600fb99e,
0xf3210ab344a2bf75,
0xb2f8228ccc1e579c,
0x452fac2164af8dfc,
0x1ad87271506c37ef,
0x1e40c325773a868d,
0xfb833dafef4d129a,
0x186cf575344b1da0,
0x0b359f11dc16c1e9,
0x4cdd3c831cd69912,
0xf01546af408f6831,
0x86f3b88bc014a832,
0x00bb3ba77d17ccfc,
0xecab02cde8371077,
0x5f71d383e0047f79,
0x537438ef3f7c01e8,
0xea9fc27f44f9f897,
0x8a0c99eecf4af871,
0xadb70af44cfb6b22,
0x001e44f8c54eb063,
0xd4cd77fa009f9bbb,
0xc690ac1399761d75,
0x75ca3220430f0006,
0xd7eaf9df349c54c5,
0x38f7cfe9bf73dcd9,
0x2f0525f716bd8827,
0xd8476fc48f5980ef,
0xb6d81f69e31ffe83,
0x69841c81f9ad3542,
0x1a2406eaf3ddb711,
0x8beaf350ffcec410,
0x1df5b6faea7eee5e,
0xb1fb3b1f07d2db17,
0xfcbb8cb2212fef8e,
0xd510e946ee0e6f78,
0x52044c0226f58e90,
0x6a64ffc41e00c95e,
0x877bb6aa927696ef,
0x3f40f274aeba54bf,
0xfd153af11041c6b1,
0x1bce5efc165f7cfe,
0xe5ca40a6b624138e,
0x118e21cafe0fb008,
0x1afbdc12ce3315fa,
0x415cd9e66d790443,
0xe756a47f6388efb6,
0xeee17731089eb702,
0x098f89ed3007129a,
0x54b6f5f495566fb1,
0x6e05cceea088bd68,
0x0c8e7e09627f8e48,
0x6b1b94717cd7b1a2,
0x979144a1da28ba74,
0xe73c530f34573fce,
0x12ba90da8495c778,
0x6f06f5ee250053e4,
0x83aa988870fbfd11,
0x5dfb50df5e29ee8e,
0xa2f91ef65082e5fc,
0x49e186f37e6508ef,
0xb6155f6817c311af,
0x5df267324d741da7,
0xe4ea918a15336c51,
0x1204d1e679a57b9f,
0x007388e491fef2ff,
0x989695ec38b07a5f,
0x7081ff866a72d894,
0xa75c5ede056f9ac9,
0x9c00ff7437311892,
0xdfc788be309ac8bf,
0xa25f9ba299f1618b,
0xebdb3cf69e3071a4,
0x636602cc7d594401,
0xce70f27dddf68c15,
0xb4f36a03da95bfbe,
0x77a2fe45200d113f,
0x7dffa57115e3498d,
0x723ab6ed21fed0b3,
0x02a8abe70ce209f3,
0xaefb828a20972df1,
0x22ecccdbfcfa9380,
0x53815730e55493d6,
0x260023f9136fb82a,
0xccd0f6eabf9599d5,
0xfff9fd7e1e08acd1,
0x4cd5b7da987f0ae4,
0x0151f6dbd8ef98dd,
0x7f7f9a3aac10fee2,
0x88e21c169637effc,
0x1531dec3eb0987ff,
0x4da3b8b31c860bfc,
0xf7ea19a33a8faf78,
0xa206c637a1096109,
0x681f8ba2e7fed07e,
0x5e7a7f76b1350f77,
0xeb4f54618f7da8a0,
0xfb1b4450406c8804,
0xe18e1867c61c9fcd,
0xe22b2bc58429a098,
0xbe70dff3fb102e6e,
0xadecbfdd4acf7ff5,
0xd3f1da10006ef49b,
0x7fc2c3dd6ccef6e0,
0x688e408d12ee1981,
0x024fbbfb2591c4f8,
0x417dc3a570aaf089,
0x33725bfe4fa93f60,
0x10000680086d9080,
0x10e4757c4e611cab,
0x67e631400048f7ae,
0x1e3a3c1a17163829,
0x9eeffb32cfc1b882,
0xd578fdf18297c14f,
0xd89d0a72dff6d301,
0x6ff381969895df84,
0x7ccaafed94ff77fe,
0xba043f13fdea9dfd,
0xcdffcdffbfa4ac90,
0x101343c9921cccfe,
0x66fffffddc83762d,
0xe8b71edf3ec97dff,
0xe934dc9018eaf1ed,
0xdd7ff1e744ef3086,
0x7f7c8decdfdebaff,
0x2ef1d4490a794895,
0x5100df74daaccd89,
0x0f2857a063961889,
0x7a5335a8b83bb5f7,
0x2d9ef15fefdcaeba,
0x0e673130008f881f,
0x37eff897fa323eef,
0x086eaa76c09c6aaf,
0x01e7ffdc80f6f3d7,
0x320aeffbb78a0034,
0x865a7fb627d37d5c,
0xc4e3745a1c2811da,
0xfcf5a6e6722837b4,
0x7ffbdedcebec26ef,
0x0fc291d1403963d2,
0xffdeeee8078ae75e,
0x34085e49cdbdbfee,
0x1ee418897f908ffb,
0x0c5500581088cafe,
0x6b5d3861d06a4c61,
0x80e1fe13fe015ff3,
0x779f890a07b8c444,
0x85d4c68f8b314360,
0xff00840114616260,
0xa031502206fffdcc,
0x45de50c8235126dc,
0x8fc2d03873fe141e,
0x41060860c5f2a968,
0x05c4ca690e58bbcf,
0x4776cb2877e8ba50,
0x1e87000cb57f1554,
0xfedce019c035afe8,
0xff06509502e7b88c,
0xf21ecfefc0207e7d,
0x6775880e1dc07f12,
0x0100a0001121feab,
0x84b50f3fd87b4ebb,
0x7beabf6cf7257e01,
0xefd0006880003c67,
0x30dfefc8127919c7,
0x1a1100679011d04f,
0x06dc15f7c69e0bb7,
0x001c6492b766aa8b,
0x0fff24b1ff3e8a6c,
0xfc3e62016877c4d8,
0x124077fb7776f6af,
0x30e8c7105cfcfb3a,
0x22e70cdfb520a6f0,
0x8027c6ce4353fdc4,
0x88b01af56b231014,
0x60c471232ad9baff,
0x1f704fff18f8eef7,
0x30c8ac9f43901ec3,
0x13d4b15c012da2f7,
0x08c90cb02120f043,
0x0504ff00bff3f600,
0x046a8cfe50fc5b08,
0x73306986d3b68421,
0xaee7455f241b1f93,
0xb71c37fad128abdc,
0x020ed27b0206cf2e,
0x0c5455135579b6a3,
0x2429e90c0f7ff9c0,
0xc10490c4b4b7ab72,
0x47086080a13c66ee,
0x9b68235f0961b72b,
0xf228c40ce6d2ec84,
0xffff93f7f3d1cc41,
0xa0e0432208c2c670,
0x1956f932008faef0,
0x1bfc5f10cac1dcff,
0x060a4a3a6d183e5e,
0xc8332302004816ec,
0xfff1a857d70b08fc,
0x00cc1716dbaa315b,
0x886b6477705090c2,
0x8009d2ee4f54b100,
0x5662e4605ec4e6e6,
0x027a400f882dd803,
0x21a217981900f640,
0x73b77d61a683afdb,
0x2ff671d6d8ddc4f4,
0x1d4141ffe81bce27,
0xbd582ea5c4c89803,
0x026b8030d86fdfc0,
0xbbece1a86ffd1855,
0x3e454d7c7319437f,
0x8a90c88a1f6eb7f4,
0xff3f673a9d04dfff,
0xb130be3263a3fa79,
0x4676c00177721101,
0xf826c8d9d00dff04,
0x26f7e86813eed670,
0xe66281000748a141,
0xb9972d1fe03b9c8f,
0x0676cc3db2081f2a,
0x00c4511ad2c82088,
0x93269fcf40ff6fe2,
0x5f9833b352e82720,
0x00af81f87761e899,
0x16e49017636fd776,
0xfe6ef4ce9319fd50,
0x1093a8e17f77fe78,
0x2ed232f6dbfaf3c4,
0x4c345fde19e6c14b,
0xf5d8e57ac2ceff77,
0xbfc0cb3e2fb2487e,
0xef612534633ab1aa,
0xf0665bfe2b000464,
0x11ec3b3d700c288c,
0xe14cb0ec92cc236d,
0x94ffbe9837396758,
0x20e77e10dd4d0840,
0xaa95450513213376,
0xff60220b415c661e,
0x0c88c7fc330676f4,
0x05ce11845ff37745,
0xff9a77fff409ef4e,
0xb9aa5f10d200fec7,
0xb4087cc0704719bf,
0xe0f5518c7e90c0ea,
0x85116503d2258546,
0xd6fd4816e847d970,
0x7ff545d0f7b97230,
0x2c11eb32feed5df4,
0x750568005f59a982,
0x00106b08539ba0ce,
0x218c008e4e2df372,
0x0030f8b9f8b00000,
0x98e2a235effcf7fb,
0x18d9209f6f300c5f,
0xbf131cbb7ff10ff0,
0x684f0bf9b00c9c4c,
0xc2d5f402307af6cf,
0x6e24fc3be381dcfd,
0x0460526ad97f6c44,
0x08ff73834801fdf7,
0xf4e1f7ee88110290,
0x82cc9faaf5af7054,
0x46a9c0ee12bd47d8,
0x884d01eeb5d0bc21,
0xb27ba62918806d49,
0x00e4214a12035c12,
0x0da39b5040287e0f,
0xa735a33d198a707f,
0x0eeb57037152e766,
0x636d17e0a82298c6,
0x3ee20faa024f72c6,
0x4579e22440fbdbc0,
0xbff858276731b252,
0x3317c01fd66d493f,
0x205d68a69fcff3f7,
0xb132c77aff3affff,
0xaa2c0ef200a1fe64,
0xc4310080b73f7f62,
0x5047be6ff609ffb0,
0x56dc500486f77b7b,
0xed2096030ee8e875,
0x32f0001b08b776b9,
0x2fef1acc984e56ee,
0x8c6d1d244300d1dc,
0xb59f68736181a474,
0xef4e0321000d7fcd,
0x800086734bf1ffff,
0xacdfd1c0ed60cd7f,
0xeef84ec1592cf6ea,
0xcaafb932fe733f70,
0xffa0b7d47b3cb159,
0x1a8e3f0c002c4244,
0xf88a980aa7f3df1f,
0x04b056dbff486564,
0x2e6c055eefff36ce,
0xed8c1aaa364000c6,
0x3228f23796d86c80,
0xd11e22e8db888745,
0x96fd4a201fde671c,
0x89d627fc0b67c888,
0xead31b0e0afff632,
0xaf06362364a6769a,
0x1cdffcbd6469febb,
0x592757f27477ae73,
0x820067fefa3b2228,
0xdea300027f105a0c,
0x30483fec2004107f,
0x88e4e306b2808a26,
0x4403e8173fe7104a,
0xb35cb1764371157d,
0x6670caa29cd93208,
0x7081003f600bf17f,
0x3037b308d751e85e,
0x003184cecff86e65,
0x298040e968c47563,
0x4c22caecf3826087,
0x3eea2361fac0cdcf,
0x8d5b0404fcfd48c5,
0xfebf692b4c303f72,
0x0a818adf6c9aafe7,
0xe493b03bed31ee0c,
0xf5198abe3dc64fca,
0x443cd87acd197c54,
0x44ee426ca0be3761,
0xeffd99dbb18eb718,
0x60674ed4bfc889ea,
0x379b37df986d46c2,
0x119cfcfffcf5bbb3,
0xf559877d8a4da4e4,
0x217a2ded5c1cf18c,
0x84bc4e784141ff70,
0x124c8d64e45ca65e,
0xff5dfbaebd1dfc95,
0x1852e6fcee50f438,
0x8f2d17dfff0cd9d6,
0xbffa754902c5afc8,
0xb695c961a739a098,
0x1c655eec893575fc,
0xbf6300700a4fb9ee,
0xb1e0c98a7f36fec8,
0x03a0777fd384e4d0,
0xe6615ff876cced26,
0xee8b9f53eed1edd8,
0x02cec8318e7476ca,
0x6953ab74f488bf8d,
0x5cfb783f446cc66e,
0x04dcf75e30d97f68,
0xaff3cbf7c628eceb,
0xff01e798ed39c4af,
0x126fe32b93bffde9,
0x995eea62e1c00ded,
0xffb3b008f7ffb58c,
0xd346965ef64fc96e,
0x1489b955f9d8d4b7,
0x8409dd5fcc597274,
0xef1ad0f4022773c1,
0xb6d4d37ee723f6c4,
0xb97eac90ab3fe644,
0xa604e0b5ef1daf98,
0xf80006c2f9ba4118,
0xd3c23205c0ac36cc,
0x3a65c428614ecff3,
0x666ecf5413ffaec6,
0xb6c9eee07c7b6955,
0xbfffdfcd3b677bf9,
0x4a45dc01fb7ef6d6,
0x8c4013ccff20ff8e,
0x60470f987476f61d,
0x6cbcca64d0ade49c,
0x9a4de8bab81bde4c,
0x5452f120b7253fe1,
0x44ccd86762f5f9cc,
0xe7208a93f7abcff9,
0xbfce8cfc625fd997,
0x6274b7248dd1f1d7,
0xac814deced10de6d,
0xf88cb70f0f64f643,
0xf213f8ed6b69f36d,
0xd99332cddd3ce611,
0x6f49ef424d4e7f7f,
0x9c283cd549bef68d,
0xee2a65332fc6ff1c,
0x6f54104e7e8adf98,
0xa1cfcc5eced39018,
0x8fe2e14f516ee227,
0x83b92396736b0918,
0xbd818fed6a677351,
0x183b44b8ef973e15,
0x008423ffdaf7ff0a,
0x001811ccb033cdac,
0x33a333115ddf2037,
0xfffa50871736a06d,
0xea855391c5f4100f,
0xedf68b5241a8a9eb,
0x641578e5d3563928,
0x5dcdc9cf967f483b,
0x40cff139e1a813cf,
0xcf3ec083c7fdbf91,
0x8b2941218d853eff,
0x32bfb559b32c0f32,
0x400537d6b1065a14,
0xc9dd338878b34f5f,
0x69ba03eccbbafb1a,
0x345e8e07621d5483,
0x9665391d30ece5a9,
0x27f5f95661dde02e,
0x36d0cf5c27b12042,
0x8081ae6255ec29a4,
0x8e6774a749c2fdd9,
0x69aaee3119b091f6,
0x31917a4d77316817,
0xe8e3fbab8ce7bd93,
0xb907b43e27c0d6ef,
0xa9d5f3c39446407f,
0xe0feb189d0fd9533,
0xdf000a7102753a04,
0xb99f6bf58450935e,
0x6ecc780c12b4ad61,
0xc2fe0610e824547a,
0x3dbbf80b642ad18b,
0x4886067640b2b819,
0x111a90afcad7164f,
0x50bb5823af6422ef,
0x3b3091e233cbfb80,
0x5dc346644f234130,
0x96816d652ef295b4,
0x61036876ec649d1d,
0x78151efdee2041d6,
0x0b8d1d01011fdef6,
0x8778f9f4622eb90d,
0xc1d1791ba9762011,
0x5cdfb609b09721c4,
0x1c47700004d4fac0,
0x11f59b2c33a393a6,
0xd1f1b9fbc7b8ff98,
0x711145a9ba5df4a6,
0xb8551ce26b8abf33,
0xd011b11bf3d41b94,
0xfaf0445d195c8ce4,
0xd7bf35ea51d8aa6d,
0x6bff1dfea3a82479,
0xb72d5ce704579bfc,
0x5dc8ef1830ef0eb6,
0x7dfba49638ee3332,
0x8fffddeb11ef3097,
0x2a561d6d5244690d,
0x40fe7f1d10c68003,
0xdbfef5076f3ae919,
0xb462d3c5c1e31a0f,
0xbe68d06fb61b7db2,
0xe74d311117502624,
0x895ffffa0cfdb5e3,
0xbba3690d78aa74b0,
0xe3fe7bf0831319d8,
0x6687d75db3bc044c,
0xfc883ff9ba6c32f7,
0xc0d73ee57b60675f,
0x0b2a38be3b196494,
0x7da69eea5e6bf600,
0xa3e45c7ccbc9b86c,
0x425b41af3bbbae08,
0xc57dfb88b1dd3e20,
0x3bef910adc1dffde,
0x4e0a07be77c997d1,
0xa8a3095f2311e21b,
0x013c53bff15c1be7,
0xe510effad7192661,
0x00bb711564e2b104,
0x8a6ff676ffa08afc,
0xc167a7fdd04fa07f,
0x77776664da6527d7,
0x7fc40b785b3293df,
0x0e00037294fa6320,
0xb3f789d288de7440,
0xb8ddc68f974bdbfe,
0xb1574163dedc48ba,
0xc7ac03fb49187ec0,
0x07af84cd81507722,
0xd004bfaf786fb13f,
0x83b9f1943e6fd219,
0x7827fc3fa3bdfb60,
0x001fb2bbf3d197b3,
0x434dbb323f319f51,
0x7fe1f67aa1844cbd,
0x3bddcb96573ca3f4,
0xa2c0e10174fd038b,
0xae69e5f9eb2e7ffa,
0xb304f1a507716f41,
0x9784f8cefc24b33b,
0xa8ac7ee8feee83ec,
0xa3feb8ab330223fc,
0xaef5efc43edf8eb0,
0x8408a6f3201ae06c,
0x8be761e4004e42df,
0xb288ea3cbf7886ba,
0xf8ff6515e6e83d19,
0xafac49a903f92db1,
0xaa59263232ea305e,
0x65edffe5f7fd9d11,
0x217d9bbba3ff7b25,
0x03097b7ad67757cf,
0x24e5df5340c6b74f,
0x276002fcbee83ea0,
0x0b6d3e8ffa2fb207,
0x06bbbb30022dea0f,
0x13cdf7054f57f888,
0x3bc032d066bf1307,
0xf722c2ec218253e9,
0xaeeab3673ee0f2e1,
0x7fef43465203408c,
0xd84f3afebe8d64bf,
0x62cbc7b99ef9d0a8,
0xbfa74cd53f704012,
0xe9e7b348f99527f3,
0x773fb301ff50ed66,
0x8001cdd8ad49d93c,
0x10323490dbf01809,
0xeda0ba82a8f78803,
0x22c0c7890108087f,
0x081d05b8b1139883,
0xc2954f072840ffb1,
0x9b0650909bb648cb,
0x09cabe8dfdf0eee5,
0xc3586df5d318f6ae,
0x6cf5edfae993be21,
0x6675cd002e9ca264,
0x5c01b930bbb348a1,
0xfd9a732548006086,
0xc7ce105b7776ee6b,
0xfcee0000f7c41062,
0x486d800c87108040,
0x40402ad4ec8932e7,
0x09884960ccea69b7,
0xfbecfbfaa8936e77,
0x9368ab17fbaf1001,
0x52a2d77ef588bb17,
0x8f2850886c2fcc01,
0x1270457991d9e9d3,
0x1898fb77f32c013b,
0x5130e762fe72df7f,
0xf7e7017b75059da2,
0xf6d90cc402fd7b08,
0x36d04dd70098b47f,
0x4216f33b6c068eb0,
0x7e252d814910e900,
0xefb37d0e218037ff,
0x089840f37eb6eea1,
0x71fea02806e247f1,
0x450fa577b3320005,
0x00f491c4eeed3900,
0xe0cd05eec8d949e9,
0x71f79600330e7b0e,
0xbefbf2d64f611350,
0x002bc85acbb76df7,
0xb1076631d531e588,
0x0afb85952dcedd91,
0x6e91ea18b3d608cf,
0x20196fffe49d4011,
0x488fd7fff8cc2199,
0x812f50082ecd0333,
0x2702985f990107d0,
0x629a76a877f40037,
0xdb30005bddd20117,
0x003da10280186859,
0xce8b0330db1b14de,
0x2d1ef5e48fc4b3bc,
0xf800ccad082cff7d,
0x01184100d2af7c90,
0x0100dde0feaf67ff,
0xfb3104504537d763,
0xc1ffecb04022effd,
0xf087fff7fba50009,
0xd9cf5ff3009569b7,
0x15603988ff31b3f6,
0xe1b0638d0d773133,
0xcee81cb10024e14c,
0xecdf1a74c0288e67,
0x024b8ca900807cc9,
0xef5a0013acac5013,
0xcb0808c508c6ef31,
0xba42145b805ab479,
0xcceec0fc1f00abf5,
0x3b53106cd9ce1139,
0x4720653209e762b6,
0x9ceebdbcdbff4a6b,
0x9b31ac70f43ad7bd,
0x1bcf48fe36ef7b11,
0x32801d1b6cc5a4ba,
0xbbc8f624dd2ce84b,
0xc2e017fff7ca950c,
0xd18babddef8b8aa3,
0xa72559d6f60409ce,
0x2e62ee7ec2b9bec0,
0xe669d59406f3ea88,
0xfb1626486463e956,
0x9a191037ddf316e0,
0x6c09b3857327b758,
0x0ed6d52edbe61114,
0x1a8806e051ace70e,
0x157cafe930e67d23,
0x568988cefb7efd17,
0xe344a900c0cc1561,
0x3b209b29775e8684,
0x3003137fc3196c20,
0xffc0662d1acc6415,
0x021107dccf31bcf6,
0x8d391dc6a97e0008,
0x2fefa6cfcffbef2b,
0x4c7b4136b1b71033,
0x18cc04e6db1db314,
0xc8863a64c4603f47,
0x90401b2a89e1b8c8,
0x92fd43edfa7d31e6,
0x1e39920d2ca58033,
0x0e22a7b0d23e8ccd,
0x86152c3c48ce44cb,
0x084401735567783e,
0xff55998431516f71,
0x50c72f713d0130c7,
0xab00ba15e71bb7b4,
0x88a508cdc9cb9d21,
0xc4d6e9eb18714cbf,
0x1b356720127560ce,
0x230288c493fe3a8b,
0xec0b1888e6f079be,
0xadd9eee9f08f8aa2,
0x6f9b5b13efaf8fd1,
0x083e9016cdcf51ee,
0xf72be26800ee628c,
0x3b5d13cf5e7237e7,
0x4b32d34c7301b63b,
0x175fc64d0ca387a5,
0x80cc0de0ff14ab67,
0xbab4e39e73df86da,
0x00c63e8a07e38e89,
0xfe8cdd04f7b861ce,
0x8159c0c6280ddb63,
0xf80ffc8f8acf69c6,
0x3a27edfdf6d4908d,
0x8e5a25580d0c44da,
0x017fef72986024ef,
0xdee668ffd3ea0394,
0x08f82bf60172f509,
0x09974f77bf799151,
0x9891bf32aa828a83,
0x00c52eb7d5a8f044,
0xc3f2b2acf3b9d510,
0x343e47451e6dec4f,
0xf760a1b379310181,
0x0df620e8be140d1a,
0xf90f87fac1a81933,
0xaa34410c183ff013,
0x11c5e60d62f19fbb,
0x1170dffcfe33d1fe,
0xd66e853e764467dd,
0xa13a3d7b02fb9de4,
0x9dbd5f234000b390,
0x2045bffd7362507f,
0xfc15e5a79f918afb,
0x9f31deabfb2bcc88,
0x9c6dfbdd59b11735,
0x757103301bb8af7f,
0xfeb39cecf743ea7d,
0xf4d2c00080ef10bc,
0x69f654269941807f,
0xe7f4910210866abb,
0x9fb5b437185704da,
0x8c289d050080f98c,
0xe4af4919cd00fcfe,
0x7fce800f80083aff,
0xd9000fbb49f4efec,
0x29df6cc8e9b01404,
0xe616cf1178bfb6ed,
0x73579e726248ff70,
0x19fce74456742159,
0x2fbebe5b036e1fe4,
0xb87f2c90f45efd5c,
0x080a8c5f9df4c7e2,
0x046c77f6ff7f9bef,
0xab029488e8c6888f,
0xfb8dd0a21efb3840,
0xbb00bba85fde8327,
0x4090e5a7166e4856,
0x4685c7df5368ba3a,
0xbb5f9b3aa983066a,
0x459b306518b01b7f,
0x3fddfd90faef490f,
0xc8dbc57731b1f17a,
0xd4bd1abf8fa72077,
0xbf77050be8053209,
0xa8e1dee930860b16,
0x5984ffac917eab86,
0x0802fcbc2fff70a7,
0x880c5982850b4799,
0x07f847828b5d8ed9,
0xc2adb7ffee5299f7,
0xab7ef01a8a61c97d,
0x0915024feffc4a96,
0x2b30139cec51bf7f,
0xcfebb8d4332badf7,
0x1feb3feb81f77918,
0xe60886041fff4f81,
0xc977495cf8748c5a,
0xb1b39dddefdb2e77,
0xa5ca0836064837f1,
0x7667425cc68ce5cc,
0xcb8ce63e1883e74b,
0x24cc980800a8ffbb,
0x02057685d641c28a,
0xce9386c08445a3f8,
0x0cacc26142b166f5,
0xb554319009fd119f,
0xb4c5032b0804a4cb,
0x4405be7cd14f1926,
0x00bf4e153f7611f9,
0x40b9125f3903e5c8,
0x9717666c8567d622,
0x2055002bc90734b2,
0x2c34d65df9e50017,
0x9d142db78ddc736b,
0x12fc2ae31370b304,
0x32e7953895dd5831,
0x7b3fa08ff5d891b3,
0x37571373440967f3,
0x0f4319f1cc2391dd,
0xe11b3460bdb42d83,
0x8397778561804948,
0xaff67037d013397c,
0x289599e0b9d9a488,
0x87761201a6c46e7a,
0x918d77ceb6b7cee2,
0xded14b3dd7afee80,
0xef9324fc57acf557,
0x93544e01112f9cb1,
0x015b6d8357247edd,
0xa3793b2989c510de,
0xa6cccb054bbe4ee1,
0x880e4048cb0839b9,
0x6c0c6d335013fb2c,
0xc383d3919563f1bb,
0xa8c268916715728e,
0x7003bac51032fe80,
0x178c20f4014483cb,
0x1391bfd0c86f1810,
0x8280cab44a6767e4,
0x263677273460e92f,
0x828cc631ecf0a9c6,
0xf406fc9354f97b32,
0x8c43e35bdff9215b,
0xed44c4e409b989c4,
0x86bc0f66bfa7a2cd,
0x4165801390d5dbfc,
0x5f6d6b7d52699901,
0xeecd882228dd5a3c,
0xb0c249f5fb3f02fe,
0x248c8611df88ad49,
0xe760be99aab0311a,
0x63fa566d464fc58d,
0x237fff27f5c48600,
0x6ed04f2ca650b105,
0xb3a6fbe4ec8e7b3e,
0xc39f22b85f5c710f,
0xac56e145cf52562c,
0x0d2076c4cf2058fe,
0x17f7a086f7e7acc5,
0xcd38ee71ea2672b3,
0x25d0d8ce162c39f1,
0x6ee79008e372969d,
0xcc6b01930881f80d,
0x43fdc0f3efc2f470,
0xf330c7aca111ed36,
0x808afe8b909a6013,
0x60097c4f4c582223,
0xdf7ec0a9f04c5ac0,
0xe80dd491b3bbcddf,
0x22f7bf40fbb81122,
0x32c56fec31106314,
0x46eebdaff95c45e4,
0x37633e6332d13fc6,
0xaf3c59da3b2ee1f4,
0xe80d8446dfcdad28,
0x316452178124fe4d,
0x61926298a97c6aa8,
0x341219b280255736,
0x981ec48bb645f56e,
0xf74cd933a6185f73,
0xfb51813d40a9e623,
0x1037c0c7a0bfc668,
0x8857e98287fc67f4,
0xfeadfcd1b2360205,
0x88d2f011bf3e5201,
0x55003758f740d06c,
0xbf663436296e1900,
0x30152cdb04f6a009,
0x0c27c8b6ff22504a,
0xc9d94fe9ef7e30b1,
0x30008245b2f9568f,
0xa18fccdc03fe3c17,
0x323fb887c00b9028,
0xa3910f397a388f6c,
0x33dc79af5ba12f32,
0x13fe60840319abe9,
0xd9bfd1c737777f36,
0xe104c20b29f572d9,
0x9ea77fb6310493a4,
0x20a7a524ad1b9f2c,
0x4f4d519d2007fffe,
0x5321f683f693f220,
0x635b9eebebe49f91,
0x1dc9f576ec9fad9b,
0x318f263089804333,
0x833680a221ae9595,
0xa6c67a3f8002ccee,
0xcc237df6668811a5,
0x73b2a4076efec56c,
0x2ba67f41fe130140,
0x67f3114c084824e9,
0x08c91e305563b17b,
0xcd56a80c4fdcd8f7,
0x85fe606782255a09,
0xff460b102664d12b,
0x042ab6ec6098c34e,
0xaf09f80978e9ff37,
0xedf7c4eee381f574,
0x16623ddaa8aa1716,
0xb3615a04a300486a,
0x639df873f9410535,
0x70e65c8ca15170a8,
0xac7f167814629084,
0xdce4ace503452820,
0x53a2f53f378c6423,
0x8865505a59027100,
0xc48f11334013f85d,
0xa102e0c80c55fd6f,
0xe7108111f4df10f2,
0xff7a8a8420c46664,
0x64db00c1e8ab007e,
0xdafe8e6d32f3d86e,
0x680b58dd79cbff6e,
0x8051ff5820d11775,
0x5ff12cdee6ff0f32,
0xf5d95af8b310dbb7,
0x8aec58e800d00be3,
0x79cfbfcfbf579b52,
0x4f3000a79f846889,
0x6684270200037e03,
0x61ce27ddd1161aa0,
0x6e635002da637ef7,
0xa07ed5b4ff7c2067,
0x5f91c774d09b4fec,
0xedfebb49208a60eb,
0x11730c4600d57e65,
0xe3dc180824132241,
0x1ad4c4093177001b,
0x0020c0f9ad37089e,
0x1827ffcff8f737c4,
0xb783e970ff400f85,
0x18136c86ef7f8063,
0x0044528977b74342,
0x70d84723fffd3009,
0x121186ee33fa5881,
0x081dfee8e3ffcd03,
0x013df801a773e9ce,
0xf7cc4b23173f8f62,
0xc6f75007f1c5000a,
0x0368206f23bf708c,
0xd93f006f2700cffd,
0xb44180fe8111324d,
0xeffbf3efcfb5b57f,
0x0073886671961ef4,
0x5fd6c2004185e412,
0x4312e917fef9fab4,
0xa132569180868b9c,
0x2fec6533001e4cc9,
0xefff677179fbbbfe,
0xb44f40216f168850,
0x969dfaff4a608889,
0xec8ab88a2ec87476,
0x53a6e36f8c0177f6,
0xb7e89d8e802b57c5,
0x87f69ca630ccc094,
0x008bcb3c0b3ac8b5,
0x3737002c3ed9d5fe,
0xa6f6f8a37ef54ffa,
0xf441534e0ebfb76f,
0xeeee860b56f59fa8,
0x890f75fb4089bb89,
0x6bd1e44eae27bdaf,
0x9fd7ed48f2998406,
0xf3922fb3100a804f,
0xed42feff4e3b91b7,
0x3084c0c1c9b3fae9,
0x9a10082c8402ffef,
0xfca5c88040811e43,
0xba21f677f709f0ff,
0xc84ee02b31a619b5,
0x2a76f164e2c3f2af,
0x87f781b890895114,
0xfef82c3320743393,
0x4949f77114ebaeff,
0xf37307324702f17b,
0xcdf6000ee611b91a,
0xff4ec409e73a811b,
0xdcbff17073fdf61e,
0x31bfdb9afaa70110,
0x0c52a18140b06123,
0x9b02e4fbb6bed990,
0xac2149eb0ca8c931,
0x31b2f8d7449daf7b,
0x4c30d9fbf6394a7e,
0xaf0e18b5c4504777,
0x386a0733e90f4fdf,
0x899812b0410c4758,
0x09e62cfd08f068c8,
0x7707f41f72326efe,
0x353a9232c617d902,
0x1c79e2897fe19157,
0x09fbb3dadac6d9db,
0x031565b5d5f4e905,
0x9f108131fef6004d,
0x5f3bebf39140bffa,
0x3220b2ed0182d838,
0x9b52260015679cc6,
0xe9ce113b23f10fee,
0x222648913df4deed,
0x0fdcc98e8399ffe6,
0x88e0313237745391,
0x396f85f608e34b43,
0x9903fe59613bb611,
0xc4c232f210114fb2,
0x00dfe600173385c1,
0x6691e22247370497,
0x1e2d5e29de93ebf5,
0xb8e07611cdea01aa,
0x45212cf351691e6e,
0xa3ef320200f7aeef,
0xbfefb5a316e6890e,
0x9069260677182023,
0x5df08935ec012ffb,
0x8210f645fd52f6c3,
0x18457f7f6033ac58,
0xa22129ef11399973,
0x7f04eca0b9fe6a5a,
0x2ad16e6fd7f90c11,
0x1ffd706611376946,
0x6c17f7fd22a6b00d,
0x01fefde0c1eac011,
0x2103dedfcaefa0f9,
0x3193720d24f46024,
0x980292f04113ef90,
0xff05bf9ee32c2ffe,
0xdf6f2ca9aac00292,
0x0ce370039c332097,
0x24b6ff99fff74a40,
0x0c100c1434307bf7,
0x71b5fc9182b698f7,
0x1e6f01ff97f58368,
0xb2bdf31bcf774410,
0x81917bd0c2600ecc,
0x6081c9ba726e7673,
0x6965951f5d44074c,
0xefff699bb3424300,
0x84012cae05b73691,
0x498d81f1afd9f15f,
0xf131f26175628a4a,
0xf47e841f17293ac8,
0xf309233384fe5791,
0x9df823624ffd6e1e,
0x7f1af18288350002,
0x0be339e86588b111,
0x908105fefc36a798,
0x003083a6ffbda4b1,
0x02ceee2165ccbfe8,
0x2152f67bfeb8f399,
0x11800971224a3780,
0x33131ddd253f1fcc,
0x2d48169c0089f112,
0x614c1df615f9e9f4,
0x535e640b8af44ef7,
0xaa3911d8d62fc29b,
0x3b391131df3747dd,
0x44f33336daf1fc16,
0x3084af5dfee8f3de,
0x87921f768be80468,
0xebffbee9f14fb790,
0x2ff8b300019076da,
0x30a1371cb30f9042,
0xe80b9aed09e64ed7,
0x8a7b7dc8840316ee,
0x231649dff1148cfb,
0xca703b18f8952981,
0x912b307652b46245,
0x9e19f7d927ecdf78,
0x6162fcb9b12cbb62,
0x042f550115f6157f,
0xb7985847ff7200df,
0x8c2c7070b28863e9,
0xcc02f44714bff6fb,
0x81fa2111f23d9eff,
0x952991325dfcfb8f,
0xf99144321fee054e,
0xf001bc953770250a,
0x72b8a12697471bc7,
0xfa91c44173d02c21,
0x193b2ff7d10e2673,
0xcb18eeb57078083f,
0xd7119c88fa67054b,
0x2995ccd9635c0100,
0xffffba59804371e3,
0xf4082e70e88f032f,
0x08fe798113a34e05,
0x5c11859902b71098,
0x3b90bce866803122,
0x27407948659f7110,
0xf6659c4c53554265,
0x82c901fcff7000fb,
0x4de9d02e2c80391d,
0x9d2fa30fcf7597d0,
0x11bf0556f8ddfc10,
0xff7b0e371d50d5ce,
0xb6fe967f57ad8cc6,
0xea8d8740bfe7ff1d,
0x05a0a579008283d1,
0x331aeddd07034519,
0xcc68c368fc7e4ee1,
0xd7b52faa623bc811,
0x2470fb83cfdb5032,
0x4c3b9024a13b618f,
0xb9f86f6dcec77737,
0xa88b1222280e9326,
0xb7fcc6f5aed3079e,
0x694803b81ffc8cb2,
0x3793190387239d09,
0xe38702c4d5b18688,
0x8a068aabc63bdb0c,
0x209e8908ce53fd19,
0x5fd0ee8a3483ffcd,
0xafa355bcddbf208a,
0x0e9c6cd8b1186752,
0xb5bb274bee81ffa7,
0xfafb2c0cb06e5bb2,
0xaec1a94de3e87af4,
0x434105b547db312f,
0x91fa8455f772bf26,
0x03002cd91ee9fc2d,
0xc898ffee0f129a71,
0x673ef7cc6f4a10e3,
0xeb8e0337e6409d13,
0xa4454560dfff3573,
0xc4fbfe6cc288fefa,
0x93b96c4740fdd9ab,
0x0c62f3e37e69edce,
0xf00f147627278664,
0xf7de67e45a2dc888,
0xd9b85d4ee8471d56,
0xfbf4e18bee50b009,
0x8635d710e304c1ca,
0xd35617bc01c5eec4,
0x1ee78ffbdc75b301,
0xc08f97f2e5b23008,
0x0cf41ecffb2d9043,
0xbd95f87a6fbe448a,
0xfdcdfb69fbf3ecf7,
0xf1d1178a1713b33f,
0x978f4a5e55e88dfe,
0xc8998c4ff79ac5c6,
0xcad772e89dc4ef35,
0x385b45c5bb7a9cdf,
0x3d1b4f3b8e7ca7db,
0x7b3baebdc0e64db2,
0xccc0c893efc7d439,
0x8891dd44ac7d0126,
0x24c09af03e099c04,
0xf6be6157c873d90c,
0x807ca1ea6909bc05,
0xde8cd5769346a974,
0x9664a56b2bc01113,
0x8818e3f905e4820c,
0xb4440a9ccffedf1d,
0x07b16b8fddbeed86,
0xb03bbc8ffeeccaf3,
0x937fe42ced497ffc,
0xde07d809fcb6ee80,
0x9923fcce0fcfb9a1,
0xc69fdfaeb44f33d0,
0x99d37e76fcd5dfdb,
0x8cd884097ece85e8,
0xab29b44ca78b7e79,
0x0274b334908f8fef,
0xbfeecdf30628308e,
0x0c466eff08ac4acc,
0xfffe74e36d35e303,
0xaed18f7cc48f00f4,
0x1218d534d7f574df,
0x8c7f0cf577187100,
0xf7f2421f7e4388c9,
0xd6a8b5a3d19f4044,
0x07f06c0df1469823,
0xf3d1a5911237d03b,
0x646b956019ea2215,
0xb1ca124d23d746df,
0x15df00ff010b01e5,
0xc97b0ac1c4481f70,
0x90ddceffbdfeb830,
0x3b10e33180811747,
0x0022df7f3e78f5ff,
0xb47affd2f7ffedb8,
0x7fbbfb070846fdf9,
0x7e3bf7bf130286d7,
0x133304024aac115b,
0xfd7f48cc10417fff,
0x2ffffcd509f1e1d3,
0x38f5e91b01ed8149,
0xed9f22977f8735ad,
0xe7e62e0c9cd1df76,
0xec8a1737a0242200,
0x88183f3289f6bf78,
0x8e0a03337907d478,
0x2127b63d5f7d3886,
0xbcc900c457997040,
0x81846ffc9cdc7c5b,
0x5801c021df7fdf00,
0xd7c9776813f7355f,
0x88007ee1f18c6c8a,
0x7a4ae8ca00cdff5d,
0x5e002a9b1a7021ff,
0x40010fb1f338b32c,
0x5d81a9f4ec584472,
0x0138739ffb4fb88a,
0xe63643cd1cc01b64,
0x4c4c48acac9fb103,
0xf5b55fff5515717a,
0xdced55800080f375,
0x3f686200177cfc1b,
0xbb24c4008fafd041,
0xf7c0e7d577d2fe3e,
0x98984070eebfa82c,
0x188f99dc2810decc,
0x90dcffe4f125e6bc,
0xbb6702ccffff19a8,
0x03fc302ba0445b09,
0xc8c30013951fb5ff,
0x27ef57b2ff1b1020,
0x68403b3ac7619d79,
0xeeee82142531b081,
0x04efbb888f040483,
0x2f201bc724ec4b20,
0x486dc0182220dd14,
0x66fe9157efcc781c,
0x4abfc40d489a8c19,
0x74c7088c5270effe,
0xb897270cfae3beed,
0x1b3a77ed3edf92c4,
0x07ffe710b248e460,
0x39a79be19914d37e,
0xaa46fd4fb30ddbfd,
0x600a1174d6bb1823,
0xbcc931480fe4c23a,
0xb63bcda0764e253f,
0x127fd7c45e474f82,
0x81b3700453a00053,
0x14f5b2bf81e8dd41,
0xd30052bc984d813a,
0x88a2f71b00300c61,
0xa0a59b469e9813e5,
0xdb6276e4fb26fbb9,
0x839a71ab005aa022,
0x9835e850e97e9003,
0xed6e809e90779502,
0xeafea24b8b89a656,
0xda32ec0d6c88ff5e,
0x905f02799b7c436e,
0x7619a000d87df735,
0xc499b11324a4f842,
0x900071e827de76fc,
0x043199d810a08067,
0x2fde70940a6f5d64,
0x4a99e90a61002b50,
0xd5621dac9b063802,
0xc10224076cad5545,
0x96f4ac44c0ee8bce,
0x880041dea84b3b54,
0x085818f5c033d777,
0xd9065b47f24b604a,
0x6ce5c995419aa6b2,
0xc8e2a8620812d84f,
0xbae30191bdf58c28,
0x8c9e60c12d403fa6,
0x0127f68fa00cc062,
0x500051243bb911bf,
0x48f379d5d6d83b9b,
0x8f5bbccf1b10dcec,
0x8855ec6e5b48e933,
0xb41314ce80a1a497,
0x0022aa4d23622832,
0x4022159abb4644c7,
0x31773d6be86a70d3,
0x10f07dfc96e8fd73,
0xa54238422a6a1065,
0xdcea7d69f0635566,
0x12dc5ef11f06183c,
0x446afddeeff736ce,
0x89328acc448d3055,
0xcc41fd1e3408839b,
0x10929d6c23ca70ea,
0x40233062ff181068,
0xe2caecce73960031,
0x4222e312314a53d6,
0x70096c4e14921153,
0x9ff1432e050e258f,
0x3229100c187014ac,
0x97fe10bfeafdaced,
0x3efd02b2fc1808f3,
0xfe9ee34fd0ab16aa,
0x53f0067000b13f82,
0x4b6cb95c70497da3,
0x3eb94cd13fde100e,
0x5190b00e045e04fb,
0xf1e2af01fe9505eb,
0xaf7599d9729c73e0,
0x40041889eb1b4beb,
0x9b403ce1b88fde7d,
0x14068b1004d2afc8,
0xae300c8f104639fe,
0x24050ef3a97394ff,
0xff89531e1fee96d7,
0x1c75fc9fa377eeff,
0xd3d03ed4f380f7eb,
0x8c3b06c1bbb71120,
0x5cc9850001df940a,
0x3a669638fa33d2a8,
0xc08ed6ee256a8102,
0x00465cc7bfb18cf7,
0xadaa1311f6eef933,
0x32c7afb965860842,
0x8dcf3cd48155a215,
0xdb5303f6adcf616f,
0xd30428c0af5deee3,
0x1fee931f182611aa,
0x32c5d6ec0103ff11,
0x008c126a14bb5223,
0x6bea12fbbf794fd0,
0x0ccde2dfe1f0ab85,
0xe53d6ef0b840b81b,
0xb9ddc80bfc448e10,
0x32f3ae6d9d65f989,
0xfe21f6f748f5b1b9,
0xc21499f0dc2ca6fb,
0x14f10c892ae1ab06,
0xea3b0307819261ad,
0x9b3509f75cddcc77,
0x57ff068f5ee8bb37,
0x0df93d034a310d11,
0x6406d8caf14cbb08,
0x9266b323485ef939,
0x0dbfe80e1eebb07c,
0xffc08314098be833,
0x07ffec91ef81fcf8,
0x172e8a9eeee09860,
0x5ef9d43409cf0b3b,
0xcab020a99fb41f02,
0x0137ffd2104b00c1,
0xc9b91befb01b00ba,
0xfcff9d904001ee3d,
0x601809dab9fa8f99,
0x911020f45bc3e1bc,
0xcb29046f1ff89f03,
0x272395f08110281f,
0x3ecd67a7024f1ddc,
0x86fec5af8fc006ff,
0xa80ac877d8327540,
0x948a970703a76e99,
0xd110fe73ee946885,
0xc8ec24e0d01cf7bb,
0xafe0cff302f205c0,
0xff8c6fa337013082,
0xcb18ff9708084d33,
0x2fc0019ab008f3f7,
0x839c80137e10e327,
0x97bf1a579730dcd2,
0x3396f2aabfcd3ee4,
0xed98f54303c35cdb,
0x0c88e8ff467b9682,
0xfeba0140f1125308,
0x6fd7e846b3bd9fbf,
0x00446630b92e452f,
0x3fdfabf682451ec2,
0x1d9010c2b384caf0,
0x2648f0380a2e34c7,
0xf54e0bce7ef5cc0a,
0x408e50eda9fff740,
0xc9cb8020e23af8cf,
0x0ef6bb327119d384,
0x036eedf5ffd32592,
0x8bb187207a90bd1f,
0x16fc37091fc42f08,
0xfbe122601fa188b5,
0xde850acf9536ac4d,
0xce449388bf9f80c6,
0x45f92e84ffcebe23,
0xef342e7acba6ff80,
0x86102bb12ee0eefc,
0xf2018f4b9aa280ed,
0xea444cc005662667,
0xf13372ee6ecdc310,
0x4fe8b3ff6b2b7fff,
0xedba8acf0031e331,
0xaebfb995a000bfe6,
0xf5c70ecb0c3b9096,
0x52d767275cef0036,
0xdf879270055d0133,
0xeeb2e4c2ea0054ce,
0x00ba1052845088dc,
0x7338ef9f47e67d93,
0xfcea008987ccb0ed,
0x73bfaaf7fecfc240,
0x47500040a0fb0b0b,
0x95fabafe41b66572,
0xf7afa21fe3c93441,
0x7db308f20788ad5b,
0x9989eb3d88008cd5,
0xcc44d826a0ec57c0,
0x4e6f58c8137c4e13,
0x7ac790209265f82c,
0xda2b8fb0ab3f9300,
0x1b38360070e24ed8,
0x8923d298c00b76bf,
0x0009dcc85986e6c8,
0x3013cb6286904705,
0xff6efddbdcebec44,
0x140ee0402105990d,
0x3aec8144901c826c,
0xdab135f28548176b,
0x96dfb9afff64f30a,
0x78d4d898df5610cb,
0xd502dbeb567556c9,
0x6f191b0fdfdfc4e8,
0xcc381a0f8c327ffd,
0xb46214d48006ee2a,
0x0779bf33be6a5600,
0x76034ec9311d878f,
0x231a375bff9a97f5,
0x2e970c0aaf83eb30,
0x3bbfebd706118808,
0x00446f5fd0d0300f,
0x291df26aa063aaff,
0x80b9a94552c56b33,
0x0af73ef33b6fdfdb,
0x100a6c62c1f48fd3,
0x91affee79db21659,
0x63730a898e593ef0,
0x04f6b607e47bfd76,
0xaef746e5c7b38ebf,
0x5658979a595d03df,
0xfefd8e5521ca740d,
0xb7cc59e07dff8fff,
0x77e8adc230a567f1,
0xd878df8073f2181e,
0xeebada64888847d1,
0xdbb25eae1609d6eb,
0x0887124ee385c810,
0x732a109701baa75c,
0x23df0f3105936267,
0x467f1b37b6bba8cc,
0xaf4db0cfa6c1232e,
0x356c01676bff86f6,
0x049e6ecebed7c86f,
0x28acb20a4ebf9a91,
0x0572a911e7e830f3,
0x862f30300ffdedd1,
0x6825438e284bd08a,
0xcc0e739f7a46484b,
0x459346ef5bc01a40,
0x56df80cd27ac5cf6,
0xd9a1744a207748ef,
0xa96b208317a10e23,
0x5cfaaceb366f5d25,
0xbbd56e7798fe0340,
0xb13f4f89d00012f7,
0xffdf1147c69919c9,
0x9df9b12df3a002b7,
0xa89708dfc5d0eb6a,
0x5760a4303f37e871,
0xf5498ad120df2089,
0x924bb9e084038843,
0x08c2be09048e209e,
0x227f81f619d70270,
0x116fc0de97dafaa3,
0x293949b57e2c0208,
0xd40f27877ac314ff,
0x7e724abbe6728efe,
0x0890ef3d5204f840,
0x5dd75ae733f4bfd1,
0x03de6d5e31d3310b,
0x75f5f7c9348c8203,
0x16f8dea911737d36,
0x769f83c779fb3dce,
0x8ffe469ba758849f,
0x147168df5a208883,
0xe9eed9cf07160771,
0x06fcb01335eff5cf,
0x767794f76377c994,
0xb09414d53cb36fff,
0xffbb430e383d6867,
0xf398b01e31b8ffe9,
0xf736008c06c04591,
0xe06d00bfed616047,
0x9891047603ff1ee4,
0x6cccc90817086a00,
0xfddfc302636e0dfc,
0xb300fc079a1ff103,
0xb33e80b8f5bd7e1f,
0x964ce6fa83ee2e5a,
0x54587cfd98fb17b4,
0x03e2239e25df37df,
0xfee699a3d33c63b9,
0xef057af3dd109628,
0xbe5693d01fed00e2,
0x51fd1277e3b06df1,
0x69147c133b572f7c,
0x3c77a9a0fa390bcb,
0x16380489c4def5d0,
0xd87ed03ab3cd940f,
0x971bb443bbb53afc,
0x87b634b7a6f7eab3,
0x5b94301cf9dd76f2,
0xaf4db07de7b8c338,
0x760ae5e1739fc4f3,
0x935e13b3a4d1e82e,
0xa46743e624116ccc,
0x665aa302a95c6002,
0xe30010bcf57d7d92,
0x886133ee33e78411,
0x17aa10479b3c674a,
0xf3bc002e66eb610a,
0xcce39a435b4e9895,
0x9224b0da3cc08fc7,
0xc9fd721a257b58d9,
0xe76d05d94489dae3,
0x4c338b6dbb236f80,
0x7bb83ce80441c9bc,
0x8c81d3cc82381cef,
0x3aa5db34500bd593,
0xdf33ee3fbb1de087,
0x3c4681678154c138,
0x827e3e7600c5b3f7,
0x07649523848637cd,
0xa1a1ff2213aabbdd,
0x74c88e13c3e36bb2,
0x31d1eefe7c78d398,
0x2eafcb62ccf79db6,
0x275900295812eec0,
0xbbd009f9bf66660e,
0x9d3b0e97df16cb8f,
0x0820fdf9bf5139fe,
0xfbd5cc790242f4c5,
0xfe4e17a1b07ecce3,
0x00cc59e4352fabae,
0x6d4309ba5f68e3cd,
0xd7280d74000868d4,
0x75d1d5525d403063,
0xc59555e5452edbd6,
0x4e78cc131f9bcce2,
0x686581c21118eeff,
0x73a8e7a94b586f81,
0x740195c7a5720bcf,
0xb8b9ed193dd7be21,
0x3d322037890f039b,
0x1fdfbb023fee97d5,
0xbb1502078e42a218,
0x1760c04f0f807501,
0x8aac24e7017b3918,
0x70e79095567ec10e,
0x0ef7a03e402f2e11,
0x2af3bce30814cc47,
0x3f45eeddffc12650,
0x908056ece7dccf40,
0xd50f60d17115ee98,
0xd3e04209959ce719,
0xefe6894bbe0b4acf,
0x108770815137d81d,
0xcea1d2886dc70b85,
0xe8916f858676ec98,
0x056004380379b389,
0xa0ef9b44f60906f1,
0x117b58c171f930f5,
0x4a18d92b6fe8ffdb,
0x500c86fd3bd88110,
0x2f09ecce20807551,
0x71bafe12c9804008,
0x4fcfbffed20fda09,
0x0ebb93c4505bca11,
0x7c4188319bd17d53,
0xc42f0b7f608c1d45,
0xdeff54c4414e732c,
0xdd0193700308a33b,
0x00774c8800ef0888,
0x28fe93a3f3f0ed10,
0xecc1e479f8f1f81d,
0xae61ff4339e26f18,
0xf73b205ddc758079,
0xece787bd3b00d10c,
0x63a16378d08dfe00,
0xe031393fe862302b,
0xb1c1feffcee95088,
0xee46e51618013763,
0x310ef6f5017d1157,
0x1356a4537fe09c80,
0xd802050361886b8c,
0x08a1f00dc8ecf28a,
0x31e9af6f81eb09ed,
0x9379c800200b09e5,
0x0650e6773ff5e660,
0xf6a04dc8bef1e036,
0x3489a923f481d481,
0xff12deef1dcda3bb,
0x0c480884f8cfdede,
0x29770bff41a0885f,
0x59d8f661c2f8c805,
0x8ceba80173ebe474,
0xb005d928577df1e3,
0x578011ee64252321,
0x848fd4eb3735ee80,
0x770228c2718f1095,
0x09d9bcd4c2c651b4,
0x80109fcae55111df,
0x148c4c04d2bc0cd0,
0xc948e11443ca2908,
0xe6f9a6772111fb7d,
0x84ccb0dcfe4c4ff0,
0x3ffea110614137b0,
0xd9bbe6fe7c007ef7,
0x87ff0e7b03edecc4,
0xb09e06465ccd6373,
0xd1cfb2c9bf70fc39,
0x9d310c419779d440,
0xfa8afed1777b0121,
0xe490ac7d7fd5d19c,
0x7498fce41cc77e61,
0x891b30c4f311be84,
0x614fc74728b5880a,
0x78005840d93d6621,
0x7f778925ba14ccdf,
0xdfa712891e9c1db9,
0xdf7908434476d98a,
0x5ef74a5c04f0fc49,
0x410006e783bc2950,
0xc29ba052f7de4100,
0xc892773f370e92e7,
0xaa932d808ff18508,
0xedd3cfedc136bd39,
0x3effef03bfa69fa2,
0xf9252690204edc04,
0xe08a1fc451dec87e,
0x3060131d291a008a,
0xfde52668f7c9ca82,
0x05910033a6edfe21,
0x026ebff5477386e4,
0xb413b70da78918fd,
0xa1038c164081a2a6,
0x079f54d5b93344aa,
0x6deefef14000ffff,
0xe802bf0f68116830,
0xe63fbfee3c446f5d,
0xf30ab29176ed888e,
0xd0117fe07ace03fa,
0xeef60741309dc953,
0x7b5be4116bbdf88c,
0x840d00912c4391ff,
0x40170e8823efe1c7,
0x8a3cf79aa81703af,
0x26ccc5236cda372d,
0xc993bfd2280335c1,
0xf0d40a7f8022ffe6,
0xe188c0017ee1c8ca,
0x70f6147a7789f594,
0xf62dc172d388f8f5,
0xdf238d2e0482c400,
0x780009882cfecc08,
0x46239eb14afe46ff,
0x5fef0d42e8338a92,
0x33bc268de7f4f941,
0x8ff33609c68dc000,
0x06498fe3a8c58038,
0x584bfbe89f4d9007,
0xff6a288e1c099938,
0xe2c535c755280ebe,
0xcd0c9103f118fefa,
0xa408cbee0d48b0d3,
0xf003640871ed0a05,
0x82eddd81ce0fc47c,
0xacfb84e89dc51f7b,
0x7f00beff008f5977,
0x8d08d8fe6027cabb,
0xaa9b69055fd86e38,
0x7f7f1627481c7e18,
0xc417ccd9d08ff985,
0xe71a7ff28eaecf4d,
0x805822008143c018,
0x6f3e8c260f9e0901,
0x445cb13bd62cf6ec,
0xe08040d777ff1b08,
0x88804cfe85bf3b95,
0xc8fe8822be385474,
0x0091a9d2abbb9068,
0x107f8c73de881825,
0x8798a2b006eb001d,
0x97fa33cf5afd7a97,
0xf770f0b8e5bd4a08,
0xb0e509edf68dcf01,
0xd889047d31fd5130,
0x9080fa1bffe46015,
0x108ee73b4044d66a,
0x630efffdfff80910,
0x675c86fee8343806,
0xaf3719a196f69e6f,
0x84047ee89914b906,
0x3014f7e9104ec037,
0x4127c08e9896ddf7,
0xb73b44ee9beb9ccc,
0x73aaa0a938922220,
0x8e770670aff9f3a3,
0x20919578ef49ddfa,
0xa0841040f7fc3cbe,
0xd1b4f3feff94e700,
0x2ffe0e1a40814fff,
0xd835b1f124130327,
0xacabf6018004d5e6,
0xb5d00095040a44df,
0x38031316c08610fe,
0xee0fd0720ec1e88a,
0x1cce6c807799284e,
0x209d438879ce0ccf,
0x13ceebe1179dfbd2,
0xd5ff080bd30047f9,
0xbf7d98c5bffea6e0,
0xa08b58cab3985771,
0xb5328ff718888ef8,
0x2818e010ff51b68d,
0x5a289a86d2dc2100,
0x5c89889b015a59f0,
0xd741eba740009780,
0x66e05e5a0bfecaff,
0xc8811321dbbc0037,
0x33fbdbffcdcf0230,
0xcfde0a41fbf8ff37,
0x6333b8987aab797b,
0x1889dde0283820f8,
0xe2df33de900ee0da,
0xaf6ead0cd45fc107,
0x34f7f8080103ca7e,
0xc818680097ffd1ff,
0x7241f44f076068af,
0xa9dc7deaf21ffbe1,
0x50f613bbdcf58888,
0x0ce795fd6f719fe6,
0x79ea041eab4019ff,
0x0811f1eeb36e67f5,
0x38205f77fdccb602,
0xcff8fa3398fea7fe,
0xbc90d621d2eecccf,
0xfb0fcd5022ee4ebc,
0xcc75e03db088be8a,
0xc1b7e78d7a1b0779,
0x419810a0c5068ff0,
0xb004d6a100d7feef,
0xc458c003efd208c5,
0xfffd600770564273,
0x5fff00cc49ee6edd,
0x92d1b230c1ee1fff,
0x9fee42fa4e40b2cd,
0xfd4070ff698e0f7c,
0x159f1c1c0a1ebfeb,
0xf008cd7470768006,
0x8cb01518af9c66cf,
0xf64f2e493500efd4,
0x96fc92892b566801,
0x02d5297e0882b012,
0xc18402eac48fb27e,
0x70e5c2093bd61581,
0xf157ef0a27fb5945,
0xaf43ffd2100d8fc1,
0x2705fff914fdcb34,
0xee897fa81b0a4aff,
0x20602cb201808809,
0xe0095a812bc4888d,
0xf018028900202796,
0x0a7de8fb0c508e12,
0x58c3ea480efdab1f,
0x885babfaee7b1e0e,
0xccfacbcda069cf61,
0x203c481bb399e7d5,
0x5c8073fbe8260000,
0x06cfff327fb34d10,
0x8982a19abfc80022,
0x0205740647635fea,
0x557b0000a4590034,
0x81c991faf7554c06,
0xcfe398f901099184,
0x40b30bfcef8ec811,
0x44d9c17f1de7fef6,
0xbff82b113b023897,
0x6e6b354549e9b800,
0x9c8a1efd58131972,
0x13ba0285a805efdf,
0xeefed6b8788ad2ea,
0xcfee5f707b99366a,
0xe48dfac18347584b,
0x516770849fc60b23,
0x3ef79205181c9656,
0xaa86e0ef0b31d66d,
0xe74aa10065aceec9,
0xe218e9aefe7bee05,
0x199b31d188405fe2,
0x30492018b0e76fed,
0x6fb1049aefa01eca,
0x72fff72ac1026711,
0xceee18ffd33226f7,
0x0d9db2d82773e002,
0x45c023308c364900,
0xfe4d298f57fd30cc,
0x74fa6f39108821e7,
0xef0f931d230000a7,
0xd814d1d144805f45,
0xb000318dfe5027a5,
0x0bdd575a6888918e,
0x0ee234926722dfb0,
0xe037008ec39a080d,
0xfeacc825eff2cfba,
0xb4059000801fdd6f,
0xffff280862e040e2,
0xfc7d74b468462fef,
0x3fff20006d2c75dd,
0xbfd27230a017ffff,
0x3f1fed7b0c02b8cf,
0xd91848f5e80e0a32,
0x70491d468a6ebe33,
0x4301de54fde3c12e,
0xc4d6fd37fea6dc1f,
0xf44f0aea5110cbc6,
0xf76380f5676b7c84,
0x80d54803008bba72,
0x8301700052f0c1b1,
0xdfccd2093e046491,
0xe249ae00f7ef0901,
0x8ecf5b83000022c0,
0x04489a7db2f4eb7c,
0xeecc20a83254d066,
0x30506722fffa891b,
0xb18a7bf21886c749,
0x7718638b80b90304,
0x0afffebffd12cf00,
0xff80ebc00a5948f9,
0xd6cc8ffefa7addcc,
0x00c22288d3630b9d,
0xf39801caf6e94fed,
0x6a297a88fef663b0,
0xeff88c60ef736210,
0xcee02b10bedd0006,
0xff047d9f00407fab,
0x11615170b6498320,
0xa0d0f5dbe606e40c,
0x0641086307ed9180,
0x40fbeeb0eea30805,
0x2c80c5ff5e65339a,
0xfedc5f18ade74111,
0xfb27b4e500ecccc0,
0xaffb27fd08039ff7,
0xafff60803663e2ff,
0x627fdc46deaa6802,
0x8fde0fc5000cf5f0,
0xc5080cd50d839fe6,
0xd900558076707d87,
0x3ee5813f6053c082,
0x5000926f0b3ebaa8,
0x66e8aa05d18e3e01,
0x6612adea6fdbfb04,
0x731b8ef343e07fcb,
0x03cc74a2ffaf8ead,
0xffffc87efe1c7e20,
0xa3eb724ea0025304,
0xd6c182bfbd728880,
0x8fb920d44767fffe,
0x026203308384080c,
0xfe045ae65dffc288,
0x6efa393060877a80,
0x412f0b10802a5956,
0x0006c3c700c0db66,
0xe0d10187bffe7b30,
0x01717fff6d00e302,
0x3040b682fbdf4ae4,
0x2f7928a5c3a49006,
0xd0cf4262a2d2ae2f,
0x4f371463e8b5ce15,
0xcc019b3e88df1c60,
0xd405e0bad862d1bb,
0xe7ec033f7957805d,
0xdefede628c23cd54,
0x0910484e8d86fb09,
0xf5abe63102f1e630,
0x5e49333e53604708,
0x7df6656782283181,
0x936ea2a8dee05804,
0x6c4c54dd51cfec15,
0x7d3158355e496f79,
0x2a23105ab87ec9e7,
0xdc2909551719e957,
0x09046dd1aaa96626,
0xf721e4115d08910c,
0x44c66c6901217d42,
0xfef0cb0f9c6867fc,
0x762ba27c5da3937d,
0x02900df84d224a9e,
0x7e6bc83cc3103718,
0xdb25cd62d361dbe7,
0xfb5a6012dbbdcc1f,
0x37fe1008b91ccc46,
0xb8c8e00814861309,
0x4e3e0c939e9c54e6,
0x0503e9e1e5f21466,
0x903754234c1050bf,
0x98526e22e20b02fe,
0x920abdd3c7d5832b,
0xf420e3c71114be0d,
0xa0b400373d772061,
0x539884d26f672931,
0x9ecd85aa01779b84,
0x88311835032eccab,
0xbb2c605693b29469,
0x55fd899de9975562,
0x4b81e114df6f19b2,
0x10cff621cf51c840,
0x001537dec8e29609,
0xf011d1b401ffcd15,
0xd61064131c34e415,
0x9dcd0eedbd44dbe4,
0x29e5de5b5cd804a7,
0x7620ddace5f672a0,
0x9e8fcdf87dbc6649,
0x95d01cdaabfe2f45,
0x87ff27159d024999,
0xcb9d10c72f301c4e,
0x93820be241ade805,
0xf8c6db2a40f6f471,
0xccf48a20ccbf0861,
0x3b0057383aae39c8,
0xc8351f8005ad90d7,
0x90c582a7ed1999fd,
0x0c7fd130eddee7c1,
0x4c60d10ece776f11,
0x36b76dcc74205995,
0x88a3eddc198f3760,
0x4a22b5a1a3f7ddf1,
0xb000e44f8fad1990,
0xe0226033d9278637,
0xcb018974bd054f2a,
0xf72b2cf47cd7a211,
0xddef37c984b48633,
0x7fff2e0d8ed08afa,
0x0c80e6dc4ff28c42,
0x79ba9ff6cc0cd7ec,
0xeb9971982c778cfe,
0x08ff1fb78a1140a6,
0x299c981cc300c1cb,
0x08ce5fa11244f9c6,
0x4701f230c5d388ff,
0xd754ea05e48298dd,
0x9dd786a81af58bd4,
0x909e2cfe9eff6e56,
0xbdf75c86200743fb,
0x49e3280c6ddea7b8,
0x85ccd4efcf806011,
0x48010010f5c667f9,
0xc8fe804a4770f4c8,
0xc8bc0f1477b07208,
0x088c071008dc9102,
0x8c55eff09dcf09bf,
0x11823df590081fa4,
0xbfe6fe8e80b66276,
0xe9a7fce5799da900,
0x3ffd4980a8c351fe,
0xef8177ff089c8020,
0xf1d00ecf4ba8f29b,
0x179e29e0bccf06ca,
0xa9ef063835feffe0,
0xdffc06aa7c5eef81,
0x1ef15e5503fa161d,
0x75e36bfb0044b083,
0x9884e5f6c4454f01,
0x2811011e280004e3,
0x04494270ae5f0106,
0x2092e6ab7d7b1bfb,
0x4094a7c87013240e,
0x72fddf08dce65189,
0xd8899eef09ce8b9c,
0x95f7344d01103ef7,
0xaeff04407fe71100,
0xe02e50caf7ee7c74,
0x4900d089c2815980,
0x25789dc70488ff01,
0x808c009084806dcf,
0x30e2fbfea1658808,
0x638cef66694d0088,
0xff542a2ddec7b916,
0x0a62c9900cf55b02,
0x445feff61321c448,
0xffb05735dfa87cfd,
0xbb57d7dfc0182372,
0x8dff192d299f0a10,
0xd102c21088aa806d,
0xcfa8e8c42ab841dc,
0xe0d06a00909e0119,
0x0c84abe3ccef9a04,
0xe56f0ff1b8d34fde,
0x0eefcb8c10124ffe,
0x20468c4a0a851301,
0x4ff7199e80e4015c,
0x10663cdd5c9f81a2,
0x20132b84d84f376b,
0x4d18321f07f576d6,
0x0000000000000000,
0x0000000000000000,
0x0000000000000000,
0x0000000000000000,
0x0000000000000000,
0x0000000000000000,
0x0000000000000000,
0x0000000000000000,
0x0000000000000000,
0x0000000000000000,
0x0000000000000000,
0x0000000000000000,
0x0000000000000000,
0x0000000000000000,
0x0000000000000000,
0x0000000000000000,
0x0000000000000000,
0x0000000000000000,
0x0000000000000000,
0x0000000000000000,
0x0000000000000000,
0x0000000000000000,
0x0000000000000000,
0x0000000000000000,
0x0000000000000000,
0x0000000000000000,
0x0000000000000000,
0x0000000000000000,
0x0000000000000000,
0x0000000000000000,
0x0000000000000000,
0x0000000000000000,
0x0000000000000000,
0x0000000000000000,
0x0000000000000000,
0x0000000000000000,
0x0000000000000000,
0x0000000000000000,
0x0000000000000000,
0x0000000000000000,
0x0000000000000000,
0x0000000000000000,
0x0000000000000000,
0x0000000000000000,
0x0000000000000000,
0x0000000000000000,
0x0000000000000000,
0x0000000000000000,
0x0000000000000000,
0x0000000000000000,
0x0000000000000000,
0x0000000000000000,
0x0000000000000000,
0x0000000000000000,
0x0000000000000000,
0x0000000000000000,
0x0000000000000000,
0x0000000000000000,
0x0000000000000000,
0x0000000000000000,
0x0000000000000000,
0x0000000000000000,
0x0000000000000000,
0x0000000000000000,
0x0000000000000000,
0x0000000000000000,
0x0000000000000000,
0x0000000000000000,
0x0000000000000000,
0x0000000000000000,
0x0000000000000000,
0x0000000000000000,
0x0000000000000000,
0x0000000000000000,
0x0000000000000000,
0x0000000000000000,
0x0000000000000000,
0x0000000000000000,
0x0000000000000000,
0x0000000000000000,
0x0000000000000000,
0x0000000000000000,
0x0000000000000000,
0x0000000000000000,
0x0000000000000000,
0x0000000000000000,
0x0000000000000000,
0x0000000000000000,
0x0000000000000000,
0x0000000000000000,
0x0000000000000000,
0x0000000000000000,
0x0000000000000000,
0x0000000000000000,
0x0000000000000000,
0x0000000000000000,
0x0000000000000000,
0x0000000000000000,
0x0000000000000000,
0x0000000000000000,
0x0000000000000000,
0x0000000000000000,
0x0000000000000000,
0x0000000000000000,
0x0000000000000000,
0x0000000000000000,
0x0000000000000000,
0x0000000000000000,
0x0000000000000000,
0x0000000000000000,
0x0000000000000000,
0x0000000000000000,
0x0000000000000000,
0x0000000000000000,
0x0000000000000000,
0x0000000000000000,
0x0000000000000000,
0x0000000000000000,
0x0000000000000000,
0x0000000000000000,
0x0000000000000000,
0x0000000000000000,
0x0000000000000000,
0x0000000000000000,
0x0000000000000000,
0x0000000000000000,
0x0000000000000000,
0x0000000000000000,
0x0000000000000000,
0x0000000000000000,
0x0000000000000000,
0x0000000000000000,
0x0000000000000000,
0x0000000000000000,
0x0000000000000000,
0x0000000000000000,
0x0000000000000000,
0x0000000000000000,
0x0000000000000000,
0x0000000000000000,
0x0000000000000000,
0x0000000000000000,
0x0000000000000000,
0x0000000000000000,
0x0000000000000000,
0x0000000000000000,
0x0000000000000000,
0x0000000000000000,
0x0000000000000000,
0x0000000000000000,
0x0000000000000000,
0x0000000000000000,
0x0000000000000000,
0x0000000000000000,
0x0000000000000000,
0x0000000000000000,
0x0000000000000000,
0x0000000000000000,
0x0000000000000000,
0x0000000000000000,
0x0000000000000000,
0x0000000000000000,
0x0000000000000000,
0x0000000000000000,
0x0000000000000000,
0x0000000000000000,
0x0000000000000000,
0x0000000000000000,
0x0000000000000000,
0x0000000000000000,
0x0000000000000000,
0x0000000000000000,
0x0000000000000000,
0x0000000000000000,
0x0000000000000000,
0x0000000000000000,
0x0000000000000000,
0x0000000000000000,
0x0000000000000000,
0x0000000000000000,
0x0000000000000000,
0x0000000000000000,
0x0000000000000000,
0x0000000000000000,
0x0000000000000000,
0x0000000000000000,
0x0000000000000000,
0x0000000000000000,
0x0000000000000000,
0x0000000000000000,
0x0000000000000000,
0x0000000000000000,
0x0000000000000000,
0x0000000000000000,
0x0000000000000000,
0x0000000000000000,
0x0000000000000000,
0x0000000000000000,
0x0000000000000000,
0x0000000000000000,
0x0000000000000000,
0x0000000000000000,
0x0000000000000000,
0x0000000000000000,
0x0000000000000000,
0x0000000000000000,
0x0000000000000000,
0x0000000000000000,
0x0000000000000000,
0x0000000000000000,
0x0000000000000000,
0x0000000000000000,
0x0000000000000000,
0x0000000000000000,
0x0000000000000000,
0x0000000000000000,
0x0000000000000000,
0x0000000000000000,
0x0000000000000000,
0x0000000000000000,
0x0000000000000000,
0x0000000000000000,
0x0000000000000000,
0x0000000000000000,
0x0000000000000000,
0x0000000000000000,
0x0000000000000000,
0x0000000000000000,
0x0000000000000000,
0x0000000000000000,
0x0000000000000000,
0x0000000000000000,
0x0000000000000000,
0x0000000000000000,
0x0000000000000000,
0x0000000000000000,
0x0000000000000000,
0x0000000000000000,
0x0000000000000000,
0x0000000000000000,
0x0000000000000000,
0x0000000000000000,
0x0000000000000000,
0x0000000000000000,
0x0000000000000000,
0x0000000000000000,
0x0000000000000000,
0x0000000000000000,
0x0000000000000000,
0x0000000000000000,
0x0000000000000000,
0x0000000000000000,
0x0000000000000000,
0x0000000000000000,
0x0000000000000000,
0x0000000000000000,
0x0000000000000000,
0x0000000000000000,
0x0000000000000000,
0x0000000000000000,
0x0000000000000000,
0x0000000000000000,
0x0000000000000000,
0x0000000000000000,
0x0000000000000000,
0x0000000000000000,
0x0000000000000000,
0x0000000000000000,
0x0000000000000000,
0x0000000000000000,
0x0000000000000000,
0x0000000000000000,
0x0000000000000000,
0x0000000000000000,
0x0000000000000000,
0x0000000000000000,
0x0000000000000000,
0x0000000000000000,
0x0000000000000000,
0x0000000000000000,
0x0000000000000000,
0x0000000000000000,
0x0000000000000000,
0x0000000000000000,
0x0000000000000000,
0x0000000000000000,
0x0000000000000000,
0x0000000000000000,
0x0000000000000000,
0x0000000000000000,
0x0000000000000000,
0x0000000000000000,
0x0000000000000000,
0x20098f0170c40d4e,
0xa85dc111bbf23a9b,
0x3a19a0dfc9cc36ef,
0x805de79910115dfb,
0xb620de0baa0a80d5,
0xcade3094b054e63b,
0xc1191b9d7ad6999f,
0x78d5059c22559aa1,
0xb69c5303e84ce73f,
0x7c86beaef03e6fb9,
0xacfb85d2c8b734c5,
0xa89e7c6543fef711,
0x4b9c0c8ba45d3ca0,
0x4e39769fbd908e32,
0x990771c6d0032944,
0x333ff0db35dea050,
0xaffffe5d687fdc86,
0x1ff9b15f1c2263ee,
0x9e559b378865fbb9,
0x8bbfd1cc5f85e50d,
0x777d8fee010cdc38,
0xccea29f16fecc9b6,
0x351868befbfb9cf8,
0xfb07b85e88def124,
0xce1f7cc7f662f4f7,
0xaa5ba60526897777,
0x22ccffdd4943f6bf,
0xa55e5d215c538fdb,
0x1031d5f7681c8d9f,
0xa886fec71ab8017c,
0xbc10bf95ab633911,
0x8a8e3d702bb7fd45,
0x982c3f58353eb6fa,
0x90c53c480c7bb0f3,
0x479baf7f89579772,
0x816be68710de4021,
0xe880fd1685855392,
0x18f64ccb9ba86d1a,
0x8dc81bba64d8fb97,
0x0810d0991779a6ec,
0xfccf30c554d83302,
0x01968231ea8113f1,
0x812202f18db465df,
0xe91b0abc10828d8d,
0xac3cc1e500081de1,
0x95d5cc170e731a04,
0xe0d088d40457dda6,
0x8b75bcecea858d81,
0xf93ec4cdf33eb459,
0xaf8effcd1ddc9c4e,
0x6df25130280f1231,
0x3cdfb17978004ff3,
0x180dda9912778c5c,
0x5d2d107069ce9f33,
0xcb73c6c8c1f72fb4,
0xd5db54901f10c915,
0x86d2dce498f7a1b3,
0x97fbcc39890e53c9,
0x486dc6f0ed604006,
0xf067a0f0ce28191e,
0xbdeedbd1b8a3eebc,
0xd92ed4523d98c88c,
0xd9d39ccedf7626e7,
0x0d01975b9953d66a,
0x7e33ceffd11397cc,
0x8bb0930c98c46d7f,
0x4136bdd490f73ffe,
0x7151ca3428925d5b,
0x1fdc4faca28e2d88,
0x4f00d3b7ab064495,
0xd8312fe70e969fff,
0x790502dfe8977e1c,
0x7468d17b582b1cb0,
0x58ff7124830d4477,
0xdc6f7fe7ae1050f9,
0x100d18529940cf06,
0x81734800f712f1b7,
0x9e83d29d968fa0ec,
0xdae3b89e8620362c,
0x621bf9fb1bee42a6,
0x31dbea53a0937d8c,
0x3b7299ddf37a0c4d,
0xa12b15c420a38067,
0x3df7b103910b721b,
0xcc3099bf570620f2,
0xc46866c8fcecd334,
0x6905289c20320e77,
0xf69cf4789aeed432,
0x823e71b6dd704171,
0x1cfed65c5841299e,
0x1687e605284f511c,
0x11228f26b653e9f4,
0x59342494ace6dffd,
0xd591fb46ee800c3b,
0x27fb7a3a901eb5ff,
0x035ebf68f7c42900,
0x9112f8860ca87f5c,
0xc95f0fd9c1375025,
0xe06e9b4f6cc25d01,
0x70af17f027920877,
0x6987d81f411b6d48,
0x008b024a984cff2a,
0xe5eb0413e2ce58c3,
0x83eb6e94bc037373,
0xe5168bfff12dc597,
0xc8080e6eea51cb7f,
0xa81118786e079008,
0x13088ea0da5f1595,
0x6e0e3ef813919f4f,
0xb6fe77f0c2249097,
0x3807c67a5e57c119,
0xf7ac4ce48b7a4aa7,
0xd540af5358087948,
0x1ecf182b58fc6f60,
0x4d2ad67980d30010,
0x70b61811b56b19fd,
0xf88be7412784c422,
0x35f5d855307eac53,
0xade808c8ce76c542,
0xb765b345f04fab91,
0xadd274a408d37cbc,
0xd6f7111018fc3a7f,
0x1fd58822408e0052,
0x801d6230f330d3f2,
0xf34f40ddc19f48a0,
0xd014d1beaa004510,
0xaef792671176febf,
0x7f2b5693a33b762e,
0x7fbb7fc610fea0c4,
0x43332631accd3bf5,
0xd32eb09b04f6c4d2,
0xec91dfec354c253e,
0xec044786c340783d,
0x42c6cdf75172f7f3,
0x87f4c9cc1b1d9dd9,
0xd87361a070df491f,
0x003401ba088fe639,
0x8fb3d09e813744ff,
0xd44fb7021a136f53,
0x09b3acad079d06b3,
0x1f51bcf6b6844034,
0x0581c0f7e0f42261,
0x7103144e33e0b458,
0x015d94d5ff77e5ef,
0xbf8e811e5264664b,
0xa40d045139740083,
0x41ec59170dd013aa,
0xa307b25a60572261,
0x84700eecd562af8b,
0x6efa1cc9d8f6dfc2,
0x9370fffec8dcd9ce,
0x228919680b66d098,
0x2bdeeed2c3275c14,
0xeba8c88f07d8d645,
0x7f1fe5355cfef6ff,
0xef6c257c6f40a49c,
0x1b1b726773b53b91,
0xb50882ca5b734479,
0x032e5d0041eecfdd,
0x51dfbd6227173b53,
0xc2ca14dc33320eee,
0xf2fff6fa029a22f4,
0xabb7991e2ee463f4,
0x13bf37402712aaf1,
0x7547ca7cf3003f59,
0x11dcfd4008fde604,
0x07d8ddf5eaa769f0,
0xf8feee06b8815d8b,
0x1871c07f818b13fe,
0x3150005df9ace6bf,
0xbdad00aaa1df00fc,
0x7ff0c6df3fa6ea4c,
0xcc9ccc9cc02b3734,
0xf4e2bf0de3f6117e,
0xa25043668ef16142,
0xf683ea17fdfeaffc,
0x24cf9f29f4ef1c11,
0x114bff1280d3f0f3,
0x9bb221e618ce44f2,
0xde4a7cd9ec46f606,
0xb6f9cb90d55c1c6f,
0xea5859a6e27a64cb,
0x0abd77fa6037f701,
0x967f607b1304267c,
0xa2e7ff8f44138939,
0xefcc33559c8c05d3,
0x0ec9c2ce115c57b3,
0xdc746695fe200543,
0x9aab82d521bfee9c,
0x7063115f6d23bc70,
0x7f4d748a45f225fe,
0x83010f0f3bf32d07,
0xa138a213cddae5dc,
0xfea71fd39afef5d7,
0x1eb87e677f7b9b7d,
0x5fffa8008c8fc4c3,
0xc10200d55ccd3e60,
0x0b0a3f3fbac1b914,
0x622599d91887abfa,
0x391f324dc9040014,
0xb0affffff1ef5df2,
0x1063050b37e0bff1,
0x11fdcfce48c6189a,
0x6e42bef25cc0cfcb,
0xeff329d4afffcdd3,
0xfca573c1baff203d,
0xea1f34c8bfcec07b,
0x34c020efd7eceefe,
0xdfbfe08aacf7dfa0,
0x43ef46f9cff17e51,
0xc08b41cb53f86f9b,
0x736ea64972df6832,
0xc1abae7d9f609f7e,
0xa83e936d8fdd4755,
0x3897c880016e13ff,
0x53147855b18fbeff,
0xd9beabdaf1fde3ef,
0x582711225991621c,
0xcd5afb849ac85a19,
0xf7631ea6b6eb02c2,
0x4bf4901389d776c3,
0xd192382088842e23,
0x6f689ad1fed0f7bb,
0xf9cb74fd4910f88c,
0xfd102086f639f55d,
0x00bfb8358eedbc87,
0xdf62b27e9fe74688,
0xf0582fed2ef93513,
0x0c5ffd1e531ee119,
0x72e1f9b217f8976e,
0xba4bfc1144d11ac6,
0xfa7cecf0b155b150,
0xbbbca0f28af7ddfb,
0x9b82f33b59defd17,
0xb9baddf9a14d0818,
0x104ecda45643bfeb,
0x9d612dde9880c44d,
0xeefacfef28797390,
0x98bfdef78b00fcbf,
0x8ded814c3320a662,
0x6280388b710933cc,
0xeddf380126f1280f,
0x8009bfe74df0ff30,
0x199c7f6282ffcfee,
0x2c98e90b6775cc65,
0xccff581973f66d4b,
0xbdccbf08de2ce71d,
0xfecbff4dcfe0c2a3,
0xa847f3fecbf35cc1,
0x7ff9e5f3afc8204e,
0xdbf0def78b9d1070,
0xf6ddf1158f06efff,
0xbd7dd99f77f7d1d5,
0xff1dfabebbc9d9b5,
0xae05b86e5777bdff,
0xee7b747ba6632403,
0x1be2c405f32fc828,
0x7db19303517360b0,
0x7e0a73d6990f02f3,
0xc61924693b324a39,
0x8a960bf6632a69ff,
0x6fe1b6a4639605c8,
0x24cf4ab6a6f69628,
0xceeed7110bf736ad,
0x7f5e849e5a52db1a,
0xaee88e67f23296c9,
0x33160055b71d77be,
0x6ff4616e94e308c0,
0x2ceff96b21f50092,
0x7bb3084826c6df32,
0x095d07758018ab23,
0x117d89b22ce08819,
0xa8412a253fc6e545,
0x1ff72f5644628a5e,
0x7e618bdafc22300a,
0xe391f7a47e9d8ce0,
0x463d00081914e6f5,
0x2e23a8f6bddbfde6,
0xefff7faee080f9f9,
0x0102083368cb8026,
0x86e748fe7931ea3b,
0xddd2ff37079e0090,
0xacfd4c6a050467ff,
0x4490cc3a9cfed6f4,
0x46e1dff53355108c,
0xde31fc1e0ff91fe4,
0x8860e785e1869d8c,
0xa2e630660ab8f69d,
0x0008939936333f47,
0x2fddfefbff7e7dee,
0x8000da7741be7fff,
0xe28ac03deffd863c,
0x1aa45326700827e8,
0xfbd2c88be3524868,
0xdc1b19da267f9084,
0x8cb4326f9aa2e5ff,
0x4001bbeef9ff5252,
0x28d1aaf4ae231148,
0x6fd9f02099b1a9ec,
0x8c888f2fcf9f756c,
0xa4c09df86a1ee2ff,
0xbc17387c00092e24,
0x7f672553008a51cd,
0x0915fa38dd0735f3,
0x3edae6b11635e6ff,
0xa08715cca9fe5488,
0xeea1102340262feb,
0x88cab0ecbebcdf82,
0x16f433b3aef03883,
0x07251a6aaac4f877,
0x9763ffb259eb10e5,
0x6091456679737d35,
0x8ff8dbeef7ecadee,
0x6409b9a9f4244fc8,
0x303db6306f66b4ef,
0xa4f426b2200181dd,
0xa8cdf011afaa7682,
0xee6bec7750fcfeea,
0xcd7109ed81d5fd60,
0xce48fd980c8a5f7d,
0x2f381849709544c8,
0x35717ab2e06f2f13,
0x728d6d6d80ff1ca2,
0xeb1abe081960cb3d,
0xdfb5aa52e6faedcf,
0x76d3fdb87ed094ff,
0xd1372e8b2f5ae0ef,
0x8b17202c636b633d,
0x7a99540bff216a7d,
0x80d782dca717dcff,
0xc15fbfcb2c3de4fd,
0x110dbd7749768d46,
0x80d2fef94fe19002,
0xdfa342fee6e6680b,
0x6988b0e5a33dbf2b,
0x48dfa8e521beceb8,
0xbeffc211e809282f,
0x5babd9607774008a,
0xa002999a88018004,
0x223756f7e0083031,
0xafe480fff945014d,
0x6020ff0ba4a0d7b6,
0x53ccccffdccadb64,
0x0906b6ed1bf37e2f,
0xce7230bc4b33403f,
0x226677e03411ebdf,
0x0f7caf7549de66de,
0xf775020232e8ebcf,
0x51b6f765e017e4bf,
0xdf4914c2fbf0812e,
0xbf79ff7c9176e4fc,
0xc05c7f6b898ed725,
0xf20a80f07731e77d,
0x88ff0e405117db16,
0xa083b885ddef4725,
0x1009bfa13f3c8139,
0x45a448cc6123dff5,
0x98c7006819027f18,
0xdded291e92f015c5,
0xe538ef909c144c7c,
0x511093efd0885905,
0x3b2c69b4af28c1df,
0xf0c1c018c53f1108,
0xeb3800a48efff881,
0xffdf30aa082807e1,
0xe46e3fd100660022,
0x7b63eaec844cc019,
0x8f841a9c8a1aae6f,
0x9880332c088cf433,
0x184b9db8c8f7c86f,
0x7e6e312b2100b39a,
0x506ef8abcb20d7a1,
0x01e173331fd2ffb3,
0xbf42028c886e203d,
0xb4231ff5c0dacf7c,
0xb6cc2f7b7771245d,
0x0e8c39ffddda4906,
0xa7ff1845f76b8a6f,
0xff410ee0000ea631,
0x20639e82af94e13f,
0xbb2f4803718b48a0,
0xc176a11b193e612a,
0xdcfbfefe00f3e9fd,
0x73b9f736a4bf26a3,
0x43383e7d1177f29c,
0xffef7a53440e69cb,
0x2680fd47000097ad,
0x8ec6e72a18674970,
0x4512ce6a8b84ddd8,
0x953227fae567a725,
0xccff3b9a636dacc6,
0xe4d7a44d620ef618,
0xb7f98ff3486206ee,
0xd1109c48ed1d500e,
0x6f03082d6f745df9,
0x408d0b730c708046,
0x200f98b700423e03,
0xff70104eb6a78011,
0x1b05307840ee1520,
0x4afa79d57b4e5dca,
0x1092ebfdffe57d95,
0x2bbb6f650fb174b8,
0xd19f8bac00ef6888,
0x1971de2fb18e3376,
0xbf721006000ad0ff,
0xbc754ffa555efdf1,
0x1f21b5f7e8e90ef3,
0x80007b6718366c78,
0x3a92e5fe421500e7,
0x111a69cf12710080,
0x49fefd9143de3771,
0x017722cc1675a248,
0x6c72dff30cd26cab,
0xddcd606609008021,
0x2b708734b00fdce0,
0xcceef5f7acc0d1e1,
0x001eb8521231df39,
0xfeff0eddf255bd15,
0x02b5a94264f25e6c,
0xb00e4ee1dfd06dff,
0x254ed9db58ae1118,
0x8fd60e640cc6af5f,
0xfe982b2c74cc5205,
0x047ef6f4e6894c14,
0xb002fbf762bd49a3,
0x2047dfb0e63a13b3,
0xed02a1d5fd2d4017,
0xc31c33043ef96fad,
0xd05cc91f9f209f04,
0x06eb1fe173e3097a,
0x3e7af7f5524d1813,
0x887121800323ebb7,
0x7c8c6c6260083ef5,
0x59cdcdffbffbe45e,
0xeeefa826f0c3eef8,
0x78cde07f3ee88161,
0x3475f3ae0e548913,
0xff77bec008e60bba,
0xe4263ff7aa730ab0,
0xffc51f6742fa5b66,
0xaee670051f5097cc,
0x630041e100eeccca,
0x37e645cb7444ae71,
0x1320313a00000963,
0xbf2ef0c41008c0c7,
0xa344c47f33906ef9,
0x188ed7b80023b72a,
0xd67cef31533b64ab,
0x0725fbfff1c018ae,
0xa14d35cc5a7ebf1b,
0xfb8bfe0c93ca3bff,
0x66d4cebd6124daf6,
0xfff5ed1777367cc5,
0x9571c1e86cd5964f,
0xd5c9b336aaa99d99,
0x36c463d6b6d43352,
0x97a0778c7efcbaea,
0xfe548ceafc0f3591,
0xb5f3e378d8465dc4,
0x298298674d66b098,
0xe64cece1e2c0dc51,
0xfe939dd9dddc8f99,
0xad9e6c74d9cab754,
0xd024ad9e277ec482,
0xfdfc63df2bffd870,
0x37795d7fd958a2b5,
0xfe771fe2d4dd7ab3,
0xc7f376c43717e8dd,
0xf65aded244d04e4c,
0xcd222fbbb7fdf9e4,
0x64eaec4cf99dbfeb,
0xff0cba7d5cceb68a,
0x94997dc8cf1aeece,
0x3b33e79e173bb7b7,
0xdec8e6e5ff02b64d,
0x39325b8337caf756,
0xf4fd38d9ccde89da,
0xebf513b0043173f6,
0x6edb3be5f2fbd5d9,
0xccfbbf22b8853705,
0x845ccf566c3997f8,
0xdec48c61b8acdd50,
0x3197f2e773ede20c,
0x3861ff3d4e44667c,
0x5694ae2bd49fde70,
0x7fb00fab8599d57d,
0x5c763808a64dd88c,
0xcdbaff2d3f086eec,
0xeb5866c4fe7cd288,
0xe5d18cd1a233b9c1,
0x6000eef99f3eb5cf,
0xb90d329f58fc9cc9,
0xfb5feefefef8aba2,
0xbcdceffdded31e9b,
0xbab31c5a794dcc4d,
0x31751115b2af2664,
0xb120ff3291404cdd,
0x36bfdf02fd5494cc,
0xe4cd935db88784a2,
0x34c814e917da117c,
0xe41d334bbf40f7d2,
0xfe49fec17f77f2e6,
0xd741768550cb2635,
0xffc9a6fdfff9d31e,
0xe7dfbb640815cc00,
0x8fbe604b7fa8db7f,
0xfdc8aaf34c646c4f,
0x7470b682fd31166c,
0x155a75cbef3ade4c,
0xd929d7ff839c34ce,
0xd4827eaecec6af74,
0x2fb537608d4dd62d,
0xafc48b0e081d6888,
0x7394030caa06514c,
0xa9c639fdffb83c2b,
0xd51885723809f0a2,
0x898ea376326403af,
0x0b0f8d56048123df,
0x7962ad780b546879,
0x17bb9c731b03af46,
0x8543a1952397201f,
0x604409753671b3e4,
0x3274fcfd3fd11100,
0x36e0c3f178c51b59,
0x9b1dfeeff677b849,
0xe4c6b33b2efd3be5,
0xa2d7c89f1bfe1781,
0x8066913a859b8923,
0xe96832c266a30315,
0x517729bde0151b21,
0x37225ccd7fff9d5c,
0xeb6a638909e2c962,
0x0bbf26abd5d56ffd,
0x8c13f8ba48c1195d,
0xefbf66456f569081,
0x183962a97d61c21f,
0x7ce781a5f82aeee7,
0x8ea42036fa354903,
0x2c0843d77f9d3297,
0x1dda109ad11b9cac,
0x23ef5709de3851d4,
0xaf37288e0e437710,
0x382f8cd8a9128934,
0x53373084b1ffad39,
0x04ef640d7f6e0086,
0x003b60a7c3accde0,
0xe19c38990a47890d,
0x27fe1b6fdd561992,
0x3588c0531df4fa6c,
0x6dac2db633b4a08d,
0x197d4aee193a09fe,
0x9703793ff141f6bb,
0xeea8141906f5018d,
0xbefd9de389112900,
0x998acf4051902722,
0x5f63f55a21610f73,
0x4714aa4c35a8d4d1,
0x822920f770196502,
0x9f2924faba8da87c,
0x7dad49e9f8ce0e12,
0x0f17b2088b3bd1bb,
0xeeb5208610bf1b21,
0x98c1cddd7794e6ed,
0x9c3940e781537a44,
0x263920e7eaecff7b,
0x099d66e35d7db9b2,
0x17ef18060caca14e,
0x35fb70add6ce9b7a,
0x08b4411a79850943,
0xd360ab36f747ccf1,
0x62aea88ae2b74be6,
0x2601409d32ef33f5,
0x4895015efef11ffa,
0xf3be3337e62025b7,
0xa32c70157308d9f7,
0x7adc5cff7b9d5bce,
0x39770daf33d3f714,
0xf7dd7e35f73193c5,
0xf7339288efcfb011,
0xa2b147ebb369ab5b,
0x736787b847efb9bb,
0xa6ebfbf370fd9bfb,
0x887d00ac3c59f328,
0x44cbc0a212f313f8,
0x7a457eb9c7ec035f,
0xabac70c0f8f2bac9,
0x5752f1ae209a632e,
0x49007f6b56eecca4,
0x52eeedef1feeb314,
0x4d7e4faae366f122,
0x29601eca83f5877e,
0x03f9294d7f618f5b,
0x7fef28efffeff3f0,
0x628eee257fd1fbee,
0x92285b07c2cf39ab,
0x60633bbccee9bff4,
0x36ec700f9129561f,
0xa3b58f5d93b1f653,
0x96fabb97eac911f9,
0x390a90bfd008d8fd,
0xd3c1e91c5111921f,
0x637b2f2f075623aa,
0xe9352eb9315caeff,
0x10c40eaa7a8dce69,
0x86ddf775b3123aa8,
0xbe6e1fbf0c76a1e7,
0xeaddb795ff6df4e2,
0xf7db1747f779efff,
0x02fb5ec2fbe729fd,
0x1891c76e3f7feab1,
0x209176f753fe8fff,
0x8afdf1cf6ffd4a32,
0x2b703f2fecd98ee5,
0xf0d4d1efdecdadfc,
0xba4cbfeee215b89f,
0xd77eb3fde3d86efd,
0xd913b2bff0002a8b,
0x3fdd83b8972b0bbb,
0x76ecf44ef9798775,
0xe8b0af7724d660ba,
0xe1ccc11d0d39d1a8,
0x1f7f52178be8faf1,
0x7516f57649bc37e7,
0xa175b384c6ffbf4d,
0xbeff57e8bfed2e15,
0xf3784f4d315b0208,
0x679d67a8240d3efb,
0x526ea7f632c69032,
0x166a288fd54eebd5,
0x660877f65b22bcff,
0x16bc7dbf41ce3839,
0x55dd47b72b31efa0,
0xf2aa0ff89f883b04,
0xf340776540037140,
0x044f83e337acb0f3,
0xfff566c221077fe4,
0x7fbce223f1aef255,
0xe3e9025b86fee2ee,
0xc86343e2be8dd264,
0xe15d6fe4508c1c7d,
0x7e3b6b348156b0f7,
0x1ca8e4ef0c00cc34,
0xfcaae20204046916,
0x3a3d2f77a4cd7563,
0x1478ffa011267675,
0xfb980fdcffb4e4e2,
0x0013b5c08f4f1700,
0xdf58f8ff71f67efb,
0xebb32a500000ff7c,
0x33211b0399080004,
0xc4001c322f78cbc0,
0x8881a800f6cf8c04,
0x000a64d800087fbe,
0x868040009f8bcc66,
0x86895b0e30a1f709,
0x326f3a2ccdff0d7b,
0xb0f6f79810947d0d,
0xb78c8fd080193423,
0xf100b28d09188095,
0x1fc5e5d399805dea,
0x6360110044b82802,
0x14fd9338febc3950,
0x686bb9d7e3a032f5,
0xdef17444472bc001,
0x2331ba97dfd01c91,
0x31952b0cd47f0df0,
0x152982886effed82,
0x0100d27c33f7cdbb,
0x2280908ab7a46429,
0xc139855f6f79e08a,
0x8562c8e4c001503b,
0x913191b0fffd3b13,
0x80416eefd4c8f365,
0xdff837da0114c333,
0x28c10de500006bfe,
0x414000881003c5bb,
0xdf430b139abb3641,
0x8795ef759841c0c3,
0xe7f30cddd2e7f04f,
0x52cc00e0fcc907f7,
0x3edbd01541008286,
0x040248023311bbba,
0x4c48c2a4f9c10001,
0x03309dc2769d1410,
0xa220b1112785177e,
0x4fa02180cfc84858,
0xcb5aa82362b38f80,
0xf2297e620cddb10b,
0x50ccddfe2d884de3,
0xba26be53f2a77e72,
0x311326401059d0d3,
0xfb7600177ad310b7,
0xb4427bf51402d89e,
0xeb0fb9f53108a3ec,
0xdfd46c67bf740c79,
0xaf671010c01ebbf4,
0xc740dcc400c8f3df,
0x0701e73008d17c0c,
0x04088122a883727e,
0xc31d713910e6bcc0,
0x03311d5185110009,
0x40007642ee626cbb,
0xacfa57109bc0ada5,
0xf63fdf4e830897c7,
0x4b68d5136ac86851,
0x3910ec450f4a002a,
0x3e33cab70db14517,
0x95a210eccddfee77,
0xed1da06d6a2f08ef,
0x5bf3523954ee09d5,
0xc4bfee8e1626367c,
0x1c15dbc50aef8f6b,
0xcac868a3c08d8a81,
0x4bc4b8de957c7571,
0xad7eff0125d7953c,
0xde7289dcc18168f0,
0x7fa351cfff3586ba,
0x033241dc1a6cbf7f,
0x146e28ecce5849ee,
0x116624193a266400,
0x6ddb0bd245148066,
0xf6fbaa10818d6145,
0x1db7efd4a4927898,
0xdc7028cff69fc055,
0x384fa8c127f284c5,
0x129be07ad7b6fd12,
0x4bcd718916815df8,
0x8ceacdd29bcf49dc,
0x0a7805ecfa0f0b62,
0x875806180d3dcf6e,
0xa4b310c844f54cc7,
0xccca297323b51311,
0x08ec038c07dfbac2,
0x6689a8058cfb88ee,
0xc0a37785b7a39418,
0xfb0de82aa9b775e1,
0xa88880e4fbb10838,
0xf306f06d5ff3193e,
0x7aeed1c7caa1f62a,
0x1e468c1083b49207,
0xc9c03106873c06bd,
0x008bce4c8a5dc1cd,
0x62619163b2e3e621,
0xe020c38785f37c21,
0x17891090aad4da9b,
0xfead371c22ec4138,
0x945dd9abc3b27bce,
0xcb9873c7ded4b00e,
0xcae180e2e3ed3383,
0x402ca00dd0f649fe,
0x66c13666cfe87b3b,
0xf596e7bfb5287082,
0xc0718736735778ba,
0xe7a55735dfefd4af,
0xab6b47efc94f3054,
0xa63f40d8b2bbef15,
0x00ecc0529a1031d0,
0x82ce7f32f6018471,
0x55dab8eeef49f9eb,
0x0972696ac86d6c21,
0x8c4c6e3d5f12ed6f,
0x73a4776f271cf7d5,
0x8047206b17f6d4cc,
0xacee2eeb9b536789,
0xf1f81733500184d7,
0x4c0e60cc4fde00cd,
0x666904f82cf837e8,
0xbba995afbd83e851,
0x8003dc6f0d83c2d1,
0xff777d1758ba7768,
0x6610bff36f489bfe,
0x2cc7206511a362a3,
0x0169fe7a0bbe7ffa,
0xf930477b210497f9,
0x5c4f903f0b75aa80,
0xbf83bf6511118b10,
0x63dffef3ebfce6ee,
0x8608bcca51143790,
0xefa348277ffb8e80,
0x467da7f7dbe0ae66,
0x3119fe3751ca8e43,
0x36725c3e27dddf11,
0x7357b67188e650b3,
0x0e647b16ef6c884f,
0x8007f5f5ffcb7fee,
0x73796ac5ccf39978,
0xd7d58bef77fbcbc4,
0x60747410b15f6732,
0xe26436198a55d6ff,
0xfdc09d65011b75e8,
0x5fdc77f591000ceb,
0x4000212fad508ede,
0xecc06d95dc11feee,
0x001adbcd66310109,
0xb811271056a670f1,
0x81dfc2960ecf86f8,
0xfe576ff14cfe7e13,
0xfbcb79914110f762,
0xc9f9c006e6ddcd84,
0xefff58f786c85135,
0xdd3faffe6e7909dc,
0x2fffa2ffe0d3bf77,
0x0bb2a9fde973507c,
0xc673d8359df5ceaa,
0x367afb8108e7889a,
0x7f8d91a280fb93db,
0xfb04ad68d78d6315,
0xa4fc107fc4c15515,
0x8c80ae4ffb777ee7,
0x737dc4fe23964234,
0xfc73b5fa5139b37f,
0xdf9b13182efb7fef,
0x8030f9ffbc07088d,
0xeee341770cbb6df6,
0x6fba3f82511e5c5e,
0x0000200041250fff,
0x32ff659dafb91bcf,
0x59d900124e950000,
0x000039bf3c03fef3,
0xc08047953cec00cd,
0x47f591a6cd114994,
0xfd7fde4aba534bff,
0xd66ebaf67f2b58f7,
0xafc4086747ff4673,
0x38f76001fb735666,
0xebde21821e06ff0c,
0xfbaf60f83ff0b0f3,
0xf5ea382d1912dae3,
0x67a3f388cee4b5d3,
0xff5adbfc92b5fee7,
0x300c00120107ff76,
0x0e5d4518ed80c05f,
0x60383bb1bbfed118,
0x0484a1989fce3553,
0xcff1d66306b4bd18,
0x24c57674e908889f,
0x73204cd2ec6f0c01,
0x703e1eb411c48477,
0x64dab734f3ed4a41,
0xf44e626580ecf231,
0xc235d10053e057e2,
0x6637b7dc70e21232,
0x86dbeeb57ef70486,
0x362f201e036ff321,
0x26fdfedcc28c8017,
0xdee0084bf695f7d0,
0x8249af06c427d124,
0x53f6ae861854851a,
0x0804cff89411527a,
0xc4cf975009880b79,
0x9101f0e4c0c44ff0,
0x121e834c6b7e380c,
0xbffc00229ec82370,
0x0156bbd1fb322b3a,
0xe775126cb22b0ecf,
0xe9c7e288506e2200,
0xf40d06ceb307f7d1,
0xff93e6699fcb1721,
0x2266dce0f24ed6f6,
0x68236d8c66c47d61,
0xd963c08c04576c64,
0xeec60cd3513b10e0,
0x33da11c100e2cc52,
0x7c1ba7e89e134205,
0x26019852085012d9,
0x9acdff5802ffa23e,
0x9a21d030683d0150,
0x227b636488067c7c,
0xd000f25c10057ba0,
0xc84950bf2aad01a2,
0x634d5e93efa7f014,
0x9a1931a24f51b2e7,
0xf81fefe720d11c5d,
0xd7e6ef2062dd9674,
0xb6ceab3508767f6f,
0x200da33fcffa77f8,
0xd124e677317e899f,
0x50c2ef98a034f221,
0x22d51146a4054042,
0x7d12c618bf5ee371,
0x1137fb5b34f776cc,
0x3208ff2304cc8488,
0x01df4a390e479e68,
0x06cc052bb6c0234c,
0xdc591be4671ff9f1,
0x9c46370b2eba96e6,
0xa66116c80833dd44,
0xa6ccdbf3de262117,
0xb458224601f403bf,
0x25263002774461e4,
0xa8c16c4457fa811b,
0xc5884748fa1346ec,
0x5561db69b44f02a0,
0x716dfb14fbe3a051,
0x23c966cc44783365,
0xad434173e8ddd7b6,
0xcd8d010d0427a88c,
0xff1b7335205c8bbb,
0x0edeb320ea1f2041,
0x2dfc70731f005cdf,
0xc6fe41655bc16f2e,
0xf3ceddeff710aee7,
0x0030fec737403815,
0x066e3083e3a470f8,
0xc57e400c06b0fcee,
0x13aa27d80cd08023,
0x810db6457f8cb0e4,
0x81b88a2df4bdcc62,
0xb72aeea2b4333330,
0xe167a643b4b1fb34,
0x379336174c317da1,
0x6ec598d034331f39,
0x3bf604cd9bf66059,
0xb53f4a246033a618,
0xb82a7e4cc5fcd82e,
0x3eda6103dc407fe4,
0xc449319f67ea332e,
0xd3258c1e0efd9bea,
0xf222d32f96146d09,
0x2bd840d4174c4013,
0xdf145542780f42cf,
0xdfd7e373646e8cd5,
0x1c34c2eb12f4e326,
0x88326dccf41084cd,
0x227aa2a0233320b2,
0xe62d469f7fffa2b7,
0xeaa5b5fb8bb6ac75,
0x1f15b05247bc2923,
0x043221a0ef8d8a9e,
0xd80c7dd83702b37c,
0xa049c787033b3fbf,
0x116d04d776a0443d,
0x770512aa8ad53f70,
0xd9dbcd82684c2225,
0x8cfaece6180fa838,
0xb500b1a3ece81d86,
0x70684aba7304a28d,
0x6e078482eab38468,
0x364ce2487e2aa661,
0xc0a48cd61d30a6c8,
0xf2114a7dc1b17fe2,
0x7dddb033311d632c,
0x5344444ba2649090,
0x7336ef50ccefd11b,
0xcca06fe926ec41a8,
0xffbffdfc305e97ef,
0xc5185e3a463203ea,
0xcfe01a12b40483f3,
0x332617f5277f7a17,
0xb336c3824c9bccc8,
0x0d1d22841187c865,
0x51fbb3037c4f3b25,
0xe78dc68cd0801396,
0x9dcd673b88f3703c,
0x0021b3a11744a7fe,
0x3650610d10456f47,
0xa2e926158b3327f4,
0x07834563ee13e43e,
0xafe97cc4ddcebb28,
0x7f49ad46c8c838dd,
0x761f7341fbfe0d88,
0x0049ee7b2c7f2006,
0x1376ce2b900f59d2,
0xbaa998deee73fd52,
0xfbeeb083c79cfb95,
0x8046e0efbf634817,
0xea743fdf2186f53f,
0x40050091effb5019,
0x9e1629bdd2fe0b71,
0x58cf2f772ac70049,
0x02106f4548883275,
0xa10b620d989c846d,
0xdee6eecba7751136,
0x6007c1d34860e7ac,
0x199baff76033eb6e,
0xefc18cdf7226bfb6,
0x7dea4685000309c9,
0xdea3002b40f827c9,
0xa8ccbc440e70f3fb,
0x8f8faf776cdea0cd,
0x0e07911c45f52e26,
0x07fbbe88fa63c192,
0x38e3211a627538f7,
0xf89db8e61fc9d32c,
0xc1fe8aff22325b5b,
0xfbfdc29e14fe44f9,
0x8673000a67f4e637,
0xb6297d15fa9dc407,
0xd8e45800b776084c,
0x40e2772adf7a3fa5,
0x08c13901580b27bd,
0x28c4624203333648,
0xaa1b01770018b6ee,
0x9077fdcd1e6eb808,
0x74c84702276b1a03,
0x32ccf5c3242246fd,
0xa3b3f47e86102ff0,
0xf44308891a8f5b23,
0x2120ca0352009ef7,
0x3bcbc9a9aac8afee,
0x603d8667cec10233,
0xafb63e8bfcc53873,
0xaa5130e1add7fafc,
0x6ee8efe6471f2c46,
0x4defeaf962e66680,
0x32f428b3c211120f,
0x21570c0aeff98011,
0x6135effcbeaba81b,
0xb017f6ced942e259,
0xa7635581a5fbdfef,
0x4fb27e3058641211,
0xc6559becd427d3b6,
0xe0d2e771725c366f,
0xffff233be632be31,
0xd1039631d2161015,
0x0879c6e0700f6908,
0xcf1fa7ee888c1816,
0xb6eb733d867ffa6d,
0x58454ea310047335,
0xe5639c08003b0ccf,
0x01ae7b5da11b4c7a,
0xc015197aeffe1098,
0xf76dceff0cc810e8,
0x53b9ffdf00cafe33,
0xc1e7e8f722b3d0c0,
0xf738e983f1171a27,
0x47cf571062082f36,
0x6d9d09779b9d613d,
0x219c9d7f207630df,
0x013126334168d7f0,
0x1c4bddaad79269dd,
0xddef9f3619d1a7ff,
0x6dcb3409dc5d5402,
0x82ba8ec2345ef76d,
0x75667280779ffd00,
0x411d8f651028cc4f,
0x71933dfd2260ec3b,
0x3042dfe600441cfb,
0x02735ef00807ddff,
0x90f8a8b3ed57573f,
0x0000401ebf54b467,
0x0012eb01ee68587f,
0x98a7eb72c8e1a044,
0xc4a45970f825dd33,
0x60df64485d17d5a9,
0x6512ecaf0992186a,
0xfefcde72048add66,
0x089101314c87da3a,
0xe58bc9000121c213,
0x06dffcc76f1db3f4,
0xff818e774d1785f0,
0x008b4038adce86e5,
0x7cd1f6f5cff1ba04,
0xfefba23f00f71777,
0xc9d25100302800fd,
0xff7e10773eeb4103,
0x07eb6ef8ee4d8800,
0x7c2b78b5b11142c2,
0xfae4c865fa7a05ff,
0xe63fd1ba8f3d6636,
0x8f7d917a882007ff,
0x6195500ffcae4877,
0x984a17fefdbd0048,
0x3877127b90483f8b,
0x5c98be825f31feda,
0x91f1fff66a2fafcb,
0x16f3f3b8fa387ff7,
0x4c8629d6fc7fb735,
0x6060a6fe382738ff,
0x44107259b48b76ee,
0x7f21536ecc84d146,
0xe5e7217a13bc04df,
0x2ecda18f3ea31f87,
0x59e8377ece15b790,
0x4890a21718072c7f,
0xb93080f0ac04e0b0,
0x67f5e8a4dc192189,
0x2b12ecc2b28058e5,
0xee3b4123306cd863,
0x2b84c172f9f74577,
0xb4915d8bf370e8fa,
0x703ef734b0bdccb1,
0x237bf12f942a14d3,
0xe6ff92fb00237396,
0xa90a909149ce21bf,
0x26673022dfeffb6e,
0x13e159003886fdd8,
0x2efe0ffa2c8009c5,
0x63e4babc8c98eec5,
0xd611319d630e4f1c,
0x6733ff79e83298e4,
0x7d82366f4111f320,
0xa1d774773ef20f7f,
0x23e50f736919177d,
0xdcf3780142382203,
0x8ce7d06209993967,
0x664340051afd9e88,
0x918a96c93514d0bb,
0xee88f02137fbac90,
