const Word bin_dense_wt_1_0[] = {0xf38d64060ad41b0f,
0x038ec919dff934a1,
0xe307978fcef93aa7,
0x58bb80c10e579bed,
0x66fb1b68ec0ccf8b,
0xe6a289f52ddf40a2,
0x600e70c9e80f4bdf,
0xdb7668047882b77c,
0xfc2c46deadcc4ce9,
0xf67a8dc9f7ae19c3,
0x7115fbb50863e581,
0x7a9a6c7f35a03de3,
0xcb89d5bff746b787,
0x09e6e21dd80881b3,
0xe6ce6fe8dbead7cb,
0x005db020fa737796,
0xcd8881aca25a3ffa,
0xf8f3d8c0cd880ce3,
0x06cd1a6eefc3f20a,
0xc88ab15fce0498c4,
0xab8c1166f099346a,
0x3882ffb759c65910,
0x11c1eefc71ccbb8e,
0x4f170b8c3980d000,
0xd2dcb5cca8bc46ec,
0x4810683b84c225c8,
0xf98afcb3ae16fab3,
0xd1aedccdf4204042,
0x184c86cb6ce1dc11,
0xedc8eacec310edfe,
0x24ddc2ccc89269fd,
0x9d976dbad448ca17,
0xe89fea9e6cf007f4,
0x7cceffcdfb87cd12,
0x0168f0642393fd3c,
0xb4ceeab2ebce9733,
0x0389c3006f833b64,
0x1c1e908b5748fbdb,
0xcc32e3f90d5dbc48,
0xf0b3cd565d4e2d18,
0x7f338ddc8e8c7088,
0x6ed84fc443f6e2f3,
0x773b35f9ed509cc4,
0xabb0d897a20c2c0e,
0xc1ce9184c248a4dc,
0xac8efd8c073173aa,
0x3eb6a02a36253ef3,
0xff9cff978800f7ed,
0x218c3d7bb6f3e7ec,
0xf46b3930d26925cc,
0xf3cdc92dc541f7a6,
0xc840d40179a00400,
0xaa13e846cc40e8c8,
0xd5b37085c4d0fcf7,
0xbff9e13fe8ca200c,
0x880cc77e10fb5100,
0xb213d8136eec5116,
0xc1dc29cc6d8cefce,
0x1ca92ac9fa4ee00c,
0x7841f4b3b1078c80,
0xe262ee37cdee515b,
0xfbc3ebf779c496a7,
0x40108c6afdcca018,
0x4c611fa9d08cbab0,
0x1dcca903a817b7f5,
0xd0feb384f31dab3b,
0xc6ecb177e9f9e40b,
0x8e1b3e086e1545ed,
0x4898700098d2da2c,
0xadcccd80fa3ffb9b,
0x75d82ca684b14b6d,
0xca5168025330a574,
0x84af98fb9dc8edb5,
0x209200b7e2ddea9e,
0x7def1311dcf4ec20,
0xbff69fdde918bfc9,
0x000c6210affb554b,
0x95db4980133cf846,
0xf8a9bb4830576ff8,
0xfed9bc00b87de157,
0xd52ecdc8408c1009,
0x8e009cd01fc41804,
0xff7f0201aacacd7a,
0xe9f066eec1d24a35,
0x9a182ee7ac9f3922,
0x55ac0eeddd8df892,
0x7aff53c4bbcc8cc8,
0x8842f3457f8380b2,
0x1ddd18b13891408d,
0x0b573b9623bd1eda,
0x9a10bdd60b31a462,
0x033efd540143e68f,
0x087ef3193a76e352,
0xab316633a8da9bfe,
0xe6134bf12ca0423e,
0x1dcf2e6f3fe1388a,
0x111a0467ccc4e7d5,
0x358c7de6b11008f7,
0x0feda7f4cfb879af,
0x0becd4bcfdeaf012,
0x91ec1351c97003ee,
0xab7b6b5773a08e8a,
0x58cf0ff4911af89f,
0x8b570b9088cc3bb0,
0xcdddffdf11579450,
0x5088fec7015e637f,
0xc7c011f48cd90de7,
0xdc77a51a5b8f66b0,
0xf502ccca829338f4,
0x6e89b931ecd7c4a4,
0x3bc33b591f90cecf,
0xbb20042080fb2878,
0x64ef4ca4ef723139,
0xd674dd664f641b49,
0xd10ccbe709fcab34,
0x73105b7e404cc7fc,
0x0941a117bd3674ab,
0xe1f8f393024b3310,
0x06c0af3ebfda26ac,
0xbbcf36cbe1fa1760,
0x49b16675ee7f2c9d,
0xf3d74ec957856b20,
0xb9e0b3ed9bdb6b36,
0x1cdc138de9849ca0,
0x036075e4b02e1ce0,
0x42660230129f2574,
0xdcce04fcbc18ed8b,
0x412e577c86b43c73,
0xf121cc8908b0b146,
0x709ff372a1d38ac2,
0xbdef6bb6d4958b9a,
0x4f734993e425577c,
0x1ebf72100f267610,
0xf83a82916f9818a1,
0xdf408eb7d2f672ed,
0x8b76f387cc492d3a,
0x81b608b7efbe0cb8,
0x0c108bd59766c69a,
0xb8bb65732f8b0b20,
0x42705e91c04f0380,
0xc4870eb5e06688ed,
0xcf72e6a17c0d3fba,
0x0209c1a0590258ce,
0x20f9610208703cf9,
0x77004134e6b30138,
0x06321fb21f9198ef,
0x38122e85206b03f0,
0x65b21780efd0fee6,
0x289e71447f543003,
0xc89f39fbf9de2fff,
0xb1df426e47e3f327,
0x47eb05d6975793b1,
0x18aa2bf1fba09f73,
0xc4a76eb89bfbdf4c,
0x37f8fa5887a97e39,
0x08de80d992d9eff6,
0x51768f3568beaefa,
0x4b7ad3d78b810bfe,
0x2ece116e6aa8def7,
0x7ec080ae787f8ffe,
0x1662ebaeb9312b91,
0x9e61ef887ed32d5e,
0xfeff44c7d388eb44,
0xebe3dd0200006ecb,
0xf3fe580adbbabf44,
0xbbc770083da30b1b,
0x3de65fe1b552d4e0,
0x0219d920bfa6be64,
0xeec08a0e42be594e,
0x25643fff77ee6ff8,
0x4481af4fefea00db,
0xb264d819effeffea,
0x2970c674ea2cfefd,
0x1eb3c266057bb7f0,
0x7db8bb46cacb22fe,
0xf75709d7ca75adff,
0x0eca8c7f0c001996,
0x1691e006862c7eef,
0xbecc251021e28ff9,
0x6c68c980db60ceab,
0xaefa2880d546a0f2,
0x21527f5c00e18c11,
0x713f03039cc20a65,
0x5bff1497e6259cc3,
0x26385ac5ddbf02f5,
0x29df4bdb76a3ea50,
0xffeb81e36e07f027,
0xecd2b282917f0f8a,
0xdb9372138c95de7f,
0x37e2ed82111a3056,
0x2eff4842db213f6e,
0x1f573b5cbb661021,
0xcc23fbf477211032,
0x6009b88fb85777bf,
0xe6666fbfb993e6fa,
0x183b4d3a0b12fe79,
0x181dea0400fe26c7,
0xf37ff816ecef5119,
0x2c8b310968b40c22,
0x4abdecef00d7edb1,
0x92afc1136ffdfe31,
0xbeeca9aff7669f4c,
0x705825de4023a359,
0xf9059dc10d58c6f1,
0x0a7c3ab3a6edd677,
0x5ddb5e2f6f697be4,
0x8a0b23c83619e9ff,
0x6ffbcf3fe25c266b,
0x700d289974398e7f,
0xbe1ab214ca649dc5,
0x2e7bf1ffba200407,
0xe960dd82ce4f879d,
0x0852bf10104c07e6,
0xd9183b955fef510d,
0x08036dfe3126b18d,
0x5983878257695558,
0x5ed4a95e448309b8,
0x10a4c7c75e681515,
0xdab278e49bb31018,
0x75a0bff1def52a40,
0xff7993a2b6f14200,
0x35e629c92485de3f,
0x61830379116c002e,
0xa8f1b5329ce54033,
0x3006e7096064dddb,
0x2100eafffeaf488b,
0xceca959746041552,
0xb3372217717f9ce8,
0x0910b32300101906,
0x3001edff3376e03f,
0x608379a10afa7fff,
0x3b3a882fba696d96,
0x722c3b1e40150e8e,
0x0e71060c57fbd9b9,
0xd0371d68f749bffd,
0x92b408809aff05fc,
0x49b2fe821f10a633,
0x0dd6b903758705fd,
0xb1043d2304d7364a,
0xfcc0f437c0a0b8e0,
0x00727f9189c160cf,
0x8000633230000c77,
0x390f81fbdef1e9db,
0x1cce48c0fff92000,
0x82160314799e005f,
0x3247ce68d7fdf958,
0x5fff2248cd8077fc,
0xad7f1fd39b4eb6e4,
0xba6ef8cc15deff7f,
0x1f422a7f53008cff,
0x09001312f734b307,
0xb88303eafcec2402,
0x4189009b918b18dc,
0xf24373e411c411c7,
0x2280fee8087c2e4b,
0x988563b972381009,
0x3b2f0bef0829f370,
0xddec98049ff22e26,
0x277379127ca37d0f,
0xfc1946e688b850e8,
0xcabe7ed8e23f0006,
0xbdffa9853c380ed4,
0x32f7f2880005405d,
0xda107ff4bfffde9d,
0x60253c13eeee28af,
0x38444131331341b9,
0x60f69a42cd970208,
0x58c736dfae5711ef,
0xfffe000c931101ff,
0x0832f34fafec3806,
0x2e0011f8f4c4ed33,
0xe5f898d1386ee991,
0x2600f0adff3d644a,
0xfe0b9d553afe0ec5,
0x9561c83c5280bfee,
0x1187eb5e6c730ff9,
0xc515ce6a63390011,
0x840434d04ff85cef,
0x701892c6ebebab06,
0x92e6d084d90777c6,
0x20b8e301010d3b60,
0x689c845d7342fc24,
0xc710768977fbefe6,
0xcc27ef78598f36bf,
0xdf7da419871aeeea,
0x86bfe7f03801824e,
0xa0a85723c7d3cf1c,
0x4a04eba6fcb7b6c6,
0xcc4ca316fc007b0f,
0x23ed2f001ed6f609,
0x3f9f278f7f2cf240,
0x6235e6c04bb7cf7f,
0x48db7f7fcfab3921,
0xdbb9fd91991d0ff3,
0xbfa45125e903c118,
0x3a223f97abdaf700,
0x134940e843064b8f,
0x55bce6c9e1bf223a,
0x4080cf454ba50487,
0x700462a877f11e69,
0x73b7afd2c3e06a1e,
0xbff7c3f3066db7fe,
0x226d5048ef63d9e0,
0xbe731f98a30e0555,
0x0bd9b04c50bf9827,
0x00877701cc03d937,
0x57138d0401e37d7e,
0xc63cc78a26b25cdb,
0xa2e7012c7b01ba84,
0x4eaf0311b3362fa8,
0xc13f19066fa50bef,
0x131590dcd01fcd0d,
0xe9eab0c6ff4d2fbd,
0x40f21876db350b53,
0x6ec0370a1fbffff1,
0xe9c3c303f6ebdf13,
0xf3036b33c111cc64,
0x4ce22c3300b2ccb9,
0xe7ed8a46f3e49f78,
0x941f8980ebfe2773,
0xc2f34bc24ee2d008,
0x3c1f83159ef9a49e,
0x5912cfaf2462b666,
0x35a2dcfb720986c1,
0x4000f3b0c90c8200,
0xfe78e88235c02029,
0xd2e3d10b383ad4a0,
0x04ce8c6038b2ff62,
0xf02192044d1fbee0,
0x67cdcca577c63013,
0xc094dcba64a70086,
0xbd732c67df76ccf7,
0x93f02f66e2548c0c,
0x7228f717f882071d,
0x0c4d41cad199b201,
0x0a0f0b61e54ff632,
0x8b80000c5a3d5aba,
0xff937fdcf8899140,
0xc140f480a70fd80b,
0x8c8096234f2dcd54,
0x2850c3188f0c4608,
0x29ba48c5737e0b5c,
0xf80180ef01973a32,
0x06ff8082ad8f3f66,
0x659a01535b2cb10f,
0x0c3fce75df2f8868,
0x3118330064ef171f,
0x5c1a73fb8b053234,
0xbffce0dece218aee,
0xcc641fedc685ea00,
0xc04940fbb2fbc1a0,
0x8088d4d7fffc147d,
0xaa066212714c77e9,
0xc80af9a5fefc4910,
0xe11ddd55fa029004,
0x3f173b219bf74e7f,
0x8356068c3af5d800,
0xcadc39ee19d78d1e,
0x2515a01d29d28df6,
0x7331102797eb844b,
0x633a100def34ec18,
0x2efe3b325eecec60,
0x401129e1eacddcde,
0x873191111fec3afe,
0x79e623f5eb307600,
0x53ff814dc779fdef,
0x80381c9022331920,
0x313ad93bc5070ff2,
0x9794845e9409f8df,
0x00266b0fc226d4f6,
0x999e3d08188d881f,
0x7e1d1423f353e4ce,
0x6c176384214289df,
0x44ceff45f7cef919,
0xd86eeda3cc475ac3,
0x1331980577e0c200,
0xce7577ebb88cb173,
0xc97ea8720216167f,
0x033be410e6be3ecb,
0xd15083e785d71388,
0xddc58f9b00510d6e,
0xdd4064871001c010,
0x67f6fb5a316a16ff,
0xea6d51abfbf0c4df,
0x0d7a0ffdf3230111,
0xdb52d081fe707737,
0xc65098fb3beb3777,
0x180b66c849f2a1a8,
0xb5ecebf4900ff4db,
0xcfe4eedb8afa1c46,
0x3073b88f696b0a50,
0x54092c0f07efd1dd,
0x7300b18d4fc07527,
0xabfd3739bad7df80,
0xe9c01a3e3865e477,
0x6eec91ef7e9097e4,
0xe9f9926b2c007157,
0x1d12d9df632b9563,
0xc1961ccea475fe00,
0x576b7f25d03b27fe,
0x383e244b768db2f3,
0xfa9daf3c22eeff9c,
0xc719627b9b848601,
0x03fecd262a19c001,
0x6bd93d2a30a4f425,
0xa7597e9979e39106,
0x4f10083f09931537,
0xc588888a1f888d02,
0x669976023a41d303,
0x08cac8c9d1c0f0f5,
0xff2a9964889b051c,
0x9cc235d1df08dad9,
0x83fee2a324280855,
0x819b4eec76d12b15,
0xa30122bd05fec531,
0x8db08c9fab67c516,
0xe94b3a08d540b773,
0x75a3ff081733a9d0,
0x243ec614efc0fcd1,
0x2497fc90a0bbfc7d,
0x0d9753a9f58cdec0,
0x11ccb00e0193449f,
0x2e9df1bcf8d25c92,
0x9f10f1645b2a91a2,
0x76f1b9efee991f62,
0x22779f20fc925802,
0x60018db0ebdff8ef,
0xe92a4302909348ec,
0xa933c0826d6f8cbf,
0x00f62dfc00015289,
0xbbea33a3ae1c6cc2,
0xfd72bd116ed01664,
0x01b71dfcbc0af81d,
0xf1001cab556ea23f,
0x57479d9b05089370,
0x0ddc8df4ede925f7,
0xab18e25d5c884659,
0x871f9e897cfdd558,
0xdcba62ee65124de3,
0x99a3380310ee8df0,
0xb2850b6cddfd960a,
0x0b13a4916a10e6f3,
0x2f3abc6825868917,
0x97f6a401d1c07000,
0xf48fc93f6ffaeff2,
0xddc8f7ab00011233,
0x9802c4731c338801,
0xe6f77f33a7bd563b,
0x819bdd0a49f3d0f2,
0x3f58701963e1a911,
0x2c23ae917277eb07,
0xfbc3a326ad182ea8,
0xccbb32b4880f1c4b,
0xff74efd78cb51eab,
0x111f7bc9222668ce,
0x08c9f90248009098,
0x045320cd2fb8f0f4,
0xf1282de0b50ad589,
0x7e420c9f86ff2371,
0xf6d5debe98d2a7b3,
0x815386fd9cc00877,
0x7b0dbe3fbfa17b17,
0x50104a848347aeae,
0x733bf4d0a033ad9f,
0x3d738ed1a197fd49,
0x5b8fd5786e702283,
0xbebf9e04c8281c28,
0x7b20e504be50f142,
0xf7290b33c0005011,
0x32e040a3be50a2e8,
0x77f07703b5224db1,
0x22369e96529c2444,
0xc70f542b58f01209,
0xfffefafb7be44fc2,
0x4000d0016f73ebed,
0x1677ff7120e3333f,
0xfb772f5dad4b0a3f,
0xd90ffcf0bbcd73ec,
0xff57ca8e60ef4df2,
0xc5be7ef7ffff1bb2,
0xff1978c48dae38b2,
0xf9411008c28cfe20,
0x4203ef73a57d98e5,
0x7b4439fb8260dfff,
0x485e8ffd717c63ee,
0xd9be98059d5f3eaa,
0xfbbf8b5540c804c0,
0x5cf581757cf14ef5,
0x17cfa08865131752,
0xef6cec46f97be513,
0x0dccf4817c3f5143,
0x195833ddffd751bd,
0x1f0fb7caf81717a7,
0x10477c849dd33441,
0x580fd9f17fac8052,
0x51cf4279fffc2011,
0x538048e5fad0734f,
0x0ba8fcc827ffb783,
0x333da8c460a2e2c9,
0xd94ca33d7f3ba73f,
0xfedf31aeffdf5ba2,
0xc77f1076208810a8,
0x01072d77f006ff2e,
0xb8cc420b10d0e670,
0xffbd77ff2e1506f3,
0x00359da6f4cb339d,
0x0abf4890561e7410,
0x0274e615d1ecf6b8,
0x62574b987b7457e4,
0x1defefbb918ffd89,
0xeff3a613d1f719ff,
0x45368a13fbb20db7,
0xefcb78ff7c485e4b,
0xe5adfdf3ea0b5775,
0xbbf3025df0338eb6,
0x6dfbab339e7153c8,
0xb7f2858f1954f3bb,
0x48401678638aa133,
0xff431b036ff3eb98,
0x35ba381704a76e8b,
0x7ecf57d42e39fe6f,
0x6fecd6c6668dce68,
0xc313ed7770c0fbbf,
0x773357ae78b287aa,
0x0351eced70885f37,
0x379bd776f66fe573,
0xf754c362f80b3b15,
0x7f9665d8e1179efe,
0xfe31423200403aea,
0xf7f0d88421c060ea,
0x92867ff7753f2083,
0x6c404022953c00b8,
0x1b1cd876bbd87430,
0xe4403a90fbe6dba7,
0x2a7320cc01de89e6,
0x8977b3802209dba4,
0x94b7805fc39449dc,
0x2f1470b20aa6f74c,
0x1b1adfa4d37b07d2,
0x998414c5b13aec8f,
0xabef06f35c12fcd4,
0x1ccea9acce71c107,
0x05d75988d9fbf567,
0x46744deff86ec0e6,
0x31dea8acc7e543f7,
0x7f6ef9f41824acc2,
0x1f731127fe0e7c0f,
0x18eeffa82b4effa1,
0xd1efd7a867faea7a,
0xec3e168832a2d356,
0x7dec19cf2f169c5f,
0xdd31ed70bbdeeebb,
0xa3500df6d50c4ffc,
0x6bec0af8677ff7bf,
0x14ca0f2cba673807,
0xc0aaeec6b92d3a6e,
0xe166f7889e4ccdff,
0x0ffae63615c5fbba,
0x669f2cdafb214ac3,
0xcf73d91f62f175e6,
0x444e85deefe7b3dc,
0xf6fa686560ca330a,
0xded481ceadb96005,
0x7b4fcc7511ec6ce6,
0xf6b52ac4ef2030cc,
0x6536f9f6c824716f,
0x055a0df47ea2c1f2,
0x20bd3c636efae950,
0xdb08dc5794ea9816,
0x389428cf9248c362,
0xdf6c126e162775a7,
0x7cf654cbff6ebf1d,
0x04c440ba566f6efb,
0xd837327332ce3721,
0x8de5dcfff57ed0f8,
0x6c272d6c4b6738f3,
0x394e7ae08bbc90da,
0xb8f3726d99e7bbf6,
0x51cd5eb7f8a0fae7,
0xad7b3916ae2bef77,
0x4a8405f18b2657e5,
0xff9ede93fadf30db,
0x95d8a7625db6198f,
0xd121b70b15c2fb75,
0xbe8991fe3b121d43,
0xce6a61e37b42e28a,
0x7cef5dbb0039f840,
0x709b0980b9f6790d,
0xbf3155137221fcb7,
0xdd184843e53f7aac,
0xf22c098439d5212d,
0xf7893de4190f77b7,
0xfc26715153cd107e,
0xf62b1730fe758ee4,
0xdc3394b0610f7d42,
0xcbf4f9c1c05ba323,
0x9f9f58aaf1d3de0b,
0xd93fb9d7d894a58e,
0x71d34cfcc1445177,
0x8e2c879d1af6c686,
0x14ccddd6e9bf43c8,
0x8808cb2be494637c,
0xfece8d910c03fb8d,
0x019c948c5416194b,
0xc1b0ccc65c6eddd1,
0x0feedadee01048fc,
0xaffa8aa468b2e861,
0x439d09eb8d46dbcf,
0xfcf189dc98855ade,
0x0fdf80cc449bef73,
0x88e5c41dfd1e0d71,
0xebdc636b8b0cb451,
0xf7bf8002a786f710,
0x38c710044dabf3df,
0x7c32867cb35ed914,
0xe477401260ddb006,
0xbc19cfdf6ccb4bde,
0x87fee255e43a669f,
0xe7255b1cb89658c7,
0xbb453891f804674a,
0x00c01194e8e089c8,
0x038008e43698b8b9,
0x4fd3e6085151fbeb,
0xfd7efe9a7df1bfcc,
0xe604b1cef675f2ff,
0x71783f3fde9953da,
0x84d8ea04054cd574,
0xe376c55b0da14dad,
0xf90c16fb253fe93d,
0x3c1906058c647465,
0xb8ccaffb3593c80d,
0xe10866278671d551,
0xb00185c300afcc8e,
0x50cce99592fb8aa1,
0xd10d0d690ccb298a,
0xd537605011023f3f,
0x3054f7af6bfbc9d7,
0x91f05ef2b7febf71,
0xce2c4c816eb1c080,
0x7cafbf3af3a6ffc5,
0x2df2d00022345c44,
0x207e79804ea19810,
0xcced7e6bdffef081,
0x2e2aa0093a52cf2d,
0x1c995c01486ffe7a,
0x9adc1eff8df7f6e6,
0xb93c42f5deb168a8,
0xf2aca8c2e9887cfa,
0x3cd11177f1560df6,
0xe6ebc0a0a32c2253,
0x6b266db73baedf71,
0xf9f29ecab706771b,
0x30196be3ffcefcfb,
0x550e88e9303fd01d,
0xf030d990a7736bea,
0x37befe00f39db1b5,
0x3785c99eb9a9dc77,
0x1f3452dc0d99e397,
0xd5de060560617be2,
0xccbd6534eefc8062,
0xa6e10405179504c6,
0x7daa245c267c2400,
0x68e02dc13219c589,
0xb70d5c5528307457,
0x0c04f8a0ab776ec4,
0x731878c5109e66fb,
0xab56bf364c102264,
0xefe0060c34ca48d9,
0x0888702180cb00c2,
0xe400d4382dff16e1,
0x50611905aedb28d8,
0x5376325ce3d07300,
0xa4980665e637533c,
0x13d8000013eefaa0,
0x513127c87f736738,
0xc1009cec7c50b300,
0x0800aee4084591f7,
0xf338bd4de6cef443,
0x1afd0ffc24cd0081,
0xfcecccdfa388b281,
0x2c54d75f3e1b3fa1,
0x558cbe15bd010000,
0xfffff03a3c0c171f,
0xed226550010bb190,
0x998b188950afd228,
0x29fc7f31f38d0350,
0xf02e9eff6ac8a027,
0x9cf326697c06cac3,
0xb8942818e5aa6772,
0x776656c0f7141989,
0x6730cedfc0bf0e4c,
0x81813b2fbd1c3070,
0xecd42f7f0e984ebd,
0x1721470c82b93bea,
0x004147b608c96e9e,
0x89e7f7bfbb495fb8,
0xd19d779661bc4408,
0x0892d5a100cdfc9d,
0x90509b5530c26cc1,
0x09a9ee0cae189154,
0xee14806f6f2b8a90,
0xbc0388ffee75cfc1,
0x2000320e0cd01809,
0x5d33362f01b9099a,
0xfff8010880f8fe4c,
0x75fe2efe460a0895,
0x81f30d088e3f5185,
0xcfaef091181210b2,
0xd000d8936fec89bb,
0x216835f0ed992660,
0xf5e847df1048fbba,
0xabc459c424001f45,
0xccdfaf60610611dc,
0x531a6404a4c800ff,
0x150a62209c2f8d17,
0xe5880a55537b2184,
0x72304eeca3a00914,
0x4b6e97de0404de73,
0x6fefff73cac326ba,
0x999beaf61fc04689,
0xcffb9ff34c8250cf,
0x84ac0b80b038d97f,
0x41efec44b472b9a1,
0xdf778fe33f7b774e,
0xf87367e4a049b6da,
0x8f172130f4887473,
0x2149e71036e43000,
0x77335cf840bce8ce,
0xdb28ee31c943fc73,
0xd3a44068f6f3c043,
0xfe43c5025da4a03f,
0x6221fd321bea5b08,
0x7dd9510c5f681124,
0x062422a7b3b2eecf,
0x57eebefab7671aa9,
0xb2dfa9fc52213733,
0x003869ce3772cf70,
0xa8ec761fdd8d9e27,
0x3182a8a0c729e031,
0xeaa40c907e18020e,
0x2f22e8df7dad8fe7,
0xb40000a93ae638a8,
0x0362e4b27d91fed4,
0x775daefc33705313,
0x242a47085eafb013,
0xf081290a670f6b1d,
0x0e5a208010e8e7a5,
0x6eb2122d19e0f925,
0x56205bf1b038fb3f,
0xf91834a552bf7c51,
0xf06f8604dcc40085,
0x7117036b5ffe4a80,
0x1609a2151db65193,
0x4880485c80391f85,
0x34b52da6cf7a7e23,
0x700304b9ea681830,
0x05eb463c8e933ae1,
0x736811d35f339ed6,
0x62353459a0a93faa,
0x2e184a22a51bdc33,
0x49e6287558383ff1,
0xc0811f2865eec23b,
0xd26d44e2db68cd32,
0x8e2835318a433633,
0x21ac73bf7c939b20,
0xd319a6a20e3bc842,
0x58733efc8c053bb9,
0xc7721793bd400333,
0x5a60f2bd207a85d9,
0x4080c3ccc04c5320,
0x37301a268cb81033,
0x4814dea183ea36af,
0x83694e28bf32783e,
0xe20900691b600432,
0x868251769f6380b4,
0xfc365f4885ff3165,
0x1fa62f8098a98004,
0x3a33aff0063c1828,
0x97f3374decfa1638,
0xa84373040f2a07c0,
0x50c01b69efbf0638,
0x0c908e10354b233b,
0x0740c43b98b8de90,
0xcab45f4855a59ae0,
0xc7abd0116e712a20,
0xb035220ff101001a,
0x303368793376a3e7,
0xe142e19b2e085803,
0xf481f67fff5d2089,
0x6eb9c20f7fd4c51a,
0xbd307010dffe5101,
0xa9108ffeda1e0890,
0xebd2f3727741df5b,
0x85efff7f6b0e0160,
0x379ff38cc4e2100c,
0x2868bbac9be17cb7,
0xb780c80aae8b0102,
0xccff10ee8f09665c,
0x1342d049fd0bc9b0,
0x09defa12e6827402,
0x4c01cf5d820a7332,
0xea66df04ffe6218c,
0xbed7cefe3bb7f10a,
0xceb731e19e28192e,
0x682f46f6f907debf,
0x83080063f7fcf00f,
0x00f7f1958d4b06e6,
0xe4254cfb719ac34e,
0x138c01f8dd2de210,
0x581defb4b57fec13,
0xcec1f74cf9ec57fa,
0xf2804c26c7fdf31f,
0xca2a55c8ec1f7af3,
0x7ef1c7f40100fecb,
0xea0b7ff7e93ff8b4,
0xbf716ed8803ecc87,
0xf7f71130fd05f593,
0xf1775180482ff9f6,
0xfe591fffc9e677fa,
0xd91501cc6f989001,
0x17008b970912dd78,
0xb170ffd6cadf62ff,
0x5f02ddf4dfb66be0,
0xdffb9d75ef8977e5,
0xf9ff49e891220400,
0xcdd6f7f6ad9fbe72,
0x6282e304edbf7ed1,
0x1d13cf2c9ffcff8e,
0xded5880075fc2d30,
0x5881882fac63f5d9,
0x67654b0a73f6db5e,
0xd98f2bf7f3efdb69,
0x6ff0ef7ef23e8c9c,
0xe147d7adf6eccf3d,
0x5fe30213fdfb1064,
0x8840f4e84839616e,
0xd990ebaa9bcdd0db,
0x6bcc2c89f62d050f,
0xbc37a0ab230a3941,
0x018a1d2e9beef9f7,
0xfd24e7f10f6a01e7,
0xc419dec4f120537d,
0x98c0ea3e29df05ff,
0x798b83c76f73d1e7,
0x18a10eb1d90c7b37,
0x8f3148eed9c57d37,
0xf9e4577affd7e707,
0xdd4aabfbd7e6e73a,
0xe7895aacfeb5f952,
0x6cc77bda3fe2fffb,
0xc2398561509cf2ff,
0x77bcffdf381549ff,
0x6ae419a88477851d,
0xaac4c4df942ba26b,
0xd4d8ed41110ceb1f,
0x9cef226d02ae7fa3,
0x156a3fe860fffc40,
0xd72ec16c88dd5cef,
0x6d6e322214cb8c7f,
0xfff08dae264fa9b7,
0x99565cf8259b003f,
0x4f19de3439c59394,
0xbf9b8ebaa936cf54,
0x33c07eacdd3915ee,
0xd75692db58ad0648,
0xd4a9d62465f8328e,
0x4117fb2845e042f8,
0xbb1198892b46485d,
0x785e6e5622332011,
0xa3acbfce80844e91,
0x33101de9e4852a0d,
0xe8f254051eeb222e,
0x974a300cfe438d0a,
0xd346371c2f448190,
0x0c9c50d29c564100,
0x652fa32d7649f70a,
0x80e909e7c7ee3298,
0x4b3f9f239b6bff67,
0x1dc0d3e801419c51,
0x3e685df93fce8b69,
0x3e3103c1ba232d60,
0x2def9bdd1f781c85,
0x284436a088da8c8c,
0x06af371bdeca6cf8,
0x7d71262ab04cba61,
0x85c1d4e6b080acce,
0xc0f37fb3c44d5006,
0x7001d8c4edf9b036,
0x415587b7ba9d0a65,
0xb88964411c67c607,
0x92fe25a74996e27d,
0x831dcb4f223702b5,
0xd97b95e7f723692f,
0x1efadd131c1183ba,
0x55fd9d7228015c6a,
0xb048d6f7cbaa35db,
0x9c47acc446697e40,
0x81d58951fe0c806f,
0xaa208a2ed17b0dd4,
0x0eb36c5d478e9b90,
0x71f139bb2affa714,
0x3468713c219487f2,
0xa9040c4dfb7b36c0,
0x1ffb5cf7512634b1,
0x337902ac40c70bb5,
0xe077a0d7b27bcf4f,
0xdb44a336702a3f5c,
0xdd691b0092680e15,
0x8acc312ba93986ac,
0x43ed184034a040c0,
0x811cc205adc3a939,
0xdc1618b13e74cc57,
0x857dbe1401516749,
0x83dd33ae22d09339,
0xcadcd2ad6fe60020,
0x71f80400d2cec0d2,
0x4364911fdced8fef,
0xb77eae974652181e,
0x80ea1aff090da602,
0xffcc3c457a0bff9b,
0xaed08bac6777c992,
0x0081814421483a9e,
0xbe2e2022448f2310,
0xffea02ba3ccf8efd,
0x0408f02051b9004b,
0x04d4ec466cd6c103,
0x609b1ddf803fb718,
0x0a25b01168eb0c1a,
0x90ef2301405414fe,
0x517d81f72522b8fd,
0x70993e6016611692,
0x00152edefff6a009,
0x1519ee8d88d31452,
0x3101befb91b5c1ef,
0x1e9376f29bff632c,
0xfe929d45120a903b,
0x74231177a1f5f7d1,
0x8d1bc6000cadb560,
0xc86701fc00403f9c,
0xefbdcce5072008ef,
0x206f7b0983c78201,
0x4dfe1389fd8a058c,
0x6b6ebe7e90d75fa1,
0x2ca30e04e1830084,
0x3c9c3692cb76ff7d,
0x8a2ff3bb7d00801d,
0xe40fd21bdee722c6,
0x041954da3f9b415d,
0x835856fe2cdcd099,
0x800fc93adfef5fef,
0x2cc88723716f37f9,
0x48222cd6fd04cc9a,
0x8900bcc840c5ff18,
0x4e002cd29837ccf7,
0xf8fd2f6d0273236d,
0xd4080aee6e804941,
0x4148c4e7e7dc069a,
0xee750acc2cf0c77d,
0x8cc8d06f6dde9401,
0xfbf25f8b0288e23f,
0xcefb0101002df337,
0xf9ab01647eb0b8c6,
0xc002dc51b4af7005,
0xe67608d57b988eff,
0xdb4df7d3ef1f80ed,
0x1545b1d50898edcc,
0x04fccc9a3028e708,
0x796501c4ff8e91af,
0xcd502cfee40459f8,
0xf893291a540b099f,
0xf367ca01f7f30400,
0x9a0e0a7b536b88cc,
0xffbbc2180741a079,
0x808eb1088b2025f6,
0x67311017cdc402a2,
0x407dd27e1ca0cf9f,
0x2b6e87cb6b7f04d0,
0xe21fc641bf7e5c7d,
0xacf7184cd472ee39,
0x383637ce6e533c84,
0xe560bbf4aceecbbe,
0x229fd51eb3bbae6f,
0xe43ec11140f022f8,
0xffea5123a8ff3078,
0x3fab7f8913cefb11,
0xc77e4731fbac094d,
0x759df399a862924e,
0xf080ff718bff7336,
0x9253f5da1f116fef,
0x30899c01aba95315,
0x9d7ecf1b6fee570b,
0xb2efdee0ee80f6fe,
0x7766d9d7ae6d2888,
0xd2c1f839b8cf7918,
0xff969bdcd07ff20e,
0x3fc04a17510b0e6f,
0x31ff8c4e36fbe90c,
0x07eb7ff7b1f1bbb1,
0x3f07fc2ad5d77f7f,
0x33a8111003aadf5f,
0xb3ea827ffa01d0c8,
0xc0a357bf5a665cc2,
0x800873e47e6cbf04,
0x14febb034ff636ef,
0x6e0c2b7bf62c3112,
0xbb5ccf44f6607cd1,
0x3cf5d66ce14f95ae,
0x330fc989c398effe,
0xdffb3dce3929c400,
0x539e8b1decabcd00,
0x8de971b4fbc618e9,
0x92bfb0ce06ebffee,
0xfe46f0f9a30dd991,
0xdfdbf1ffbbda5827,
0xb6669d211720b3ef,
0xdb9199a83fb3984f,
0x54fcd1b7dc19fd77,
0x2fe0dd6eb7db888b,
0x67ee25b7f9b2ae72,
0xfe0dfffd9877251a,
0xdd403631c06bffef,
0xfaaf8e49f0c8a3c8,
0xa1feeee7330137fe,
0xb72cc956ff4a5e72,
0x8822637f776613b8,
0x8b30d145f8cc5777,
0xfaa076de9b1936ee,
0x8a53f75041ff3ecb,
0xf79942c168abe7b1,
0xfbd06e4b136efe9f,
0x2008f909a7ff07c9,
0x746744e71f231ccc,
0x7300d71f46211b07,
0xb6cc9d9f1a97f537,
0x9b90362eb313f7ee,
0x060d919f3f311284,
0xaefc9a3f7c76be8e,
0x02814b00390f758b,
0x51dd7e7bf9f0d101,
0x5800fbfbffc8ff76,
0x220af02077b1b72a,
0xf155ef35f3c9f77e,
0xae23fe7bf78d770f,
0x33d1c978fa3f1428,
0x9ef0f6ab938c47cc,
0x1a89d0ce53beea2f,
0x4261e201a97f93b6,
0x0f28044c527ee447,
0x1d80e7e8f988cbaf,
0xb12027fd6babe404,
0xc595bbfe0213564c,
0x17f6f2c61ae379fd,
0x31197ffb00b38932,
0xe339cfba3e047314,
0x529d828b2cb24330,
0x24170356fefc4a24,
0x100cb47aa97642eb,
0x9bebfd0193711fb8,
0x88fe8dfa46634d78,
0xf1f90bb94772dafa,
0x48800a86a39da871,
0xab31bf2e90f99ea1,
0x7724e730f8578a5f,
0x001419758ec3f18c,
0xf1c8383faa9b5b6f,
0x3a6515ee675933f2,
0x3176fffe5cbdd2b2,
0xe18c2f40c23bcb81,
0x46fd2af812457a08,
0x616ddfe3ea48c0b9,
0xde51db3873620086,
0x350896880ec45bfd,
0xeb2aebe2b0060e02,
0x63f78598fff6587c,
0xe7d5f738b904ae74,
0xe19c3ee3d4fe1a22,
0x4878dbe826e81a90,
0x236c771fe19e0af7,
0xd1b0d44b0376833b,
0xfb30a7f1f6d1e665,
0x036ffea0eaed83b8,
0xff911ae63bdce3c8,
0x52daca95f09397c7,
0x87e8c5d75bb12df8,
0x4757300d59a3fc77,
0x1fcd1593bf8a871e,
0xa32182fd0380032b,
0x0a7d13db8aba32b5,
0x6bf6a01792cc1307,
0x9cd71347d8cee815,
0xaf7a719020d9c123,
0x60b9bc145f07cbc2,
0x1cb985a02cee9cc6,
0x5faaec407178bcd3,
0x4a6d79f5a21f2632,
0x43708635b82132a1,
0xba0467acd72c5721,
0xc459f48bf701b727,
0xb9d7745fecd72f26,
0x95fe7b3e0b118b15,
0x827e51bf49047948,
0x2381a6b63550d9f6,
0xb56d0671ea0c01a0,
0xedca99243132c035,
0x64c8473c1c090afb,
0xec95dc7232e8db31,
0x18bec03b820e6000,
0x717287b7861cea21,
0xe94b3a318ee1aaf5,
0x937674c1b18a29dc,
0x9ff39ebe8d92a2ae,
0x692d86a3b3c6eaa5,
0x0cd2077739c29a4a,
0x4da2861e1259f02c,
0x25628866730ab18d,
0xc8cf76e1d9b52356,
0x77ca10d218884eba,
0xbdfe5edc0803c023,
0x2d18e9ee8cc8ceb2,
0xd488d9ffac7f46fb,
0x75e5eb310dc0bf26,
0xdf31fcea9cc7c57f,
0xf30830559b88184f,
0x2e333100d08f6ef7,
0x10ed408c33adc409,
0x89d780ee093b176c,
0x3015200939aae5f2,
0x6030922242255f6e,
0x26a0105ce76e7093,
0x396e4578f3667e00,
0x4109a995d6eefd01,
0x13511bfa77e6966d,
0x77f7d7be49382d1a,
0x0c0daed999b89dcd,
0x3c71b10046265f20,
0x3364d1188ef927f4,
0x8220b5c5bfe9dbef,
0xd81de9bbe675e8b2,
0x78b729005d00f337,
0x72ef033250e1cd50,
0xfd3d110d6356b91e,
0x25cba12ac520b87c,
0xc482c9c55c309bc4,
0x030288543ff110cc,
0x160cdefddc42d227,
0x0670f232fe0a199e,
0x2eec9df3b53d5bf6,
0xd73792aaf80b63ac,
0x988f3eb84044271d,
0xf9e4951615fc711b,
0xe6ffaaf3623befd5,
0x62c963007f0f744c,
0x1c1dfff457795019,
0x1860c166e8f9470f,
0xe6407cd9b3eafa51,
0x730b68cf7cf1060c,
0x37f4540388050975,
0xb44aff7962347e17,
0x217670176bc950da,
0x08b9fdbbdfc4f0c4,
0x170051060d78fc21,
0x9d4d95607a1f9b00,
0xe3607003d741adfe,
0x19cfa503fc8af4b8,
0x92cf101d789d0649,
0x3603591c63f7d1cc,
0xd11b1c467cb2ca33,
0x123ff50498f719da,
0x89eb209bf3ff17e0,
0xf6cff3f93f6c2d00,
0x9c3defb043bc86c6,
0x3042f90030247751,
0x101bbb7daf417e7e,
0x61107fa5fef51d7e,
0x3c5d0915c7fb33a4,
0xf03b01720cce0ba6,
0x5ef8c895bf7736fc,
0x26be7f7fb073902b,
0xfb8be9ee610f50e5,
0x9001be9063d83120,
0x5142cff61eccf663,
0xf8fe1aa49cb5fc5f,
0xaaf813a87dccc64a,
0xbbfbf8ff425f465f,
0xd910dbda88ef7980,
0x4280ef44dcc68503,
0x9f6967589b054927,
0x5efc511d548dfcc6,
0xd3ef9113befd8af5,
0xcf2e00fbd92aed1f,
0x107cf800671876fe,
0xf34decaef3b84eef,
0xaff43bcc21965a20,
0x2bc6d9d8b7fe69cf,
0x8b0a1f7b79fafd79,
0x02ee1b01ea0676fa,
0x5c90f1f4ff3def7f,
0x52b16cfe915d127d,
0xa1ff4b404e3ff37d,
0xdbd791fa51110437,
0x017fc7ce6d6fec04,
0x007b7fb88aff0775,
0x1e9f4dfdff49f06f,
0x2ccaf1fbd397acab,
0xa09fa08300030044,
0x172179ef8ff68099,
0xeef1113e3610eaa3,
0x53f44bec1876857a,
0xf6fbafe93db2c7ff,
0x67f2017468881af3,
0x220ad081ff37e902,
0x7ef2d42c33efd442,
0xbbebd31dc8807f90,
0x90ccd2179195fe09,
0xefbfa6915f7f2e7e,
0x5cc70279f28f180e,
0x67f1ff8e771f01cf,
0xbfb8bf188dde77cb,
0xebeb3bce77007f7f,
0x929478230035b3e9,
0x2d3eef20b33fe911,
0xebd5fe20eb6e1783,
0xb62f12399cc6199e,
0xd015fe7e5ffcfdf8,
0xf02d8873cdabce3d,
0xf7e56aaf73bcfe71,
0x2811a1df4051f195,
0x589de6ffdda4df35,
0x110d8d89577c72c7,
0xbb1b4a6e10997886,
0xc10bbcafa77ba899,
0xf2c8ca47edf73001,
0xb310e410e61117ff,
0xfde5f9dd738417c6,
0x78aaee13929f97ff,
0xc146e62c38020b6b,
0xfd89fa28413e100c,
0xb908dbd87d60a26e,
0x7d91b9c5c620737d,
0x7f779c9a378f9629,
0xd0fb008348ed232b,
0xe93080b170e14e60,
0x40f95641ccacff29,
0xc7685d4840263a46,
0x3bfbeff70b2f7ea3,
0xd689fbd8ba009100,
0x0ff2788fa3a0f9a2,
0x9e4a1aca96901eff,
0x98702a32ea89e58c,
0xfed910009099a00e,
0xe3eff404fda90dbb,
0x7ba25cc9ab261367,
0xe227ce063330e76f,
0xbe9ef71a99818bf8,
0x6f1e8f7d2a0a980a,
0x4c62ae8174512660,
0xf354f7cef08a4348,
0xb885eeff883b6453,
0xad826680218a31fe,
0x096539b970882770,
0x77907e818f600cb0,
0x6eef9994df647632,
0x476128eefdc18d7b,
0xb0f4ffd8fe88fb18,
0x7b9d7d7ea009f90a,
0xd9b0d00a360cf998,
0x741cd8049c01b07d,
0x03865708b627b7ee,
0x5d311040ac57b19f,
0x0af93d1da96a9482,
0x0b240abeecddd8e9,
0xb1d190af005c3903,
0x3e516fd10c19acaf,
0x00ffee8dbbf3a99d,
0x12a008e182a6f2a0,
0x461068419947de88,
0x2c91a6f0b90167fe,
0x27facd00fee3faa2,
0x12e3bdcdfa13397d,
0x07efb804df85d3d7,
0xf1f45af5d2a0dc8d,
0x11d2b9a089538531,
0x4826326393763a70,
0xee6a80a96a87ff8d,
0xf4c854300c4abf50,
0x048006aef3e397a6,
0xd104914dff15d62a,
0x2f390822d1802cca,
0x21db5fce433366fc,
0x4ee605b3f0018292,
0xf90acc3b10feeca0,
0xaef8ffae031e108b,
0x80a9fcf7ff9ef6ae,
0x6dc9ffd1b426f9ed,
0xff00f3140b838088,
0xbbad860aef093fe4,
0xf281d9c9100a967d,
0x3fcedca04081a32f,
0xd4c2b39fb70d5067,
0xf42c7423d3820002,
0x0000000000000000,
0x0000000000000000,
0x0000000000000000,
0x0000000000000000,
0x0000000000000000,
0x0000000000000000,
0x0000000000000000,
0x0000000000000000,
0x0000000000000000,
0x0000000000000000,
0x0000000000000000,
0x0000000000000000,
0x0000000000000000,
0x0000000000000000,
0x0000000000000000,
0x0000000000000000,
0x0000000000000000,
0x0000000000000000,
0x0000000000000000,
0x0000000000000000,
0x0000000000000000,
0x0000000000000000,
0x0000000000000000,
0x0000000000000000,
0x0000000000000000,
0x0000000000000000,
0x0000000000000000,
0x0000000000000000,
0x0000000000000000,
0x0000000000000000,
0x0000000000000000,
0x0000000000000000,
0x0000000000000000,
0x0000000000000000,
0x0000000000000000,
0x0000000000000000,
0x0000000000000000,
0x0000000000000000,
0x0000000000000000,
0x0000000000000000,
0x0000000000000000,
0x0000000000000000,
0x0000000000000000,
0x0000000000000000,
0x0000000000000000,
0x0000000000000000,
0x0000000000000000,
0x0000000000000000,
0x0000000000000000,
0x0000000000000000,
0x0000000000000000,
0x0000000000000000,
0x0000000000000000,
0x0000000000000000,
0x0000000000000000,
0x0000000000000000,
0x0000000000000000,
0x0000000000000000,
0x0000000000000000,
0x0000000000000000,
0x0000000000000000,
0x0000000000000000,
0x0000000000000000,
0x0000000000000000,
0x0000000000000000,
0x0000000000000000,
0x0000000000000000,
0x0000000000000000,
0x0000000000000000,
0x0000000000000000,
0x0000000000000000,
0x0000000000000000,
0x0000000000000000,
0x0000000000000000,
0x0000000000000000,
0x0000000000000000,
0x0000000000000000,
0x0000000000000000,
0x0000000000000000,
0x0000000000000000,
0x0000000000000000,
0x0000000000000000,
0x0000000000000000,
0x0000000000000000,
0x0000000000000000,
0x0000000000000000,
0x0000000000000000,
0x0000000000000000,
0x0000000000000000,
0x0000000000000000,
0x0000000000000000,
0x0000000000000000,
0x0000000000000000,
0x0000000000000000,
0x0000000000000000,
0x0000000000000000,
0x0000000000000000,
0x0000000000000000,
0x0000000000000000,
0x0000000000000000,
0x0000000000000000,
0x0000000000000000,
0x0000000000000000,
0x0000000000000000,
0x0000000000000000,
0x0000000000000000,
0x0000000000000000,
0x0000000000000000,
0x0000000000000000,
0x0000000000000000,
0x0000000000000000,
0x0000000000000000,
0x0000000000000000,
0x0000000000000000,
0x0000000000000000,
0x0000000000000000,
0x0000000000000000,
0x0000000000000000,
0x0000000000000000,
0x0000000000000000,
0x0000000000000000,
0x0000000000000000,
0x0000000000000000,
0x0000000000000000,
0x0000000000000000,
0x0000000000000000,
0x0000000000000000,
0x0000000000000000,
0x0000000000000000,
0x0000000000000000,
0x0000000000000000,
0x0000000000000000,
0x0000000000000000,
0x0000000000000000,
0x0000000000000000,
0x0000000000000000,
0x0000000000000000,
0x0000000000000000,
0x0000000000000000,
0x0000000000000000,
0x0000000000000000,
0x0000000000000000,
0x0000000000000000,
0x0000000000000000,
0x0000000000000000,
0x0000000000000000,
0x0000000000000000,
0x0000000000000000,
0x0000000000000000,
0x0000000000000000,
0x0000000000000000,
0x0000000000000000,
0x0000000000000000,
0x0000000000000000,
0x0000000000000000,
0x0000000000000000,
0x0000000000000000,
0x0000000000000000,
0x0000000000000000,
0x0000000000000000,
0x0000000000000000,
0x0000000000000000,
0x0000000000000000,
0x0000000000000000,
0x0000000000000000,
0x0000000000000000,
0x0000000000000000,
0x0000000000000000,
0x0000000000000000,
0x0000000000000000,
0x0000000000000000,
0x0000000000000000,
0x0000000000000000,
0x0000000000000000,
0x0000000000000000,
0x0000000000000000,
0x0000000000000000,
0x0000000000000000,
0x0000000000000000,
0x0000000000000000,
0x0000000000000000,
0x0000000000000000,
0x0000000000000000,
0x0000000000000000,
0x0000000000000000,
0x0000000000000000,
0x0000000000000000,
0x0000000000000000,
0x0000000000000000,
0x0000000000000000,
0x0000000000000000,
0x0000000000000000,
0x0000000000000000,
0x0000000000000000,
0x0000000000000000,
0x0000000000000000,
0x0000000000000000,
0x0000000000000000,
0x0000000000000000,
0x0000000000000000,
0x0000000000000000,
0x0000000000000000,
0x0000000000000000,
0x0000000000000000,
0x0000000000000000,
0x0000000000000000,
0x0000000000000000,
0x0000000000000000,
0x0000000000000000,
0x0000000000000000,
0x0000000000000000,
0x0000000000000000,
0x0000000000000000,
0x0000000000000000,
0x0000000000000000,
0x0000000000000000,
0x0000000000000000,
0x0000000000000000,
0x0000000000000000,
0x0000000000000000,
0x0000000000000000,
0x0000000000000000,
0x0000000000000000,
0x0000000000000000,
0x0000000000000000,
0x0000000000000000,
0x0000000000000000,
0x0000000000000000,
0x0000000000000000,
0x0000000000000000,
0x0000000000000000,
0x0000000000000000,
0x0000000000000000,
0x0000000000000000,
0x0000000000000000,
0x0000000000000000,
0x0000000000000000,
0x0000000000000000,
0x0000000000000000,
0x0000000000000000,
0x0000000000000000,
0x0000000000000000,
0x0000000000000000,
0x0000000000000000,
0x0000000000000000,
0x0000000000000000,
0x0000000000000000,
0x0000000000000000,
0x0000000000000000,
0x0000000000000000,
0x0000000000000000,
0x0000000000000000,
0x0000000000000000,
0x0000000000000000,
0x0000000000000000,
0x0000000000000000,
0x0000000000000000,
0x0000000000000000,
0x0000000000000000,
0x0000000000000000,
0x0000000000000000,
0x0000000000000000,
0x0000000000000000,
0x0000000000000000,
0x0000000000000000,
0x0000000000000000,
0x0000000000000000,
0x0000000000000000,
0x0000000000000000,
0x0000000000000000,
0x0000000000000000,
0x0000000000000000,
0x0000000000000000,
0x0000000000000000,
0x0000000000000000,
0x0000000000000000,
0x0000000000000000,
0x0000000000000000,
0x0000000000000000,
0x0000000000000000,
0x0000000000000000,
0x0000000000000000,
0x0000000000000000,
0x0000000000000000,
0x0000000000000000,
0x0000000000000000,
0x0000000000000000,
0x0000000000000000,
0x0000000000000000,
0x0000000000000000,
0x0000000000000000,
0x0000000000000000,
0x0000000000000000,
0x11040d1f9e80b2b7,
0x12d7de37ff93d357,
0xa793c210077ec08b,
0x0422d4bb7fa21480,
0x47afdabc0b05fc78,
0xb0dfc46b79bc33e7,
0x3644c1d160cdb428,
0x33fc03195eb47767,
0xb2a141d6be62b388,
0xb200bf8ea877b324,
0xf1d6ae7632cce006,
0x5665d3ef3237a6be,
0xeaf4dc8ff7d6075d,
0x10480f8b2062f3f7,
0xee76422bb8d349b8,
0x5780430519fd1301,
0xc3074162dce222ff,
0xe40c73afd7b7a8a2,
0x2f92422ce71b1923,
0x490a0aa49ed18b8a,
0x4616e7ef5a54ff36,
0x9f828c45b203b317,
0x8dfabbd5c6913018,
0x4483d5cb9910f3df,
0xee7f410c6d09e2d8,
0x2362c28fb0a6c53e,
0x112d3366f1187aea,
0x035575ea3aa00648,
0x8cef6ff6f205013b,
0xdeee41ef8cb474ff,
0xbc42098807852e72,
0xc6a59e1b2f7d1c7a,
0x28ff4fe23e671081,
0x4ddfd52e1916a870,
0x851be608273f9076,
0x831d9b5f7c8fcb0a,
0xfe341be1ec8ff3e4,
0xc00294874610c043,
0x19741fe69178b837,
0x733a0ee12704ab01,
0x4f47de0eef776b8e,
0xffe2d69b15f39801,
0xd2806f0f1b80ff7a,
0x1c34ca2b60cf728b,
0x3821df25556e0c4d,
0x7863de246bbaadbd,
0x91b2583adc7e3ec9,
0x24482744f4d628af,
0x0a76d56a7f330391,
0x55f0bb5422826693,
0x018a1f1274005dfe,
0x0a44a38c5493270b,
0xc8ba305ff15d448c,
0xf431ffe777a37644,
0xfa97f48f10f23c94,
0x2f7aab3e2f3cd8aa,
0xdc2ecb82773e9280,
0xb9322f0d37064d8c,
0xc52e0e5b06b17c3d,
0x0fa8190ecf388e84,
0x18d822a72aab2eb9,
0x0fc82241c1b780ab,
0x77664822b581c9dd,
0x6ddc8b347bb65825,
0x103d888e0e6fa851,
0x10931e74f43800a8,
0x80234da31f100a93,
0x9cf350c2bbfb0618,
0xcd36004a99133a73,
0xe58b8c0b16ae36b7,
0x89cc5406a64deee9,
0x963bfb8507e9b0b1,
0x8a3dcecd95fa0c33,
0x7a0dbd461327468c,
0xb397948196d3ef6e,
0xeef3e61f12a1135a,
0xbf8bd7e679af37da,
0x614ced7a802230f0,
0x6160ae3b6ee04977,
0x45453ac8e00da05a,
0x8790995006f0067f,
0x0202e29081ccf772,
0x3ac7c88caa4e1dee,
0xd15203bfaf67a040,
0x3ce28c0f30440d88,
0xe0dec4ee60012543,
0x04ffcfe9ab11dc94,
0x5938055b5fb063a3,
0x49daeaee49e92000,
0xc1ce40ed19f3540a,
0x0a3bf30096e0aef2,
0x66abf82aab841216,
0x37ea96a3f3bfd7d9,
0xcc7a0c6ac0586366,
0x12c4c01365d1affa,
0x7eccdd87b07b6290,
0xe4f8e274a8d51036,
0xb66ec84adfdc9891,
0x4f8c050fc1bea0c4,
0x8efd6104786ed620,
0x9f7a6772c85e3023,
0x49459fa587731caf,
0x12d4a242df738fd5,
0xd404243f47921e85,
0x4a029efff6d0bc0b,
0x37fe4e0200f61d36,
0xb7c3ef3fc82bbfff,
0xcf944065cd7a1f4a,
0x019d1031dc64fde3,
0x4010900e9a368eff,
0x40620c81dbd8d2fd,
0x20fa3bdb3233c08e,
0x2c4809707677a6bf,
0x02a83295ffc29c88,
0x7099c01a9c6e50cf,
0x2b07450899800ca3,
0xaa7e0406d57c1cfa,
0x0ba17590ff993762,
0x3291c8b74c223d5e,
0x90ec7dcc0ff1b5a2,
0x4e60c693efd832b0,
0xe18076f9165eff44,
0xd27c4f131bf08cc1,
0x8efe983bcd04848e,
0xdef209a2172537ef,
0x4fbf0e26d1f3012f,
0xe8fcefa5a40ad33e,
0x04d01596ff88c840,
0x7f910746dff420a2,
0x3532ef50aa100470,
0xfa74881a42570180,
0x93b957877fff2f55,
0x9a8602a99800db64,
0xf404ea86b22c77f6,
0xdb3ec9ae17f573e1,
0xdfddcc827ff81cfb,
0xa97e3b700c109f30,
0x2f7471df28467936,
0x104010cea1f7aae6,
0x04a017089011a566,
0xfaaa3f2c14c40134,
0x5b9264a2ecaec3d8,
0x87fc36da1b313742,
0x0b2541c02a670769,
0xb09298ab1a34d6bc,
0x9d80a2023ab0658e,
0x59c81b14888a901c,
0x40919f7e050accad,
0x75f1e00e74b1fc0b,
0xdffd950098909901,
0xb6ef9737a3f07be0,
0x38c03d17d36c0d31,
0xbbfafd864ff8e410,
0x2b84460c24d2109c,
0x1163717ef4ebe773,
0xaa2c0ce8dab44ddf,
0x1598322623011033,
0x064c0fb3ef560b61,
0xcb84ed880806fa74,
0x78f423f069fea5d5,
0xcec8106986773653,
0x076437281d7cbff0,
0x24b877400620d4a3,
0x1b88101a4030efef,
0x7fefd3740a217ff4,
0x17fc445955e25ded,
0x4c408ec3fb63b771,
0xf38414f64af355ee,
0x09a6076799bc72e2,
0xefdb76a415c42f49,
0xee74957c28d27fff,
0xc1ec44743f9f02a4,
0xc00801a237e5157a,
0x40a0b0980045524c,
0xd3e66b60287419b2,
0x18b0f7fadc597bce,
0x992dc5d2be30ece7,
0xd120af13bfac96eb,
0x34631e6a10051aaf,
0x507b879c536282a0,
0x9fea17f5fd520d14,
0x511d00d1d6c1bf11,
0x1931f82b80c27cea,
0xaa3541b87327fee7,
0xdfd0a66023303183,
0xce0912384afc0635,
0x4155d7820ecd5f30,
0xeb7fb30200cd808e,
0x1c30743c282011b9,
0x54f72418f37eeafb,
0xeedf5e7089c70c30,
0x30eab81682e29f43,
0xe987e78ff3ff7331,
0x118fcff334bdf7ff,
0x0183730e008c675e,
0x6b3f2b11548632ee,
0x201bfc1899732375,
0xcba413bfcffd028c,
0x10d00db668c3428d,
0x73289fbfdff278cb,
0xef7e997f14fef6fb,
0x30351cde89181020,
0x498b5472e089802b,
0xe00403c416ec1cee,
0x23a251ea00f127e1,
0xdb5f206a402910cf,
0xc4d06a7c0eeef110,
0xe57faf76f55ba6cb,
0x0260e9cc084734f3,
0x0a37471c08e3507c,
0xb3975deb582c112e,
0x40a2de3dfe258e12,
0x541e1213b0118c36,
0x4fbd0035d7047fee,
0x307b6882c7fd729f,
0xabccb0470139eaf7,
0x0ff1faaf8fd3a400,
0x6240aa3fb43a0006,
0x518c388f0aefe827,
0x8010f0e0bd1f7f7f,
0x064580c500c17bfa,
0x409ac244849b81e3,
0x837ffcee10bb02cb,
0xa18511d70cc636b0,
0x057e9f760001dc6c,
0xfb1b5215322b74c8,
0x577b5b87a33b6403,
0xb12f11e328e9e0b1,
0xe7f62232a78c0769,
0xd220b0ef843b0cef,
0x30daa4fbeff10afb,
0x0b37077f67c7d99c,
0xeb11badf0023cb76,
0x9a81d3a71298756e,
0x184f10eedeeea2e3,
0x47918fa6dfffbb2f,
0x826323150d3b6b21,
0x1a67946f87db4a36,
0xfd0d901ffdf01f82,
0x9519b1da42cfb17f,
0xfc982d0c57d525b4,
0x51ea77860bfd1c26,
0x30b7e11202fc905e,
0x0cee00feeb8781c8,
0x2ae1f9ac200a40f1,
0x26f1d4ee833f77fc,
0x696e030ff06e08e8,
0x401905fa603e6ca5,
0x52de00d31d0871ff,
0x7053260900bd6106,
0x163d53b3c021a802,
0x6bbf792803b7605c,
0x9166722481187637,
0x0243f0ea4ce0a3eb,
0x410314f2208b445f,
0x748e42216f4fdecc,
0x83a0d57ba87cbb87,
0x737c1bd4c9d22d46,
0x6bff5f7cf4b847bd,
0x17fde980fa2bfbdf,
0xe9e8b3c0432fa3cc,
0xaca0ef3dcbb5531d,
0xdf55bd4d4889eb3a,
0x19aecac49b15b213,
0x1fce5ab6ef7cff90,
0xf25ba22bdeb1f670,
0x1f97eb12460690b1,
0x367f51c5ddc68380,
0xbaf6ffff793284e9,
0x708b1b318b513837,
0xb8f0b32ffdda9ed7,
0x7542bbbafff0a3aa,
0x15ce00af67b27a74,
0xcff17f1dd863dbf2,
0xcfb4e7a947ff657d,
0x40f7fee86927a892,
0x0803aed280d2fe7e,
0xb610e1752ffd7c45,
0xcdfe60d51106effb,
0x0445c997a4ccfffd,
0xf5e8fbfb7e13cbbe,
0xdb0b88f27c098568,
0xce1dfd12aa8e182c,
0xfbbacfbfed4ad8c6,
0x6efd6331feffebe2,
0xf1c3acc8c085fad5,
0x78904280f4d857ba,
0xc77120a88360ca8c,
0x73a02b8c783ce4d3,
0x4632baaf69e22d86,
0x9cc360dd7ab68850,
0x013bdda276a262e2,
0x76b1ae9714fbf022,
0x7d89a9923199c0dd,
0xcfeec708096f520e,
0x8eed2b7c3332ea7f,
0xa10c3720bff76b7f,
0xbb949ff3cd8e5912,
0xb139fb97f26bf719,
0xfc02f18f04609ff3,
0x31e43ee9e5f04040,
0x28fe49226bb37d30,
0xdebf9f978a01d037,
0x2d45034613280460,
0x74106b115112f4dc,
0x6ef7502bf7ca912c,
0x40209f93ea077cbd,
0x9fb5207b86310557,
0x02997ab16347f00c,
0x2f7c115377747ba7,
0x255f885cf5017233,
0xddca3984dee3c9a2,
0x097eb067b33e3f7b,
0xa13292def7f9f1eb,
0xe3e2aa5a1d977833,
0xb9ad01742981abe0,
0xb9ee6b4b4ef631ed,
0x5c39ca3cd3e47d66,
0xf00f9a2a56e534d7,
0x2a469e7fe2200d30,
0x000435268f4a8bf3,
0x5f11a9382afc72ef,
0x19e744184ff06818,
0xd8313c009d7d9504,
0xe186ba800d4ce030,
0xd00c8964513b1a23,
0xbb94c140502800f5,
0xf1725996b81d4c45,
0x047a8df722011936,
0x63baf9ac00f101d0,
0x0ae8bf8f30741382,
0xb6ff43a2b87a7fe9,
0x5dd02202ef99dbbe,
0x216ee6e3db126463,
0x20916f425ff01aeb,
0xbd136600dddf90b7,
0x84eb8c2b046cb4dc,
0xec0491a83b1701c2,
0x4af561366306d737,
0xd0278ab6dfa9959f,
0xd90b2ff3a49fbb01,
0xa89043ae62922a9b,
0x90d588601fa311ae,
0x4dd10faac5347df7,
0xe056b7002dfa0900,
0x147401141c505f79,
0x84021166b5588a80,
0xbfa1011279bcfd8e,
0xb21370202719057e,
0x4ec60050f44bb861,
0x33971d65e08efff1,
0x3c893dffcf6e1c70,
0x3ea0aff30791840a,
0xc9829112298a435c,
0xd77f85faf028d830,
0x228501c04b389964,
0x633027f8b780380f,
0x216b1400e377eae7,
0x217346572e7a21e0,
0x1b1780cf43c4c882,
0xb8ff72080101b5ee,
0x7132c90f10a3644a,
0xf37da7c6285a2ff7,
0xfcf0550d93551295,
0x55c01202105fcd75,
0x1ba4cb8cffd0f67f,
0x41185b6ef42322ae,
0x6eabd9917cc3d9da,
0xb57f18026dff3195,
0x7559c1046004ea9b,
0xd0d073fb05949cc6,
0xe1acf2054901f86c,
0x3a720c06824810f8,
0x1004757c456fb400,
0x6100101118063dda,
0xcfb42b7e3f8fec9f,
0xd0064dd927c4bb28,
0x2a7f1f5f7bd40386,
0x86f14c8ea2ad001e,
0x1c1f95436fe760ec,
0x96c87a331f7e6110,
0x4cc784028ccf00a7,
0x235de909aee8ccd0,
0x90c941cd5e331980,
0xcfae24798fb18031,
0x27020d5c117ed138,
0xc7affb60c8c01933,
0x2c983d374db86be5,
0x4c217d211bb91354,
0xff323a0275178c46,
0x978783cbf5776250,
0x5fc30ee15580ad63,
0x496308855e100784,
0x6760fc0220419780,
0xeba06e237f78cf84,
0xc6ceaf82d6667aac,
0x790093c763095e7e,
0x60bcef803b1967b7,
0xf63a7af836ee3b9f,
0xcc504e16428cfb2f,
0x802189d417b8363b,
0x9fd0a94ecddd3825,
0x6e3b02f0759074db,
0xcac0efe4fd770ec7,
0xb548cd9964db63fe,
0xa4d51a2401c4364d,
0xff2f7d43105f2514,
0xe7d16b9164c7430d,
0x3cc42e443c8d0990,
0x3240abb01bdb8114,
0x7caa87043e8277e6,
0x02002dbb226c3f63,
0x7d76b14cdfa91642,
0xe7acdda16607fb60,
0x06d0ce69d6a9427c,
0xed3388960c0b6a23,
0xf18e6fe2aa046fc6,
0x75007b235c9cf765,
0xf12d70987ea06cff,
0x4db5000aa3601c82,
0x5e1c38f250461b7f,
0x4f698eb2c19b1682,
0x40b770db0026ec5a,
0xe907f563cbcfff8f,
0x5edb11083517698d,
0xe1439f4c41739844,
0x5cac21dcf64a7f93,
0x04cb33422450de73,
0x7283ec9295d372bf,
0x720209223d18ecf9,
0x4fbdf48908c112ec,
0x422253e12b910340,
0x094bbb3b84afcacf,
0xe0bb83690e40e184,
0xd30d878f2f106fcc,
0xcf0015b2cbeae17b,
0xfd3711322d58744c,
0x07d8ddcf16714748,
0xae6f02c31fcd8f67,
0x3ab13b0540f083bf,
0xfd0305c063c49f65,
0x31a2e09e8c112658,
0xfb99985e0db5bdce,
0x26dde3451912e9f6,
0x68818775c7e03f56,
0xfe92cf332746fb67,
0x632d31005bd166f1,
0xfcc06b794bd0790e,
0x9fc5d1a6d07d42f2,
0xc9d18209f964c897,
0x3ba7e901b2dfc44a,
0xf13bd6fd29175a3f,
0x7ed49291f2bf00cd,
0x54ea2084541f089a,
0xf035e4edcea619fb,
0x3f0b8e948eeabfef,
0x4dd3490668bcbc3b,
0x48eeb6e698d55c57,
0x01cebf1e8489443a,
0x919e484408bf6692,
0x8bbf0a6de614e03c,
0xc9f91e9550c6efcb,
0x49422954123197fc,
0x117f18fbb0f980b9,
0x7d3b464f488d8c8d,
0x1e0ec94592162955,
0xe835dc308c0478bd,
0xfe8588ff61bdccfa,
0x5f73e9f591c48811,
0xc7067cbbeee40cae,
0x9f290eb2fe4515aa,
0x7ec7e435038a9039,
0x064384e3c033c221,
0x8ffe5e00150fdaf5,
0x8af55cda3d2bc7e7,
0xfef5b925b99b5a32,
0x8bd0049f7d48882e,
0x0e9c07588e6514dd,
0xfe36fe2811703051,
0x338976223dbbbe1b,
0x0228918117f3b27f,
0x048c99422dac5b6e,
0x70801d0fc8c0cf29,
0x92abdf7238dc24e1,
0xe8844cefa198e7f0,
0xd0f5e01b710c4e8c,
0x01fa1feeaf431985,
0xad4296a61f1934ec,
0xcdd3a48cd0889300,
0xb5d80912aaf701e9,
0x7b10c08588bef9dd,
0xf9f6ea7d5614a14c,
0x3ec406c64bf1bf71,
0xb316961591805015,
0x64008c7608611998,
0xbf31ff7ffe3f0e6a,
0x5d78e5a6928e2772,
0xef8e3fcd8c7e57e9,
0x7da334d01114101a,
0x9f78b1ee6621ffb0,
0x3ad5dbcba1df9aee,
0xf1843fb53c0ad073,
0x03214619484ed7eb,
0x04b262d07ee74d14,
0xa641d7f34d82c917,
0x94af3b1d71781032,
0x090c12bff528066c,
0xa95567a2e992097c,
0x886e5145491f8214,
0x8884210cdf8c809e,
0xdff9dfffc2f610e9,
0x578fbf8d085a7623,
0xc48135b391323777,
0xbfbd1a7e28cdfdfc,
0x807515d0363877cd,
0x7b7e3c164cd366c6,
0x337f32110b997a30,
0x8c34c57e3b12f834,
0x7fa301037930836a,
0xb320616d492f6a56,
0x31688df6193f12a4,
0x8430c1194fa1ef7e,
0x62ae49026b3382db,
0x375f90f03912330d,
0x233208128d8ac987,
0x308e946b41fbe61d,
0x5ebfe0b76e8b7027,
0xa800f773104eea80,
0x7194166ed3fe4b21,
0x4171d77c993ffcb1,
0x819a154c793133e6,
0x7debe612112bff93,
0x5107e318ca9682f4,
0x981d1a582a9f6319,
0x1115d139f8ee32a7,
0xc454617a83fde81b,
0x95a5323900bf00fa,
0x0e540123da6541a8,
0xb6aa7027a3c0781a,
0x2338e043b37ebae2,
0x583d5a3b801f77d2,
0x1d6340667ec06cb1,
0x3c6fce4126fb632a,
0xff35cbcdc04dac80,
0xf33700a3483c6002,
0x42105b7d7355a53b,
0x636608096c55bb10,
0x7db26f007f3bcfd3,
0xc4772c91170af800,
0xc68c20ae5f1fcf22,
0x227e6d196dbb4de0,
0x7f6a2ceea8827713,
0x27aa63211b39edfb,
0xc82a17eb1802c89a,
0x8e404f104272d0bb,
0x13f030ce66ff97b5,
0x4bb8234efe720c07,
0x726f5de02e3010bf,
0x9daf3ab0730a16db,
0x608f0a633f506273,
0x078090524f01377a,
0xe891a0a36635627b,
0x5a4f28b7d8f1d314,
0xf791db43847b6849,
0xc8113b8740a140c8,
0x5870ac3c27772084,
0x2b9e6bd077c02f0d,
0xa37abccfd94cebdb,
0x115d665a63716082,
0x610b0ad267b90234,
0x9b223d0790ff4f78,
0x705315238421221a,
0xf3d72f2a1bb045e5,
0xf8331cb67023b020,
0xbe3d033ae6224d16,
0x2a317106ea35a335,
0xabc6ce5d1fbbb110,
0xf299df2dda125b8c,
0x1767322082018b78,
0xf73d78cfc112e893,
0x99c997b976a0383b,
0x43e2322e4f336874,
0xa4c298bf36bdf73d,
0x8ce8d0e7bbf57909,
0x57dfc08c02fef303,
0xa2eacbdcdf73a331,
0x23458246bab3f720,
0x67f0ff74e1f38cdf,
0x0bffedc110344c98,
0xe13900b4616a892f,
0xbbfe26f1814febf5,
0x846005ff9443e31c,
0x5b6040797f77a6f7,
0xfc77df9c4032c3f7,
0x0e7def736f7fb7f8,
0x94d1ef7838f779aa,
0x6a872ed94d300077,
0xdb00fcd1d3fd4ccc,
0xa7bd7bb2cc5c163a,
0x0861000184959a7a,
0x04cf01b14110ee1b,
0x5f5c177f2339af74,
0x0ebf00dbcc33ab71,
0x99fc8cae843b11f7,
0x42f529fda7ddfc46,
0xf7e3765d8ea377f1,
0xe8133fd82e23827c,
0xa7af1013923a4ea9,
0x06fe527c6589c8ae,
0x29aff9e716dc55c7,
0x917e0063173b1e02,
0x06fc813f6ea3f070,
0x8d33899a84af0e10,
0x988968a3453f507f,
0xc059871a099f86b2,
0x6087912390c2aaf9,
0x68990affeeff1a31,
0x0dc5b657eb84cd4d,
0x74caf4a6cea12ff5,
0xf617081ba5febdff,
0xc88867fc51fffbc4,
0xb9160053e01b0fde,
0xbf739016ac81c8ce,
0x00010033db254547,
0x54f77f8eb24f23af,
0x4767671cc17f97e1,
0xcc413e82411627b2,
0x87f801d80cfa00ef,
0x2cf47147ee89c134,
0x2adb6f4b96fd5e6f,
0x557fd20861a91085,
0x407b00325cef7133,
0xa71b2aebf3486ce6,
0xd810e12c1ffbdd79,
0x67d93af9067a94eb,
0xbef1786718108b75,
0xf16d08c788fc24ff,
0x80f6bffd04f5a7eb,
0xbf49003beedd9dea,
0x68ebaba1e453ae14,
0x8b63e7fe7131f2ad,
0x136662f062d0fd31,
0xcd2f6e4e62d6735c,
0xa62663f728548199,
0xe77633e4940588b8,
0xaf57f42acdac23b0,
0xf2237e136be960c8,
0x37597d1b6fd7775e,
0xbb605007d5f44064,
0xf6d1ecfed811c9b2,
0xa9cc3f6232da21b0,
0x111519d0003b63ee,
0xb00310308f40f49f,
0x92e25ef6140a2080,
0x20c870b973907034,
0x9023d2eb802d1b73,
0x32f1ceab80ac7001,
0x598e5932ab59a0b7,
0xe004913e088d9099,
0x83b08c3ab6a31bd1,
0xfb7443e0b0990008,
0x3054810f76d8d1b3,
0x4e0234e77ce8e6f8,
0x01d2d27f0981da22,
0x01324c7e8037701a,
0x37ec6e7ed08bfad6,
0x0effe63c0103272f,
0x77118242f3f73762,
0x5950a0ec21193bf3,
0xc9be78edac01409c,
0xab7efe8c8ae56048,
0x8a494662cc9337ea,
0xfb5858ee0721a63d,
0x87fe135922c14b41,
0x662920342e70072f,
0x0121e7b202ff6daf,
0xc41024c8ea90dd41,
0x3c0f5111460bdf50,
0xf7db558902230b04,
0xd17207765e83ebec,
0x2d12bbd8f000392c,
0xa9004368db3afb66,
0x40158c0eea3e61c5,
0x0381da973047518e,
0xcef174b0dbf3b60f,
0xfb885f52bfa2f2d2,
0xc54bff7562f99746,
0xf7993f850771d20a,
0xd83541e29411e6a5,
0x8c338ff94ffce6a2,
0x7ecfa60fe9fb30b8,
0x6efef8b566bfa4b9,
0x00b167188fc1bb17,
0xe74816be047e1025,
0xe113272160737efb,
0x067707e6f77c0df7,
0x26801f508e776006,
0x68fb9c80f6f1422d,
0xff383586ccaa6621,
0x88b3fe2bc389dc60,
0xd703c444019be880,
0x2992705154021e43,
0x7dfaee5011f5f109,
0xfd2d375349eb3f25,
0xf29dfd24e8845d26,
0x00091ee087d6908a,
0xa1d5d3f50812b7f7,
0x3ae28d42cde2fe5a,
0xfa2d53bfefcc5700,
0xefcfd144ffc0c1cb,
0xe1a7fcf7f798ec3a,
0x711065007f4f4156,
0x441ce8d5f2c7ea21,
0xce6b9c9a75fa004d,
0x367ea898d860819d,
0x376afd0099418310,
0x9e747bfb2129754f,
0x4ebeab41b995691a,
0xf3581de5e949ff47,
0xebcc676e12242af0,
0xec7c7e90601a9b14,
0xa2f588a2c98be779,
0x9e4e6e71ef746fdf,
0x9f4e19c9768fe285,
0x8e07b088a2b60d70,
0x97af1240f3ff2c92,
0x6102b150dc208526,
0x973daacfbff9b1c5,
0xaa9c6466e23e64c1,
0x9d75bf5948e1ddb9,
0x0a82d806fa79dac5,
0xd4d1a92c016a6f86,
0xb52fb1900677f66b,
0xb506750bdbcbfe46,
0xf524a8c79c0f028b,
0xcd22c68193d664c4,
0xdc2519450092e5af,
0xb7e6fd74d620ccbb,
0x4e884d04f345f398,
0x3ed8fd7ceea87f8d,
0x6c0290065108acf1,
0x0ec30619ff53f583,
0x7324d5efa3b6ffe4,
0xe299e804fcdcbafa,
0xa62ff3b6d7d9d47d,
0xec72b6698c5fdd70,
0xa4f30480374f48c6,
0x0a717d77565ff750,
0x766dbffae7e6ec58,
0xc5d8f9e5e91e2105,
0xaccebf720ff902ba,
0x0b9ce9de2ffde1a9,
0x8af7eef601ef0be8,
0x0924c09e3d732d7b,
0x6741cebce263c111,
0x7d53eddd9afb0902,
0xed00e6d873a31b01,
0x8ee70a140c6e0efd,
0xffd6ee95ce14823a,
0x054cf6c88c0a80d8,
0x5f5dbb6d08034ed4,
0x444015197f42fb74,
0xeb5158470676d935,
0x87c0ef92fc000812,
0xc18f6fa0be107f45,
0xbe83ea1737dbf910,
0x80593eefcc88b921,
0xfb03fe3bf608ee5a,
0xd0c4b0b7c110efaf,
0x7adc319ec8c6bd4a,
0xa40cfecbb7933bd9,
0xbd5cf8b58aa0faae,
0x3dc6715300d7b200,
0x590dcbf9b62890ad,
0xc541152766dcf339,
0xcec4f3fdf894ea76,
0xe19feae5eb536dec,
0xfddb84a972e593df,
0xa3d7c9d91c61c219,
0xaae098f4ddd2831b,
0x8f64a8d2c9ea4fc2,
0xb487b1c88afc298c,
0xb0eca10039dfb883,
0x98988325dfcaf859,
0x3805941cf18e9a34,
0xf5c4003f4c9c9000,
0x44d0efcc73ddbbf0,
0x7537f23a597e6acf,
0x823dfebaf7e64dcc,
0xa820314f6add8afd,
0x3f1630c42b4ba2a9,
0x531df2b8b40dfdf9,
0xd49d62fde652efce,
0xf3fb0bf76b1ebec9,
0x3c23c594820c3b16,
0xd965db85a6e993d0,
0xebadcde4c07ba8dd,
0xa9c47f7bc981760d,
0xf55cea30ccf7e308,
0xcda1a2e49dc86bec,
0xb104281af53c75eb,
0x0e84ea67e0dc4cfe,
0xf2eacaf75c02d719,
0xd1f3ed8c9e85240d,
0xbc89cec611dcdcd9,
0xf9c4bb9befccd7ec,
0xefaed888049ae040,
0xe6ee6bb8ac3a7233,
0xb325e62751cc7ce4,
0x9e76fcefe4cfc883,
0xa84efedc7535a001,
0x3e0b61feb8004468,
0xd18d7fddb1a7c474,
0xe8794eccfa565100,
0xaabacc72b90c9c8c,
0x012988248502ac82,
0x4ca2f0d7dd00df49,
0xadd98008247f8d40,
0xca4bd8fce221efb9,
0x0f95cad33d5c21f3,
0x6c04abeb6623bec9,
0x215fedfe103ac99e,
0xa8fcfe7089380294,
0x7f8952ccdfee1b44,
0x29ccfa358cb9cd98,
0xef88a8c182cfffec,
0x5688ece4dfb7fedc,
0x8b196a3ef33608ff,
0xcdc9f92155f5acc5,
0xd230de6fe2505e16,
0x78153a27f37ffdff,
0x7e51f433e3a542ef,
0x308133028f824280,
0x9aab4cbed44557e1,
0x11f0a0e72ff76bb8,
0x4a093b30988f1203,
0xa06b71d8000b3130,
0x4b2ed32996d93921,
0xc43e8bf1df821b34,
0xda533f6545fd01fc,
0x4dbd8bf8534b7c1a,
0x3f771f823e3adb6f,
0x43de8decf0d068c3,
0x0ef0fdde7f732fff,
0x8cea0173cdefcf8b,
0x2e38fbfbe2dc5c62,
0x17055ef70ef63059,
0xe320a3fef76faffc,
0xf3bb8ce2fc0277a0,
0x0107ce4f6fb7033e,
0xb2806ac9451b4703,
0xc8568f0fb3c4a03e,
0x389bbffbbcb07f34,
0x3b30130d81bb06da,
0x9e05ccde11781b10,
0xd13eadb7311cbff3,
0x69f0f1dfb181f090,
0x00245023e75d5c71,
0xc8af100cebee5e8c,
0xe727fc8eeed4dbd0,
0x6e86d20acc14fff7,
0x994b24283178284d,
0x4fff29dcf5c6df40,
0xfd808cecc7c8fb50,
0xd6076f1b95bc4e9b,
0x7a98273eec4f500d,
0x3b71fbad3766f48a,
0x0f063df129d80393,
0x6fcefa8e48c89e59,
0x27c99b710bf016fe,
0x7662303186d00a66,
0x677caedd41f08fd8,
0x123a2e6218a439fa,
0x8bbe1b78f10efb83,
0xab7f912f241f081b,
0x1b74ccf5246c1736,
0x00ec3d3b0eef7318,
0xadfe5ee781f8be41,
0x703efd1d3d90bedf,
0xbee903d001748c2c,
0x351db81af7bd6fee,
0xf09a0122aa560b97,
0x41140137c0b1f707,
0x19f2c46a02a8ef41,
0xecc23b7a74ddd428,
0x29ffc850b3342d4f,
0x9aff5e5bff7513ae,
0xaef4dcdddff4846f,
0xc932eee7a3f988ff,
0x315326c6a9bc2ff1,
0x819298dd7e461751,
0xb9cfb1f8b952fef6,
0x76aa5df87f0c9a81,
0xdefeee8618c03213,
0x3e504872fdf64dc3,
0xeed0e5577ee4a40a,
0x1b8beefdc9fb3573,
0x0288dcc259b26352,
0xba0b626721005b7a,
0x000ea9db4b077baa,
0xa8fffd33111af5df,
0x8961f6ff0edfc018,
0x4047f2356bf5ebaf,
0x494fefcf83fffd89,
0x4b2f8fdd80ed4ab9,
0xd366f9eff0393209,
0xfd9060f68801ddbf,
0x07fc700141868a05,
0x5b3fb92f81066ec5,
0x95399732140c998b,
0x88c6c97608c7234e,
0x957f39ef3fc0580d,
0x36ce7f340b274569,
0x1aed8842c8c501b0,
0xeec40e7f0fe3ff50,
0xf9d04f6f7535e8c0,
0x773076097c1f4af7,
0xdd8060565fe64066,
0xd6dff36eb91cb7fb,
0xde6009238dc7c0cf,
0xc460c9ff0c8188b3,
0x7a567f6f67bbd705,
0x12de02197ccb33ff,
0x0082cbaf8ddb5ba6,
0x46cf07b381ca7bc4,
0xf19773038c01fa07,
0x9a86bebd91b2e30d,
0xe7648986998c9cd5,
0x0030fe75b4e4bf75,
0x77fb09ce3e7d84cd,
0x86d5287d0147f787,
0xcf3b500fa6e244fe,
0xa7fe9d9a002bc553,
0x4adc89598ffc50ef,
0xd75578884913118d,
0xe7ab5067b7cb9eff,
0x44cc3d6a4ef76d76,
0x987d7dd7af197be0,
0xe89e6226d1bb8277,
0x3c6e3baf1087d667,
0x004427eca9ff33b3,
0x1b5700e7cee94ffa,
0xa9b39d1b0eceb3e1,
0x50d20a234005bef3,
0x7b3660881b6906fe,
0x0287100b9febac6a,
0xeeeb8501b9334413,
0xedf104e2eadf00f2,
0x44f13b501062c4c2,
0xab4dedc657505573,
0xc9e74b1973e8000e,
0x29ad10dd09ffa0a5,
0x2e7eddbf3fad4dc6,
0x1400839f8a76dbe8,
0x53c5b1124ef37066,
0x777f323f9390b86f,
0x5fe6074d90787677,
0x080ff47991cf2607,
0xc8721fff6685e5af,
0x4be4be3a3904ab7b,
0x00329cdd0aab9bfc,
0x71333ddb5a6fb70a,
0x52113ff7b1fe19ed,
0x5853040c583358b7,
0x6cf6f81a69103f12,
0xad30767b7d663151,
0xfdeb003ae065f5ca,
0xa9a7a35511198214,
0x50d54a3bebff33c6,
0xcc55dc484521ff74,
0xf7b7ebe41be7bed2,
0x2401efb7bd463f42,
0x2819dcf75ec2a801,
0x0f02dfbf8255123d,
0x13772275bfeebc0f,
0x6c149e972148ea09,
0x455049047333aaf4,
0xf37f322b5ffd4af0,
0x939397f7e9eb45c4,
0x2135f6402849e01a,
0x8940bff463514fff,
0xebd2ad6821cbd7ba,
0x06b667189846ceea,
0x00053f2ffd735f9b,
0xfcf46783c22feb7f,
0x8c9a08fd3195f90d,
0x1a589d37f7a26838,
0x67cb32d607a1a0c2,
0xffff6ff9f85ebfd7,
0xde07b1a04980ff69,
0x3f7e020082d3c9ec,
0xcedf0a4e87806000,
0xfb1fafe67b5301db,
0x898d8a9d54a3b917,
0x28848880aeef5004,
0xf630ff771ef1c80a,
0x3663f99f5926f81a,
0x088d3e9f9e28ff7e,
0xb3470000519ef700,
0xa633fefd6010f801,
0x3408895f537f610b,
0xf1250eba64ec9856,
0xf401753ff1997b7f,
0xec9050b43dcbec5f,
0x7d7feadfdcd24041,
0x40d3df7ff8e729f3,
0xaab35df4180fbe4c,
0x008c0000b3201aa4,
0x8180391cc0000a8b,
0x1e5f1022fe90405d,
0x004c110e6a62b617,
0x8109e6199cbb0ded,
0x6e81002026496d2d,
0xfff58f1abbd47fc6,
0xbe6690f63fea67b7,
0x3f46eeeb4ece4c5a,
0xadbf7101fb774de4,
0xef7b70ee772fccfc,
0xfbfa6ccf5b10fcbb,
0x3ef610179e10233b,
0x6391308058406ee9,
0xf81e99ef112de850,
0x3a80990872768645,
0x0274d135f5b1797b,
0xf7d0cba693717723,
0x00cdf6e167f24308,
0x0055b03619808bce,
0x18028de87263657b,
0xab98f3c29a100bc7,
0xa9dcc84f1be20f29,
0x023cbf26ff0cbe20,
0xa82dab269e4bdbcb,
0x232de55cbae61073,
0x6e047dcfdd1848a9,
0xe8eab031c943b339,
0x1e395f85848c3600,
0xb20fdfb8a090fff5,
0x74bb8d081107e3cf,
0x8fe7f34e805f5fdf,
0xc7ea9643030077c1,
0xc48c4f4d011f4116,
0x2b17511cd79ac502,
0xee5f0f370d35effa,
0xd98a8fcdff7b8301,
0xde1c62094227ebb3,
0xcfe34bb0364605a0,
0xa974cb8c4c09f2c4,
0x8c1340414a2ecbb4,
0x7f6fc066b2010bc3,
0x8fb0bd95004f426e,
0xd90c088b6701db47,
0x1013a60110128701,
0x9662c81b7172bb2c,
0x8bd1c37f4f9a13ad,
0x07f7e101802d4741,
0x6902b0877601254d,
0x937f4d2406c6eaeb,
0x768441ccfa2026cf,
0x82195f262b33ca0e,
0x7f5521068cc2e09d,
0xfe1234228619c9a3,
0x94cc264c9c92e0b7,
0x7e282fef70082fb4,
0xaa4790a9e3c2f84c,
0x8a49d0cc97f54253,
0xae2699c9188d2feb,
0xa9136f205788ef7f,
0x0ae68de7bd2aab5e,
0x01175b0aef7d4f41,
0x131980b37591ef1b,
0x3144213022792628,
0xe092ed1b04efe4e2,
0x8e17cc5d8ac2a008,
0x3ca046fe2ceeb398,
0xcc08cfe0c7ed0237,
0x7046bffeffd7f880,
0xba4247dc792e7241,
0xcf77f260cd4607f7,
0x8767061782df01b8,
0x042e88e0a09d3fc4,
0x0f35d12d04062463,
0x7002fab09c5687cc,
0xd2ff31c95c126e3f,
0x9d42ec08d4599900,
0x0ba666644902153a,
0xc93af957f136c9c9,
0xe542d6df0609b510,
0x77a9dcbb3a1cf2cd,
0xc7c16aed32b81ce3,
0x80047b9d3b6ec88b,
0x30027ff120080ce4,
0x1580a0297911f93c,
0xc9ddff2330102568,
0xd333105c0df08cbb,
0xcc40a059cbbe1719,
0x08e7c2373f783fe3,
0x7656a18467ff1145,
0xdb46fbfdc038a050,
0xfa89c03531e3bd60,
0xaa56672e14a7000b,
0x720ceedf10248ec9,
0xc40399bc1908f997,
0x30bf11b5c81b1fbe,
0x9de4955f00109a01,
0x0c79717721b70087,
0x7a6d1925c40e8961,
0x5635d4603d7f9818,
0x60457f7c3773f880,
0x9311fed15a0427e4,
0xcd20eee2cbae5c6f,
0x64fe6b279500e508,
0xe9028010e4c20816,
0x8ef97f6bc6032bb7,
0x9fd360df6ab4c9e4,
0x5f9680aa5f1109af,
0xccca1346012899e7,
0x3af527cc26efd98c,
0x6a57e473cfab57ff,
0xb26af1090019018e,
0xf7803600bce8ed89,
0x24e9eff86de1a111,
0xf77ec88db3284cc2,
0x00840200db1ea21d,
0x3535802e96e7d67a,
0x9db008469c67b7ba,
0x5ebf08138f00c2a7,
0x407740087b71ce0e,
0x4c811263bf1031ff,
0xaedaf5d37ee4e000,
0xd8c60c166249bcc4,
0xfc80fa01c1b07fff,
0xac137313e92968dc,
0xf6764ecebede7351,
0xa0090074de836d2c,
0x8c917c3188cd03e0,
0x59343214314c3e67,
0x0912e00c11051e9b,
0x140b1618c4deb0ec,
0x8ce033c0eb561871,
0x857a5e5c1f508023,
0x045507b37a09465b,
0xbff1afb39cdf9364,
0xacfd8011082be86a,
0x0002198018ee319d,
0xb7fcd353704fec04,
0xfb30519626feddf1,
0xe6ecb0108590fdc6,
0x2570a0c48a982205,
0x480518c142700fef,
0x8b871b7bc5ff604f,
0x414a534de21ca148,
0xd98a9a2981849afc,
0x2021c47420ae3f0c,
0xb32089c35127d519,
0x4770bd837022a375,
0xccd4307599f3fd72,
0xfcd9ed2a201c1d5a,
0x293ee37f8b158d5a,
0xdc4d2006ff28fe5e,
0x6c879b9f198d28d8,
0x775370088d0f80e3,
0xddf9f219804aa337,
0xa4c1cf310f267bd9,
0x2548f9331c69c903,
0x3f5c9bba6c5d71d3,
0x7400a9b1b6579b71,
0x91a9f5d31d6fab46,
0x9c26335002324fb7,
0x7f239395e333eca8,
0x1bf7a8cafe4f514e,
0xf47a83be1bfba4c1,
0x470ab182a477561a,
0xe30c3e8c09bb81bb,
0x63b26341ae7f5d2c,
0x6e80b75174432710,
0x9541c409e035ec0a,
0x83a43595fd00c033,
0xc67afc65df578558,
0x6ae64d17c73b0990,
0xd4df576463063ff1,
0x8837eb12f77af5dc,
0x530df83b9334398f,
0x7f6b29f2e2ca2c36,
0x7f7204999b4445a3,
0xbbdb89bb3dc3e59c,
0x72592bd6f3e9ce19,
0xca083a3ce7ef17ce,
0xce70debbbb41179d,
0x0a137898fd3a8b35,
0x490569957f3c0cb3,
0xdd682a6ff48e468a,
0x26b9a80b91c7b667,
0xf6860c84d9b35950,
0xc0bcaefc6ccb0864,
0x2977f7fb324a5008,
0x040a05dae5584d97,
0x0e03a8a7fcde7b55,
0x66fa08eb5f0f04c4,
0x89a6dde7edc878dc,
0x6e840b310f140240,
0x2de7cef226df5f47,
0x7f7c8233b349c955,
0x617284b0bb5e26e5,
0xb700494980543f40,
0x6888202636abc786,
0x0997cf5d195bdbff,
0x08ff2e3e9c1b2ac3,
0x3e41ed83dce633ff,
0xb99b942d33ab6fde,
0x374123f695ecbd79,
0xf08a70813dd08179,
0xa382827702019331,
0xe590bdd0946c013e,
0xd91ccb9a0b4e6b41,
0x07b411016fa6dd9b,
0x0f5bacb3e5c26151,
0xf33d4bcc1cf52000,
0x0102fae3b290ea20,
0xf37393229009ae93,
0x32869fdd6df37dd1,
0x99f5d00033cc7602,
0x0ace86cd3ee80afa,
0x2652fc76ebad5574,
0x074671867ebf74a7,
0x3af391400048c3fe,
0xb9be6bbd78e71340,
0x665c7785ff287ac4,
0xd33b7009f23c88c4,
0xefcc6fcf3627133a,
0x000500806376fbf6,
0x3f6237b65570ef6d,
0x7fc99cb13be13677,
0x7fe20848583600c2,
0xddb7ef7910087f7b,
0x4fee3a7e773f0ee8,
0xde53bfbf5d9c69ea,
0xd4581108f37abbbb,
0x5bfbb08c6ebbb110,
0xb5fb333a924938c4,
0x12ff05c851d00022,
0x42ed0eb9320c77d9,
0xbdc9b2b5bf6f8c6a,
0x88fe429ae6f8ddba,
0x80d57ffda3153f1e,
0x80d3c31977fa48a2,
0x56813143f6307fe3,
0xf080f8d62181b735,
0x6361300a73370efd,
0x06f001c55081069c,
0x2743b982db7b6b76,
0x908cf6466839e8ea,
0x19d41099e1a10f20,
0xdba013b38ff73fa1,
0x84464731792f0822,
0x6162f6f33805e47a,
0x880509a3facc76ff,
0x706367c3ffb37ae1,
0xfce21ec39fcdfefc,
0x32faf0a8adfb88d4,
0xc0c0edf733387656,
0xa8eb4eb17ee4fed6,
0xa9cfa09a1012308c,
0x77eca019692a3135,
0x56e4efe8fdf9709a,
0x38d097dd8cb1e339,
0xa733fe412806dfae,
0x3392f6a6f7e6d327,
0xc2e01de072b6973f,
0x3fe44574ee7f344e,
0x0bb7435e9f91f388,
0x5598f2387f32e4e3,
0x017332187d6fb730,
0x3e5ac7de08013217,
0xf660bf390455bbf7,
0x1559bb113423f7f7,
0xdfac4ece124f7f4c,
0x40191f6d9b716fb2,
0x5089275fffec167f,
0xafaf08699c8f70a5,
0xffb9ffd7d1c0fed2,
0x29c6ea5da7a030dc,
0x7af733126bf5fb3d,
0xe29ff9e66c00baac,
0x2b11bb0e580bfaa3,
0x146b13837186d3c8,
0x8f774015bf44b361,
0x7debf13e8b76931e,
0x574f38fd3125bbf7,
0xf0fdea75d000decd,
0x2823d9b3a92fc33f,
0xff8fece67bd0142b,
0xb99da7db73628e0d,
0x6148bdfdcc929d43,
0xfc7af907b3357296,
0x702dbb2e59b43f3e,
0xf4b1b0cf94f8de5b,
0x126647dc12bef702,
0x79df55fe4d83baee,
0x80213baf111df304,
0xedfffc64f5ff584e,
0xd2f44f709f0f04cc,
0x007131dd3fcc14d4,
0x3e2c93064d4c426f,
0xd77f30a21544c8c0,
0xf44e19ffde58b9ed,
0x911f3843fa352334,
0xdc9f6d97120e437a,
0x1b12e2d5abd7d469,
0x4384ea86a5e177f3,
0x338fb239c7c2efec,
0xfd3b8af4ee8ec383,
0xa5839ce1d9e6feac,
0xf410307b88aef7db,
0x034996dd69ddfd4e,
0x2f307eeeff923c62,
0xf1ba10b69851a8b3,
0xb8869fd319ffcdca,
0xe9f43322b05d67d6,
0x3604ee80efaaf247,
0xd7eebfbed8ffaebf,
0x9c4c60221b0e6d3f,
0xd8f4e307e18df298,
0x886edaf7934f5e33,
0x26045ebab224c73f,
0xcc466bdfffa2f3a5,
0x0ee108947ffbddd7,
0x1a9cf3c336064ce0,
0x8d836cf0c6f30560,
0xf4c098afb58845ff,
0x2d9b9c7f557579f6,
0x6cfcfb20b3f2e0a1,
0xc3f48deb3b5c29f3,
0xb222ebbe3fe7586e,
0xe9ff9ec210425bcc,
0xb8e497667f5bd411,
0xbffa7a569aa0636e,
0x99d65ef244f7ab53,
0xfb55e7d018981346,
0xbabbfaabfd861054,
0x7309ce7f2072eed5,
0x699de97c0768e18d,
0xb20ef2f7fa707a36,
0x9e661a3267547de4,
0x564f4f5f0f2406ee,
0x3a9ea376e2221baa,
0xfff9911fc3d1ffee,
0xf0f9fddf0fc93dba,
0x7f32bddc821af133,
0xdece56ffb6ca5516,
0x4f04e173a11194be,
0x0443fde6d77ed378,
0x599bf952f4a26abd,
0xa99564e990037773,
0xbdaa89ba343f4fcc,
0x5dfe75db5f775f18,
0xa8b8997c1daadccd,
0x8fece87e68cb5806,
0x0e913004eedd0bfb,
0xc9fe1a0ec0cdb378,
0xb211396cdeca289c,
0x7fd9d758e7feb4d5,
0x8193ffcf386a14b3,
0x44fa93bf8290f7b4,
0xefc8500acae67f6f,
0xc10c8e462b3a088f,
0x80d4135068fb796c,
0x79a18c6647d9f2ae,
0xd03ff1b06d8a25e8,
0xe5ad7ac53319d4e1,
0xd4cd9a9527001ba2,
0xee63ded423183a00,
0x552dffcabfcaff8b,
0xca8f907681f210dc,
0x99f4ff5f0bf299b4,
0xf544ba84f7ffb5d8,
0x09b4e09c99d7a01b,
0x0aa0900c7ffee7f4,
0xe03f5df2a3fdfc9d,
0xdcd9ce7844cf9ff7,
0x63f26dcc0c5f2a21,
0x400ca905c819abd0,
0xfdb6f919ebed69c2,
0xfb8e31f4a0856207,
0x51da69803c80e17b,
0xff1de427114c8caa,
0x9eeee86cbedcf32e,
0x2dbf86a414339001,
0x930b686ac500d0ff,
0xb486abbe394ffd54,
0xe46eeace300d9051,
0x2f99827974cff8c8,
0x2dbbce715c520e9a,
0xfeeed4fbe9e9a55f,
0x87107c5935edcfe0,
0xfec7687f701145de,
0x98d95af1e9be33b2,
0x9412eaedbc325cd3,
0xc10da43e55e8f890,
0x2bbe5ea154acc79e,
0xefd8d214f99023bb,
0x4877ae226f9aeb25,
0x298821b5c14c6d7c,
0x10c3cceffe7f56f6,
0x42105f7320148999,
0x4d7ed15dbe3d408f,
0xd573d2e6ee504fb0,
0x3d736aa80b00783e,
0xba3dfe8aadcc483f,
0x00b127a80c0cad7f,
0xbe22007d0cad7660,
0x0cf1c519deb4f104,
0x92e2bf40a44c0651,
0x411362aedc85e604,
0x7c991fddbbae6fa6,
0x133c420052a50c41,
0x7e403d0864048402,
0x83370ff43733addc,
0x151b761066802de2,
0x088a982f6feec7d5,
0x7ef071983d19ff79,
0xf7780708ed0a1757,
0x8dd826419dbb4cb4,
0x76b0800bb79040a0,
0x7e0f6a48054f0d16,
0x69a72840efe05b9c,
0xcd00678232993e2c,
0x476ac019bbd667f7,
0x0512200705f00239,
0x7d209fa9aaea7a19,
0x03f85202eb142f02,
0x0013064dfb73a103,
0xfe72fdce33b02f4f,
0x3b3e1604f4fe4dda,
0x8c0000aac9f6fb33,
0xb0aeb5a1abded494,
0xe773f15d7f76bd22,
0x810a045b7b272ebb,
0x04f800fd67044808,
0x0701caff4714ffc7,
0x1d979c982a4acafe,
0xec1af14b5866168a,
0xb219360a52f2f331,
0xe7704fc102a88870,
0xadf814c9d31a8f83,
0x114ce6a17ef57027,
0xaeb33ee8567f30a1,
0xe5616c100c56a5ba,
0x9518248cede60041,
0x23e6819ae18065a6,
0x721dc5481609840a,
0xad02019e244a8500,
0x53ffd77cbffd6312,
0x13b3081207998d9a,
0xcfeedcad19d78733,
0x491f040a7373fedf,
0x32b6dee5674a5292,
0x29777b716d3f932a,
0x56b488e320b00c11,
0x1359c8b95ed8efc4,
0xe8853e073c491a01,
0x905e844a85676f5e,
0xd12335f9e056a68a,
0x1d01fdf30e030ec6,
0xf397fb8c222288d8,
0xccc1620489fa9200,
0x21401ef27e5b025d,
0x9ca444c47feb0368,
0x08984591eeed1710,
0x56e0332e96251910,
0xc6080f85643a0719,
0x02bc30107741b608,
0x06844106abbf2852,
0x31fe12945f131c19,
0x54bfe822b43813ad,
0x1ef60b3c2a752c41,
0x56a04a008f6ba4db,
0x141c201f8be38665,
0xe048072357aa0c86,
0xd47c2672379b32e2,
0xbfbcdf685d6a54ab,
0xda12bd2be5501808,
0xfb3bed06bf006566,
0x13055f20b609ec2a,
0xd890427bcaec41a4,
0xd01241fc6b1217ba,
0x80f77d64862ad46c,
0x44601868ead48888,
0xc9fbd925f5b32ac4,
0x189b30111c9e12eb,
0x66226b3c7d89b360,
0xf980d640f40040b6,
0x1db798e21f88bf41,
0x71714457bd26fe20,
0x320b18773c78b77a,
0xd29ad3ba070ff566,
0x5ce40697e601d9fb,
0xc4f3923225c98b00,
0x22c032310c042ed6,
0x116386ed9820a5a2,
0xd1f0a903d803d238,
0x77b01a2bb015eee0,
0x38f2013584cc23d0,
0x20b35c28ba473067,
0xba497b1a88788c10,
0x58731cf2c371dea9,
0xff318126db13a5e4,
0xf66a9e82c039809b,
0xc0037280f074fbae,
0xdd20b1bb21c1143e,
0xa2c1800c9e820fef,
0x726ae55ffdfd83bb,
0x086603fa116a3942,
0xc43377bfbe20a120,
0xfe257b275003333f,
0x1e6d1e36ea687fa9,
0x6eac4e92bbbf3a96,
0x01a83e051b7194e1,
0x4f20973cf01971b9,
0x544084f368aa1b8a,
0xe69d177a0aef5118,
0xedc109068debf737,
0x445831f4a6203623,
0x33303c51d3981056,
0x0226e05416a1240c,
0x9b7a703d4eca22fc,
0x2e3210b17ea4dcd9,
0x6e7ee02d763e61fa,
0x4113b9aac1159714,
0xb2240da8c650fc5f,
0x0fa83e013810ec24,
0xf0780703ea8b682c,
0xb8af0069eefed10c,
0x3a7147a31d8b1ea0,
0x03f20a02d3ff5af8,
0x1086fc124019db8d,
0x51291f1da64b0b93,
0x445b53f7b1d5173f,
0x84c66bfd5fcbbe0e,
0x8cbbcee30480efc4,
0x3be761837fff5e4d,
0xf0f7ff82999c6b30,
0x93287fffd5f4ef16,
0x31a5b093512c4b40,
0xd100c6ff5468f946,
0x778afdc605fe16f5,
0xf1c714ca529b1170,
0xff0a806c43ea2cc1,
0xa98167bf762f7bcc,
0x10c0f58f800259e5,
0xee39bcf7fbadd4a7,
0xd6ba43bf3be650be,
0xfe88ffa801fd4bec,
0xff7e931cdb711b3c,
0x92b89d9099cfdefc,
0xf1309979480479a0,
0x093a6674b7232086,
0xb104ff0042e29c65,
0x1e5fbfebd7833bd7,
0x110e2b9e7bed61c4,
0xffd51fd77c311c1e,
0x7b744c0dddd73bf2,
0x6810e08f10f11356,
0x740ca04c3fdf7804,
0x8822b7ff5127212f,
0x806c3c805ea76dff,
0x6f94002125cd5a7c,
0xf61a8a27e0b83eea,
0x9c8fb1ff3d4b33f4,
0x9fe1eee281c3b85a,
0x3900b3a339a53343,
0xef5defda53bf801e,
0xf09213bad33446a8,
0x97dad950776b1008,
0x063df401b00edbf4,
0x63f7c00b6d20f732,
0xe30300f1ff511852,
0x3fcb8900e648e395,
0x080267cf150ff8b3,
0xb0087b55cfdbeb7f,
0x653c1232bbb848de,
0xc1628e02b97d41fe,
0x6a88b1e4ff9ffd02,
0x71f41f7e7afb0fc1,
0xfbf8011102486080,
0xd80dfd295c803108,
0x56bfe98e67021191,
0x11e673e2efebbc39,
0xc10a9144ebc680c3,
0x29e2f81474428201,
0xfe7b7ca7a9fd364d,
0x7d31e01fa6136e6c,
0xd9ae3186009c619c,
0xfe4ebc15bb87fff9,
0x97054fc358e012e6,
0xde096945fd10fe2c,
0x15ae339ddeb633ce,
0x9b4d1b6a613080e7,
0x014e1cb502623119,
0x21cfd5873708e43f,
0x9401b05113ffbb3d,
0x825448802f7debf9,
0x4d9b85a1d27e4221,
0x5f131133df814e4f,
0x8a09106d932a033c,
0x9019bccd19d89027,
0x48a3dd4d85df1bc8,
0x99dea26b1d07585c,
0x366ebfb2ce3fb5a3,
0xa17f20df916fc723,
0x4e22ffcd83ee0f81,
0x918a1001b529f5e7,
0x16660604c40d30b9,
0x1f7d371cd084600d,
0x00b4398e701447e2,
0xe14ac7602f1bef56,
0x315f15d7e6f90157,
0xeeeb39ec3f4c1006,
0x4610cf7680cc0f4e,
0x04cf4a1bbf563cef,
0xfabc09acf8b7811e,
0x720b3ce1056a5500,
0x6e0ffe0b4e252d0a,
0x2a8b5c86d0c5a09f,
0x38a205e2e192d8af,
0x8448bd7bd53c570b,
0x85f3c49cc51afe41,
0xff2f891ed55b49eb,
0xceeb192bd497791f,
0x50460cc40e4f19ab,
0xc238da25a7245e4e,
0x83007b8828651de5,
0x2ac685ff8b32008b,
0x8ce25165a6062aad,
0x144fd8960c8e818c,
0x989ef24d00ab9ce7,
0x0abf9978e08f6624,
0x006e266537621b3f,
0xd40cfe7bb0b110ca,
0x097397f701718511,
0x0285900a4732c8be,
0x002508ce3c8d32c8,
0x00d5c09caecd2568,
0xf254c40e50ce08ce,
0xd0ca250b99a2f8de,
0x10217f4401eff979,
0xc146101d34c10cc9,
0xd648fc2f9508303e,
0x1258f85f7f4f13ca,
0x183d829490972336,
0x70b0c71489da11cc,
0xf7507093161a890a,
0xaffdd9bc684c79fc,
0x0d7e82d3b9f601c7,
0xcb0427aaffdd5117,
0x037166929cafdde3,
0x253b13ca3cf09439,
0xc121526d03ce431c,
0x30fcb10dbf7071d4,
0x699d8afcb9779967,
0xdd4ef68d70c6918e,
0x1ca25cb7b6ecde56,
0x0dc3c568051f8bcf,
0x41341cc78fed1b6a,
0xa74219af19ee518c,
0xc4e83c984e8cc444,
0xf7751306018b9399,
0x6e01bfd76efe1274,
0xd7f3b36c01908d3e,
0xe8010e7ecec6cc54,
0x17d7fb1a29127f6d,
0xffff3b115aea0cc2,
0xecc7030800018010,
0x0046418dff8f8d86,
0x4d9d840fe5734ffe,
0xb8a7aacf1f7e7ff9,
0x67f045b38ff773fa,
0x28d11b932dd57c89,
0x6be6fbbf8011a601,
0x09350041f7af8419,
0x7f7e72252180d089,
0xcfc9a0683cd8b311,
0xc251445fcd8e0f03,
0x5e771956d9fe6f96,
0x8021808142fc0733,
0xfffdefef3b4400fd,
0x20415ff39097b6fd,
0x26856ee7bcc7a918,
0x2003d9ef4ca07f17,
0xbf9a21166066d7fa,
0xcafb03559be7f309,
0x39411fe5d1a6a5fc,
0xefff48970a62e073,
0x8d0d7ff7ce818337,
0xf28328df5704dd98,
0x5f3a0707a77f49ce,
0xd2b2cc6f3a09e07f,
0xee89e31c3f5788ae,
0x08bfeed544ceea77,
0xbaa4780a33cd0735,
0xe7a67e68de5f3346,
0x1000004e7ee7e9de,
0x89809c44b3f6ff11,
0x1420b1fd47da13f7,
0x2110ff5800341002,
0xaf0499134079170e,
0xa815831c442ea987,
0xa185d1b932c01f2b,
0xfd750039b7e1a219,
0x75f76bca41138c9a,
0x648a7ff72976bfd3,
0x06232de417fd4e5e,
0x189e80c9e336ce04,
0xc3ff1865a6fe0275,
0x1101cfeed0f140d9,
0x04e7196e0f81effe,
0xa20c7ef988dcff09,
0x624b004b6179ed90,
0x9931d8fb4017059e,
0xb5bfa3fe8cefafef,
0x8008ccee0723b459,
0xb88f790871efa7ef,
0xe8ee38abf70b2882,
0xee971ced0f748c67,
0x9210c093ee442211,
0xa127e2e873c1dbce,
0xefea03b53197c2c4,
0x30fc309441739b00,
0x000200987c3260d6,
0xeb3bff7d32e77ff1,
0x81e87711f3b33883,
0x377a3b9e01ba1497,
0xcd848d9d3331997d,
0xe667bc4ddb9b2021,
0xaec6e32c57fe815a,
0xf5b196be304ff9dc,
0x44dbf5979f7ff34c,
0x6758f8877ffc9343,
0xaece90de9c57113b,
0x39dc7339b0a922b5,
0xeb0ce53f41311197,
0x32a610618f5568f8,
0x51b13eff7004e5b0,
0xb3e04775e111f77e,
0x51fcbddd38a59f43,
0x17eaffedd900907f,
0x188a5d2c6f42e26f,
0xfe16df1f961132e0,
0x8fb90f7eee571d0c,
0x7615deff0b218c00,
0xf21ceffed511f912,
0xa56f63afd5d9eddc,
0xe9629b19ffc01bcf,
0x6ac9cfffcc88f108,
0xfa21360f773bfe7e,
0x0bff40dbd956236f,
0xf7779dad51bd809c,
0x827621ad5fdf5f32,
0xfeff8c3748ab93ee,
0xbb5cbd75998320cc,
0xf88c77eab4af7fcd,
0xff70df78d801a77b,
0x10cee5eb27bf4dd4,
0xfbd5fb87b3b3b72a,
0x0d8dfb0616bfc428,
0x77f10a0955f19311,
0x9d3fd18b958a277e,
0xfd4e2140ca00bd35,
0xa9021f37737a24ee,
0xda877208ff403a85,
0x9df715c0ac1d19e4,
0x3098be388eb37f7f,
0x7ec0cbcf50b6f879,
0xad2fc5318b6f732d,
0xf1171f0cdced5fef,
0xd57415ace26dae82,
0xfdfcf66f8e3d25d8,
0xb238cd2d1411fbb0,
0xd2b75798efcef6e8,
0xefef27944d6eb8ba,
0xaffff6947f24e781,
0x117c6711794ab0ee,
0xb22debf7db825679,
0xe111a889aba91bba,
0xc45c0f8a3db97705,
0xb7288ef7de7fef10,
0xfafc88495fcf7ccd,
0xef6db339bbefe4a1,
0xefffee8dfe8a05a6,
0xb87c3097e38e8631,
0x0c3b686f577fa0ff,
0xddaff2e4abb67968,
0xf56abf3d53dfdf31,
0x86ca974e4410ef81,
0x0b7f13387f8e6ca9,
0x464672890738fecd,
0x1f28f4ea60723099,
0x8f9636c24d288f2e,
0x06eee44fcf22fb44,
0x4cf44b6d9a57c9f8,
0x76bc6f39563bb3c0,
0xf78c0dd493feaba1,
0x6c052f4d0062cf50,
0x7a91f079d9e32889,
0x1f7df6fd329772ff,
0x1c493153bcfb2360,
0x335527219c610bf1,
0x46fe6bf1f2121738,
0x380a77b5d3bffc60,
0x3c205748c9f8055f,
0x6819553faddb8df5,
0xa99aee2aa77f0f7f,
0x26134b38aefb33dd,
0xc49e7782b2eebb0b,
0xf7a0dce3ef417006,
0x175053218ffc5938,
0xfcbd1d63c33a692e,
0x4672c439e71faafc,
0x331a3dde9cafcef9,
0x352ce336faba9981,
0x96d83e3972eef49d,
0x927e7f590f6711b9,
0xa1d5354f0e661417,
0xf04c7f22aa8c17d2,
0x27c40c8e92bcbafc,
0x4d2d1313c9bb3191,
0x239bdfe5bd4432f6,
0x8b4fbf0d33098888,
0x2c16fa53f3a929cc,
0x223a67e577f62e57,
0xb3b40cdf60f8f0ab,
0xd533b3ce21ce857f,
0xcfedb8238e80bb15,
0x7362ea370ff37d5e,
0x8b33f0da14efbc80,
0x5dbdb985dc918af7,
0xe7b7657f81e2fefd,
0xb5e8bb2cd36a5664,
0xed99d88ac710a99d,
0x8eaf29cdabfe19bf,
0xf010926f01ccfef8,
0x201fab5116f30b94,
0x7f2233dfc372e911,
0xad99d15e9d2c03ec,
0x53914a7e4ee4f714,
0x0a11000e5067023a,
0x7e1029c9fcf5a8d4,
0x229b869f12bad083,
0x40fa3ee821925cce,
0x5d632b757c939228,
0x39d962cd37f711f2,
0x207f27c501f51a52,
0x2e231a24d4277a17,
0xc7dc62f8e39eef71,
0x6ca46add316f5175,
0xe3264ba3af88b7f5,
0x7b7458f7dfd52281,
0x2fb3e04570701f64,
0x20fcd89bb117bd8f,
0xef4dfe0c00ff1f6e,
0x641a50ff6a0ad01f,
0xeeddddfef39f5d9e,
0x2331d47e591c84da,
0x48433d772f7e5500,
0xc5ce98bb3bbbb3ff,
0x180a1002fcac4313,
0xa8d80d7f481b162f,
0xfe9c7750f3669479,
0x000f277291e48026,
0x107758c9115424b6,
0xdee3d41e0c4dc95f,
0x487f3bf9e02ddfef,
0xa0f614d60850ccb5,
0x5cd0735f0376fce8,
0xbfefc98fda0009e5,
0x036f6cee1c6c1808,
0xffd977e2b108cbd0,
0x8da223e1d995977f,
0xd5062cdf1204c83e,
0x71fcf77f38002bcc,
0xa185b030384a8a32,
0x848745f100235137,
0x764fd4cf3419ec5c,
0x17ca8428899337fe,
0x20329306000098ab,
0x47f570fcd6d5b824,
0xcfdd7f9c0efb7f8c,
0xe007113868ef04b4,
0xc32eb36b1b772121,
0x82d987b88721bd1e,
0x11ec99d53015b0ce,
0xf418fdfd58477f17,
0x340aa33b7554fefc,
0x0db019fa0d324ff2,
0x84d0c12b95865c82,
0xdcacd7f4391eda88,
0xc5d7fb60989c50d9,
0x24049fc078ff7d19,
0xcd4f484c22feb1ed,
0x5f57de0dd1b13174,
0x0c0a2a96e5b13c40,
0x0c0167ee20f3129e,
0x34186f80eeb150ee,
0x96223758d8448e00,
0x4eb32731dd898f74,
0x5de210ac89c8c89e,
0xba89f63e5f6af7b7,
0xc9b29210180bacfc,
0xa772a855f77e27f1,
0x51633357b9cbda1e,
0x3f872572be9c19cc,
0xfded90bdbcba442a,
0x29b84053317ff5d5,
0x17debcdb7c815cfa,
0x963bc2bfd8ba9771,
0x62c81133100230cb,
0x36220bc113b1f8ac,
0xd8215151603ff6fc,
0x703f747b8575fcdd,
0x73508b9c5c68c9ea,
0x7b2c8dcb1c48037a,
0x56118cfd917fffcd,
0x8064ffcdfef5ff67,
0x90887ffc10af1df7,
0x107ce892ce7fcef3,
0xbaffbc81c08cff02,
0x51256279bf9b600e,
0xd821a8af6804bb7b,
0x7058f2f9f769f3c3,
0x7e649637d8fe5eef,
0xf96c2fe37339002b,
0xdd4d6fa8a840a7d9,
0x3004ff42f5881fdf,
0x9e77fcaca70d35d0,
0x9c87f4dec82f342d,
0xcfe81db3cddf3fef,
0x9802cc5ff793eaf8,
0xf947f79fc00bafb9,
0xddbf11f15f770595,
0x704fb40508019087,
0x8fef3ffb3889b010,
0x1710d1eef8509afe,
0x87082eecee6acb1d,
0x6882390c29f9f6f7,
0xabbff42bb7d9ddff,
0x81bbffef09428468,
0xba6cd8a87d6b81fe,
0x48d5102befda700a,
0x800fb37d72b18801,
0xe5bd6110b65abeec,
0xd008fa1eb24117a3,
0xcfd73bb0101130d9,
0x3145133ca7d37000,
0x137d0ee0e091557b,
0x744d1dcdc1119f06,
0xa4d65de34ee96084,
0xb00bef363e71a131,
0x2fdbd06f013a7f90,
0x0024914390887ff7,
0xf66f3203790d7a87,
0x03abcf75bdfbd6d8,
0x78ca300715a48933,
0x750b2b3bbccaf97f,
0xac357cc2c7f7e8ae,
0x597abfe0440f0536,
0x7e5f62e03b385145,
0x1f6e4fecee7502cf,
0x10c7853e9e19c311,
0x779b1aed899a9019,
0x1000adcb4100c80d,
0x7e530881e66fffee,
0x4134f61b60378011,
0x77f589fecdd91bff,
0x0180bfdd3302ca9b,
0x7fb6db5496c6ff77,
0x78427e9d97d1673f,
0xdb7ff3dcd9c7dc08,
0x1fb1ffef388829b9,
0xe67e5b5508fdfbbf,
0x319aa3a2b0057f35,
0xb7eb4cc18bbfaefd,
0xf5ff1dd9718a1031,
0x102e9cff46c73948,
0xf836d7ef09b7fccd,
0xd19c9a2fe7e1aebb,
0xde9fe5027f217931,
0x2bd8dc0b5d206081,
0xb8e5cab8bf19dc09,
0x761a4d51908af8e9,
0xbaed4619f263d12a,
0x46cde84336466a2b,
0x2743fc649ca5d415,
0xa28063e6beb1ff99,
0x761e2be0b76ff37d,
0x17882ce4ae64e300,
0x621079dc98a10825,
0xfffec3c0b16c142d,
0xfe8f006a7fff63d5,
0x289736480941dc0a,
0xf94adf86581bff63,
0xe3a855e87ee21414,
0x65eff6fb08be8997,
0x692791b69f2513c8,
0x2e83e66ebda1ef21,
0x0d9904223fee5da8,
0x86884e087d38fd92,
0xd89001ffcb7f40ae,
0xb846b804c6413a41,
0xfd99f61950c8e13a,
0x98c91fe51ad839b9,
0xf531bc0defbf4c49,
0xdef76b9cecd4122f,
0xd719ddb071915c9e,
0xe0adb80b17fecadc,
0x216a6b5d88903120,
0x8b45f99dc7ea6f15,
0x49917e82ba197edf,
0x68e511d1bdbf26e5,
0xdee259e06ec01e4e,
0x5dd1df5fd12b1f30,
0xcfb2f50f10ef98b8,
0xb8883721de4ca684,
0xbdeffb7de7f03cef,
0x732878809e30a68c,
0x7fac2b27bbe64f77,
0xde33afa834e3dc02,
0xbef9a4d7fbd4d238,
0x02990ff9b9e29eb8,
0xf4fe6fcb4388d40f,
0xb3cb313b37ec2ed8,
0xa36538ff08515a01,
0xf9292c8172fc4efd,
0xe45ffc5d6c69a020,
0xb334efd7bbb7ab73,
0x6796f1c500e2ffa3,
0x3fb4ded8fc549dcd,
0xdee52efbe0d6161e,
0xfeccf238bcf71efb,
0x083b5333dd0bb3a4,
0x90c8de05949f0d8e,
0xed311bac1fdb3f8c,
0xd5078631029a1024,
0x2088c81caf09b760,
0x281a8b79ef71732b,
0x38cb7fef20ddf584,
0x29bb7755fe197910,
0x1d09eb37d06880b0,
0x64112ef2c4822882,
0xf951eaaa44ac3a63,
0x0000000000000000,
0x0000000000000000,
0x0000000000000000,
0x0000000000000000,
0x0000000000000000,
0x0000000000000000,
0x0000000000000000,
0x0000000000000000,
0x0000000000000000,
0x0000000000000000,
0x0000000000000000,
0x0000000000000000,
0x0000000000000000,
0x0000000000000000,
0x0000000000000000,
0x0000000000000000,
0x0000000000000000,
0x0000000000000000,
0x0000000000000000,
0x0000000000000000,
0x0000000000000000,
0x0000000000000000,
0x0000000000000000,
0x0000000000000000,
0x0000000000000000,
0x0000000000000000,
0x0000000000000000,
0x0000000000000000,
0x0000000000000000,
0x0000000000000000,
0x0000000000000000,
0x0000000000000000,
0x0000000000000000,
0x0000000000000000,
0x0000000000000000,
0x0000000000000000,
0x0000000000000000,
0x0000000000000000,
0x0000000000000000,
0x0000000000000000,
0x0000000000000000,
0x0000000000000000,
0x0000000000000000,
0x0000000000000000,
0x0000000000000000,
0x0000000000000000,
0x0000000000000000,
0x0000000000000000,
0x0000000000000000,
0x0000000000000000,
0x0000000000000000,
0x0000000000000000,
0x0000000000000000,
0x0000000000000000,
0x0000000000000000,
0x0000000000000000,
0x0000000000000000,
0x0000000000000000,
0x0000000000000000,
0x0000000000000000,
0x0000000000000000,
0x0000000000000000,
0x0000000000000000,
0x0000000000000000,
0x0000000000000000,
0x0000000000000000,
0x0000000000000000,
0x0000000000000000,
0x0000000000000000,
0x0000000000000000,
0x0000000000000000,
0x0000000000000000,
0x0000000000000000,
0x0000000000000000,
0x0000000000000000,
0x0000000000000000,
0x0000000000000000,
0x0000000000000000,
0x0000000000000000,
0x0000000000000000,
0x0000000000000000,
0x0000000000000000,
0x0000000000000000,
0x0000000000000000,
0x0000000000000000,
0x0000000000000000,
0x0000000000000000,
0x0000000000000000,
0x0000000000000000,
0x0000000000000000,
0x0000000000000000,
0x0000000000000000,
0x0000000000000000,
0x0000000000000000,
0x0000000000000000,
0x0000000000000000,
0x0000000000000000,
0x0000000000000000,
0x0000000000000000,
0x0000000000000000,
0x0000000000000000,
0x0000000000000000,
0x0000000000000000,
0x0000000000000000,
0x0000000000000000,
0x0000000000000000,
0x0000000000000000,
0x0000000000000000,
0x0000000000000000,
0x0000000000000000,
0x0000000000000000,
0x0000000000000000,
0x0000000000000000,
0x0000000000000000,
0x0000000000000000,
0x0000000000000000,
0x0000000000000000,
0x0000000000000000,
0x0000000000000000,
0x0000000000000000,
0x0000000000000000,
0x0000000000000000,
0x0000000000000000,
0x0000000000000000,
0x0000000000000000,
0x0000000000000000,
0x0000000000000000,
0x0000000000000000,
0x0000000000000000,
0x0000000000000000,
0x0000000000000000,
0x0000000000000000,
0x0000000000000000,
0x0000000000000000,
0x0000000000000000,
0x0000000000000000,
0x0000000000000000,
0x0000000000000000,
0x0000000000000000,
0x0000000000000000,
0x0000000000000000,
0x0000000000000000,
0x0000000000000000,
0x0000000000000000,
0x0000000000000000,
0x0000000000000000,
0x0000000000000000,
0x0000000000000000,
0x0000000000000000,
0x0000000000000000,
0x0000000000000000,
0x0000000000000000,
0x0000000000000000,
0x0000000000000000,
0x0000000000000000,
0x0000000000000000,
0x0000000000000000,
0x0000000000000000,
0x0000000000000000,
0x0000000000000000,
0x0000000000000000,
0x0000000000000000,
0x0000000000000000,
0x0000000000000000,
0x0000000000000000,
0x0000000000000000,
0x0000000000000000,
0x0000000000000000,
0x0000000000000000,
0x0000000000000000,
0x0000000000000000,
0x0000000000000000,
0x0000000000000000,
0x0000000000000000,
0x0000000000000000,
0x0000000000000000,
0x0000000000000000,
0x0000000000000000,
0x0000000000000000,
0x0000000000000000,
0x0000000000000000,
0x0000000000000000,
0x0000000000000000,
0x0000000000000000,
0x0000000000000000,
0x0000000000000000,
0x0000000000000000,
0x0000000000000000,
0x0000000000000000,
0x0000000000000000,
0x0000000000000000,
0x0000000000000000,
0x0000000000000000,
0x0000000000000000,
0x0000000000000000,
0x0000000000000000,
0x0000000000000000,
0x0000000000000000,
0x0000000000000000,
0x0000000000000000,
0x0000000000000000,
0x0000000000000000,
0x0000000000000000,
0x0000000000000000,
0x0000000000000000,
0x0000000000000000,
0x0000000000000000,
0x0000000000000000,
0x0000000000000000,
0x0000000000000000,
0x0000000000000000,
0x0000000000000000,
0x0000000000000000,
0x0000000000000000,
0x0000000000000000,
0x0000000000000000,
0x0000000000000000,
0x0000000000000000,
0x0000000000000000,
0x0000000000000000,
0x0000000000000000,
0x0000000000000000,
0x0000000000000000,
0x0000000000000000,
0x0000000000000000,
0x0000000000000000,
0x0000000000000000,
0x0000000000000000,
0x0000000000000000,
0x0000000000000000,
0x0000000000000000,
0x0000000000000000,
0x0000000000000000,
0x0000000000000000,
0x0000000000000000,
0x0000000000000000,
0x0000000000000000,
0x0000000000000000,
0x0000000000000000,
0x0000000000000000,
0x0000000000000000,
0x0000000000000000,
0x0000000000000000,
0x0000000000000000,
0x0000000000000000,
0x0000000000000000,
0x0000000000000000,
0x0000000000000000,
0x0000000000000000,
0x0000000000000000,
0x0000000000000000,
0x0000000000000000,
0x0000000000000000,
0x0000000000000000,
0x0000000000000000,
0x0000000000000000,
0x0000000000000000,
0x0000000000000000,
0x0000000000000000,
0x0000000000000000,
0x0000000000000000,
0x0000000000000000,
0x0000000000000000,
0x0000000000000000,
0x0000000000000000,
0x0000000000000000,
0x0000000000000000,
0x0000000000000000,
0x0000000000000000,
0x0000000000000000,
0x0000000000000000,
0x0000000000000000,
0x0000000000000000,
0x0000000000000000,
0x0000000000000000,
0x0000000000000000,
0x0000000000000000,
0x0000000000000000,
0x0000000000000000,
0x0000000000000000,
0x0000000000000000,
0x0000000000000000,
0x0000000000000000,
0x0000000000000000,
0x0000000000000000,
0x0000000000000000,
0x0000000000000000,
0x0000000000000000,
0x0000000000000000,
0x0000000000000000,
0x0000000000000000,
0x0000000000000000,
0x0000000000000000,
0xffa2ff7efe5cff84,
0xffb80060fdbd0169,
0x0140feca00d2ff34,
0xfffa01e2fffa0072,
0x01a6ff69ff32ffb0,
0xfe61fdf700e50190,
0x02bdff85febe00b4,
0xffcd02d600870005,
0x0000000000000000,
0x0000000000000000,
0x0000000000000000,
0x0000000000000000,
0x0000000000000000,
0x0000000000000000,
0x0000000000000000,
0x0000000000000000,
0x0000000000000000,
0x0000000000000000,
0x0000000000000000,
0x0000000000000000,
0x0000000000000000,
0x0000000000000000,
0x0000000000000000,
0x0000000000000000,
0x0000000000000000,
0x0000000000000000,
0x0000000000000000,
0x0000000000000000,
0x0000000000000000,
0x0000000000000000,
0x0000000000000000,
0x0000000000000000,
0x0000000000000000,
0x0000000000000000,
0x0000000000000000,
0x0000000000000000,
0x0000000000000000,
0x0000000000000000,
0x0000000000000000,
0x0000000000000000,
0x0000000000000000,
0x0000000000000000,
0x0000000000000000,
0x0000000000000000,
0x0000000000000000,
0x0000000000000000,
0x0000000000000000,
0x0000000000000000,
0x0000000000000000,
0x0000000000000000,
0x0000000000000000,
0x0000000000000000,
0x0000000000000000,
0x0000000000000000,
0x0000000000000000,
0x0000000000000000,
0x0000000000000000,
0x0000000000000000,
0x0000000000000000,
0x0000000000000000,
0x0000000000000000,
0x0000000000000000,
0x0000000000000000,
0x0000000000000000,
0x008837ff200c9097,
0xfc78453ff7fbc6a9,
0x8080d755f4c3b8a3,
0x77e3de6ee9f7515c,
0x2153123b0e74a927,
0xe32b9ee9cb3a4ea6,
0x3004a1005aff631c,
0x2707efa46de35fba,
0x9b09133ae793e909,
0x850ab2a12ecc35b0,
0x107922c73443208a,
0x581c4605fcf77730,
0x990c744c049f8883,
0x720c2219fffdd001,
0x64958fff3077d108,
0xb400abddd7771ffe,
0x60304fee380945f7,
0xc633fffe744f8d27,
0xf2caf7870d4d4cc7,
0x39d445dfe5f91fba,
0x70df48c81118f029,
0x3829b4009ff19190,
0x0fe6ac44fd65ceaf,
0x1f38089a82e75873,
0xa623bff9f81c3f97,
0x720d60044e8c17d3,
0xea09d8ffe08ec4c6,
0x18c55ee5588e08d3,
0x84db89f32008de87,
0x0000d05908480e6f,
0x323d7d6ac8360dbb,
0xd084ac85fb3e5102,
0x4d1a40af7bbf1177,
0x78ef2673b0b2f3ca,
0x517fd63dfa1d4eb6,
0x7ec511c44110ff2b,
0x2ffdb084f81197e8,
0x8c0080e32319df72,
0x264f8132fc38f6d6,
0x40484e9ffffef018,
0x64001f3971000fa0,
0x1e02edbd2110f7d0,
0xf3b1f05e416f1fe7,
0x88b9f8fafefb039e,
0xbee7f6ff484f1a08,
0xce82ed50ffac7dfb,
0xcff98bf564308c7e,
0xb17ef4730499609a,
0x61e6f3f39c01a1bf,
0xcc77a00c1cda11be,
0xfedb289d0a1af450,
0xca1a7fb500e71b7f,
0x7e42cfb94efbfbbd,
0x77344f47020cefeb,
0x8008fb4868801001,
0xbb5f7577fcf99f61,
0xc27fcff8729427fb,
0x92c0ee4690d9cf3b,
0x7ee07773ff0d4400,
0x964d2278b00efeea,
0x4610e6a05c529cc3,
0x5e95880e20c95ffb,
0x423cc9f9108c651f,
0x069874de3fcd6ebb,
0xbb01d7fff7c8e931,
0x201d11011ff28178,
0x7f359434ed2327bc,
0x089088e61d0694cd,
0xefc80093fffcbf3c,
0x6eeb28580aef9123,
0x3989d90145e300b7,
0x01d98b9a92b95309,
0xcfafe88cacc4e0f2,
0xb95f13f19ba02a8f,
0x000c40f2fec039cd,
0x588acadfde555bd5,
0xf117aefcbdcd7902,
0x2586ef19ffff6d89,
0xa084215df33d8825,
0x3e97724089016ed7,
0xad0c90b9f13e8afe,
0x5ed000cb2105d08c,
0x5036901ba9b03ff3,
0x6549eeecf6981142,
0x91002a2165c47e20,
0xaecefb5decd3f809,
0x842027397dff10e3,
0x9080ffff7fd130d6,
0x99aec337603f6d80,
0x2571cff40110f9e6,
0x011a19e0e73f50cd,
0xfb9c42f3fdfd1ff5,
0x916fd40518bbd69c,
0x80107ab687f38a02,
0xdefacd75274ba019,
0x10ccdfe3976188ba,
0x308f00400106d814,
0x23b61f2d6197319b,
0xdf9b0033bde3cc30,
0x9c7e403413ff9770,
0x813f25ea1997040d,
0x7577f13003072473,
0x228d9b9c31038817,
0xb971c7f1079b67bc,
0x9bf7008800841398,
0x80c921d3806fd4d6,
0x663277d135794d3e,
0x2a318022f086805f,
0x0452efd8752899f9,
0x9a7df1dc95c1ef20,
0x50c1fbcb3b4c60b6,
0xb0ccf84d0c4b4128,
0xaf6ddf0200154185,
0xe7defff3733dcd3f,
0x5732000beeda0918,
0xa905f85defffdbfd,
0xdc4840728d19e77d,
0xd57c9bf2689f7ad9,
0xfa03a5cd04e919ff,
0x459694e46fb9dbbf,
0x09d58df9988906bf,
0x7f715ebe214f31ad,
0xd33bfcf3d23318d6,
0xb6c7ffbf9cdf2221,
0x8015eaa931b5983f,
0xfaebf39a7300bb66,
0x91a87656018d13a2,
0xb9e5fd034000811c,
0x1b4b22f190c9006f,
0x88ea04d37a00563d,
0xa81b23205d9f99b0,
0x16b38ece90019e07,
0x274115042e870b37,
0x4b6ef5ce9b22d21e,
0x9758284e57c090bf,
0xe2f7c7c91ee04cf8,
0x99907c3a05ff5d5e,
0xfb600bfc203ffc4f,
0x7f351282c0097b1c,
0xcfa7fd18e2cf2d33,
0xc99afe43792a586e,
0xfdbe0965e4f09b41,
0xd59a7de00c00c879,
0xc523dc35923efbb1,
0x2c200798dd8614cc,
0xcd1700496ee0ee0a,
0x81b1c33c88b9901c,
0x9a1b271ce9a31c03,
0x0196cec002675e24,
0x7ef0e057ce0a0210,
0xe26efdee19ee22a9,
0x9811a800558ccd96,
0xff665100190e7c7d,
0x2182f0cc7ebe1116,
0xb322301525e6fe71,
0x0080e60260880080,
0x7120bf61644cb10d,
0x2da71941caca5bc6,
0x0c9104e150f9977e,
0xdde3e5466671db40,
0xbc3f23735de61235,
0x47e40000b7febd8a,
0x0bd3c990fba42d08,
0x8036043f2116dbac,
0xef31236845cb5d6a,
0x119b01004b3590d8,
0x81d63b539c5a00db,
0x3f0f143a2ec0ba47,
0xa51e1120ed258986,
0xe000346ea5dba681,
0x31097cda53972714,
0x5f641f21df920118,
0x5df6550118cec226,
0x51ee288ee3c6e719,
0xcf77bf0362c83e44,
0x27ddf14849e865c5,
0x2ed07adfbf127a14,
0x0264428f4f750c8e,
0x8b21c6e88c01748a,
0x04be758e7e5e9518,
0xc0368380edccffef,
0x3221681ab180846d,
0x70d0c998459c667a,
0x00d383db39d951fe,
0x66b0e04400b7ab85,
0x336e193b74e22ef0,
0x4b8b0c26804464ae,
0x80ee0c0827102115,
0x0842c264080554c0,
0x804644cfc1bc1188,
0x405677cf1978e460,
0x640e239e11ce6d6a,
0x69aed6db7c021101,
0xfc00ad7f77f5c1d9,
0x40d0ccee98777f05,
0x9cbfb80ee301ecd1,
0x005c0677a0a083b9,
0xa200084295f56704,
0x00d788041d816ed5,
0x976e107d55181e8b,
0x2ffa104ac03310d9,
0x56f547f00113091c,
0x609316ef0090737f,
0x0ad9c94f777f5fb0,
0x84b6bf21c34ac2dd,
0x372301a90f910000,
0xee5af5bf4906b56c,
0xbfffff800ffeab00,
0xd510568920067600,
0x1a87378810af24d5,
0x7e2117f185174989,
0xdbfe55f5271de880,
0x0f64a806c1fe1f25,
0x86a80a4501f28a6c,
0x2c912707ef092cef,
0xe0421131b0bb2fe0,
0x33f79a84ff0d4591,
0x66efd3c805905777,
0x71ccba009cb6e226,
0x1caa801a2844301f,
0x32a31039ee8908ee,
0x6010612f480c28ff,
0xe115e501209d3df6,
0x1852c008c7b1c284,
0x0f0010041c4481ef,
0x01460b4171ef8886,
0x90fce7da60c004b0,
0xb08c955000089540,
0xb880b045b0493000,
0xa01578f74226f6f5,
0xdd0dd90866291986,
0x70c18303b900adc8,
0x639d02f32191cb72,
0xbe72dfbe7143a537,
0x5400ddca60ff9808,
0x7683723b50f4167b,
0x40ff980080f39200,
0x30430080e7e1b018,
0x84f72209ccd7a902,
0x555884e2bf4462ce,
0xdc6efab29c874007,
0xd6d6c008bc895060,
0x31f7201ba2262e60,
0x4f88a90af241bd1d,
0x29aeccfe2bca70f1,
0xd1013083230f0001,
0x70f03a1acc47e843,
0xa677dfee7dd70aed,
0xa90b063fa0055af4,
0x9d9875ff602153b6,
0x3acbf108cc08266e,
0x3ffc1800006f66d6,
0x740408c8588ee503,
0xa2e204c08cbeaa8d,
0xa13892881cb20400,
0x81b4e597c3980885,
0xbfb91aec8f3ff770,
0x31072799bffe861a,
0xfb93b609a6f47bd2,
0x7497fdfcd5ff3208,
0xffff2112beefffcc,
0xffa3b9180047caba,
0x3cdb5fd0c546fcf7,
0xf1f79fde8b381399,
0x6989dffe2c5edbb2,
0xf797fbd7efeae0eb,
0x89006037dff489e8,
0x9cdfdcca83725b32,
0x3117b9fd89ff7103,
0xec8d6e4b64bd7f9a,
0xc0057cd9adf2e8a9,
0x2fde7137af2d0517,
0xc6ce0099fd0fccae,
0xecd8b1f2189272b2,
0xd9fbd05468bcbd0f,
0xeac6fba540cd0152,
0x10136375bd1ed8fa,
0x2b8cffff6a88fa13,
0xb17d739259ff9007,
0xab339bef7d58e580,
0x9f1761e3f89fdd9e,
0xd6ebffedbf9dd971,
0x9110fddf77a4f871,
0x73daf0fafdf91efb,
0x2368d6a19e4edaaf,
0xd9d8ff7ffff702a9,
0xddfcab7d1e4aa011,
0x756f9bf912ccfbfc,
0x1805318e4c129937,
0x4df21dccac8ef08f,
0x8f76f939fdf3cfab,
0x4731edeffffe5737,
0x45773fa1795ba881,
0xffeffdb4caff039d,
0x40179bafa0e46998,
0x13f045ff2bbebfff,
0xeddb0d80f2e843fc,
0x87f9053f1073b0f8,
0x4b02bd1af391a818,
0x663a9817ec9e773c,
0xae85857db3a2edff,
0xbef9fdf88f0d8c24,
0x630de04b0bdc9080,
0x6716884bdc3fd7c5,
0xff530f608456db54,
0xe7f6ffff03ffcfb0,
0xd333201dcfbafdff,
0xbd3b9dfeff2e4667,
0x076812bf0009eefd,
0xc735d2b4fdad3e7e,
0xffaf215d4ffa5ff5,
0x67f2a2a4a1ed6519,
0x67c349f58c2e0fa4,
0xff87ffb934139f8a,
0xd4d7affed16aba88,
0x00c7a4638ed4137c,
0xc9d5e9da9e1df811,
0xfb7bffff330122ae,
0xb1d1fb409f8dc3a9,
0x56eaf125f935f132,
0x5d1bdae7cf59fffc,
0x810f5d31fe9bf97b,
0xb35b232a27ea3bfd,
0x50e2a8a74a98828c,
0x4ec9080d7367b2fc,
0x66c93ffdd91a1143,
0x6fc3a8c70217587f,
0xc0f0feddd1987e10,
0xffe1cbfbac0ceef6,
0x39dc84f4607dfeff,
0xab3ff66bdc88d755,
0x8fffcdf6082acc57,
0x5b36d87b5dd9c909,
0xe6eefbd6cf4c0616,
0x9bed5770d0313945,
0x7efa9137902ded41,
0x73ff9232ebfd8ff6,
0xcb15b0f8215bba6a,
0x807f7a05dea0fffc,
0xb8749cb5f3b3954f,
0x8a7ebff9761cda11,
0x80af84fef3f025ce,
0xc33e40fb7fb3fde0,
0x8e92680279257f8c,
0xf90031256fdd7b9f,
0xf352284d10d7bdf8,
0x3d5a9a77f7b7bee9,
0xd3636e30c4005f45,
0x9ecfa846e627f81c,
0x0b9e59f200cf62ee,
0x88bf9fffff62f1c7,
0xed01dcf25778efd1,
0x9e65004d9104945e,
0x539ab0f0ff38f901,
0xeff1402d5f14fff0,
0x5f77d9e911f3797b,
0x562a52fd9d35fefd,
0xbfdc8bf405cb0c29,
0xbf00ea21ff2fb91c,
0xdfdbfc8113b5f201,
0xdfdc13ff00ce7021,
0x59dbb45fc1da6c13,
0xeff76f123a3df6f0,
0x39b3408f9e0bb598,
0xa1bc7c7d7f0690ff,
0xc6bd971345f9bda5,
0xb7d37ffa11907d34,
0x73b41624d8b8abd1,
0x9c17fa09a2a6fd08,
0xebf3a691f17abfe4,
0x38fd12122fb919fe,
0x00cabbf1fef3fa7a,
0x9577d377ff38ccfd,
0xeffb18f791f50a34,
0xc0ff51f58244bfde,
0x1fb88a37be95fbe7,
0x120ba981b7467bb2,
0xf7226abe001ff081,
0xe8087cf5dc2db08b,
0x6dd91630b9fa3119,
0xe000bf90d03acf6a,
0xd901f1712a2777ff,
0x7d30fcf589885fef,
0xe2c7d98c007aaefd,
0x629d9a2ad1f5003c,
0x70516bfe04332b1f,
0xb0ea1b0231c31673,
0x02ef4125735b03d9,
0x080d0272bbf9d5ab,
0x5005a2f5417765bb,
0x76fc3aff6e83375c,
0xb76609f100ceab9d,
0xed52c9148bef065f,
0x7872e34b707d8172,
0x6a09857fa41ff633,
0x2cc022033f396f57,
0xa27f020bb30d2079,
0x760c6a8b1632605f,
0x6a7527914782176e,
0x79b2b4bf16d13ba9,
0x1f117ff702b23bd1,
0x320f264e19938fc5,
0x43091ff5c11f01cb,
0xddeee46f9642ac2b,
0x167ed8ccf23f7b00,
0x4d749bce63e01e6c,
0xa09d9301b3f045a1,
0x0805505f008160b8,
0x7a715e47eb610219,
0x067fbb2f637b666e,
0x6741f068f093832f,
0x7c6cc51fb6417b77,
0xd317271eee8ba133,
0x608b36063f6a59b3,
0xce0180bba58f8061,
0x87196d7ee73b27f3,
0x033ac18930be82c6,
0x807ed5dd39bd3510,
0x347a8dac722d76ff,
0x0c33103fecfb9571,
0x3bda8ddec2a94298,
0x80abc2b3f3b06aef,
0xe765b65f6f11f105,
0xff7800cb264735d5,
0x713811e111090119,
0x29ee666c580a77be,
0x3d2e07f1738d5340,
0x701f4308fbff88ce,
0xfa2d99807df77248,
0x329d72359ea2d8de,
0xf470340ac8611b33,
0x4fba2933768cd8ef,
0x7bbf14f644bee10e,
0xb26db77d209d13ed,
0x70bf6189a24e72ce,
0x3e7d0cb1430a0e8b,
0x58ffd677720c303f,
0xc589242fe74e8017,
0x001958a08fc0e106,
0x0ebd0d144e7afbe5,
0xdb7f801e82ec48cc,
0xd09d10c323bb5a7d,
0xf374ba511fce7672,
0x4f734ceee0a3cb17,
0xb25f6519098ba6c9,
0x45efa6e0683af755,
0x277c953ab62e8433,
0xf2ade66b42df6885,
0xc3e0019501761edb,
0x0231e3b2eeb7a845,
0x8304621359baa830,
0x2d4b6e38c6fd36a0,
0xf8fbcfbd4ee3f272,
0xdfb94f236bb808da,
0x9c45df41e732833e,
0x5b576b58de3b7e3a,
0x112f9d7c173d6884,
0x67aeb0a34984b30b,
0xdc5bbf19f7ef1433,
0x8ce0462c35090825,
0x7409eace5fe4abb0,
0x711ce281398f383d,
0x5f4b9c605475f2df,
0x490efc99214b405c,
0x582c7b0710010177,
0x212adf336bec77be,
0xd5875d31d7afc77b,
0xa0929197213fc8de,
0x1defcd4be210244c,
0xeb23b5f590ddd8c3,
0xa496a565c771eff6,
0x96aad821dd313c5d,
0x98d46763900363ba,
0xdbde119c87045215,
0x9ccd559c1dc0ddd7,
0xfccd48665050efea,
0xcb9de916d9c95401,
0xeea69a5729005f21,
0xa84178b8f9a68e29,
0x51ea6bd0965d5101,
0x2ac3def85f25c730,
0x1465f0323f8a55be,
0x276fff9950029249,
0xd399deeba3b9a066,
0x4e63ac189389f370,
0xbae7460d5debfebf,
0x002d21f7b7087737,
0x21805399d8739c91,
0x061035abd6a6766a,
0xe223084adebb616f,
0xfb39e824088b75ba,
0x8806c7de341a2ff2,
0x1440677b770bcff8,
0xc5efc16098fffb73,
0x120cc036f230a87a,
0xec287f7fc48e0875,
0x3b97a12e8ee828e7,
0x000d33810462223e,
0x0d09ffe997bad632,
0x05010ef38f79cca0,
0x13d8dc48623b140a,
0x2ccee350a903773e,
0x86ecc8ce8ff5b2b6,
0x526e300522648208,
0xe777d231802e710f,
0xacd8d6006ed73e41,
0x442077f7fcbf810e,
0xa580c9de8784df70,
0x403670274de755e8,
0xa865c261124d46ba,
0xb929e13c422d8777,
0x9991d5f247e1ffa9,
0xb8814ef17ff946b0,
0xe8802200cef5c400,
0x7f71d110596314b4,
0x392042a28502c84c,
0x1fc8f1ccfff1ddcc,
0x27e028480e1e0523,
0x7f94a3a4508b3437,
0x2329bb019ffc40b9,
0x0c8ccb9086c2b170,
0xf9dc51356ce50e69,
0x2b088b30fec188c8,
0x02eae2bff75d6a05,
0xc995665be8ff7104,
0x0ea6be01ef6c732d,
0xbea7af9efbbe7d6e,
0xd21f448008310908,
0xf47300d9501f9e3a,
0x6eeb8865b7fd8873,
0x50e65005c59a1df4,
0xd08caedcff80e110,
0x88242c78cfec5fb0,
0x3fcc3bdfbcabe9a2,
0xcae1e7013aca020b,
0xf8205dc633393cf8,
0x118810fe6a37602b,
0xae70666f4214017a,
0x601abfe1c634333b,
0x1c30267abdfff557,
0xfde630615e20f092,
0x9256bde042f32b03,
0xb2fa4fee62e21603,
0x6201c473bf5db83d,
0x322c80062312d936,
0x33b5dffd3be778d5,
0x2600083eabf66c3d,
0xe76f93b56ef62221,
0xc13f867f51e0144c,
0xffc499f6421b186d,
0x3084f28f3ca4fd15,
0x2bf3971c160a3f3a,
0xfbbf010c619d0610,
0xc81ba86ee16ecfd2,
0x7e09f731db785d9d,
0xdabb8125dec208de,
0xe299ee0aaf71299a,
0x37f9d696d0b74e90,
0xe2a19b88ea4835bd,
0x960e7159be7f317a,
0x2f4eccac00c55d8e,
0x0b681f41d669c433,
0x7fb3804efc9a098a,
0x68357d0dae0fbdd5,
0xacec0c217f8b0ebf,
0x513bf6c408e0f860,
0x38d058480a5fd1fd,
0x15ba02659dbf92db,
0x0219beff6acefafd,
0xff1841ff680477b3,
0xe17f7c3bda86b8a5,
0x90679bf71fc68109,
0xc79552a9745589d6,
0xadff7bdaf3b4bff3,
0xa325ee6e39cfbbb3,
0xffe4fad80803314d,
0x46831f447772743e,
0x450171ba2044d5eb,
0x3bb8e7cc3e627e65,
0x49714b6298069156,
0x4311bc96b371fe5c,
0x7e1f1be9882cb2d7,
0x3b1b7f9c911144ee,
0x0160283ca6b07e21,
0x6e40ce27e4f0fbe0,
0xfccc4247fa906cef,
0x5a25e7649490ac41,
0x53df2ee956f04ac3,
0xcc5e296976f41121,
0x00283c30cee00f91,
0xfe6735aa33d65ded,
0xd07d715d047830a9,
0xed0103f8dd46aae6,
0xe83f4049feca319a,
0xe8ff034692003490,
0x43ddecd2721c1189,
0x474c7b497bec4021,
0x67d5eb9d2f63fc25,
0xef64f179f8247ce5,
0xafe2000e2acd2106,
0xc068424c2e39a4b5,
0xfcb361331f758942,
0x73683b63a2bb119d,
0x7587ef2d81e5f3bf,
0x8dc7e11d60973cfe,
0x36ebec74cb9b47ea,
0xff7a5ff335fda1e1,
0x9919bbe14512b8c0,
0xe13c38a23c578eed,
0x6734d85704e8218b,
0x09f613ed881a6b0c,
0xe7ecc71c0e7ef057,
0xe599d336816e251e,
0xf57490cc44fe7770,
0x3f8000133a51c8d2,
0xa4e11090f6bbbff8,
0xaff10324889a30f1,
0x80c92128f7761048,
0xbf3f32c245711d02,
0x434d80676c653089,
0x776575083b0d67d7,
0x02bc2c78d7207a94,
0x886d21bd61dbb924,
0x71531ccb88a56d03,
0xe0dd3d48b1b71a9e,
0x220b677ae63f4b38,
0xf6c107ec58f903d5,
0x9b741baa367aaccc,
0x2cbc89167fc52039,
0x938fe7cfaa44c074,
0x64f1405318dfadf1,
0xe8d106c51fe2f7eb,
0x2124ec188adc61bd,
0x9df466c1547f37b2,
0x023bfb8692d838cc,
0x34e00f6d087dc097,
0x4894fb5048df4f03,
0x8d6a73619313d5c0,
0x292a31773913fce7,
0x2f6f9d0f08fc09bc,
0xb7cc00971ffc819d,
0x4b3f34dd02282001,
0xa8a1bff708d0846b,
0xbf4474eef27ca8fe,
0xf0e237e0a735df33,
0x51c860411d802fc6,
0x1173238dcc08b239,
0x67e800e754604efb,
0xc087122f79305108,
0xcfa320204768b3ca,
0xb373482dae2a187c,
0x4c061e4480d8f780,
0x108b27fcc65d0d31,
0xa7ed0a000f39eae9,
0x581108626733a01d,
0x530a9fcebf1c0124,
0xe80a2e2d00116712,
0xc400fd8b005fa373,
0x5e6b2e0f4377e398,
0x07279e55ad47b900,
0x005f03779a71afe3,
0xd48c3ff7a5bc4600,
0x66ff100c403cd3c7,
0xb100a541c10b81a9,
0xbd4bb0033c035449,
0x66ec4270b884fa19,
0x37a1effebd70bb97,
0x06736f4dc90e8ec0,
0xeef8085721105338,
0x7fff97ddf01c8bd5,
0xfab0ca885d85bef7,
0x51386cbe0090312d,
0x1368bffdfe19e33d,
0x5265d79b0bc02fed,
0x10c2df3524fdcb0a,
0xcc39e643670cdfb6,
0x85916000a0959f00,
0xf8981e819d7ff58b,
0x503b873d00fdcbe1,
0x9c99ea108c40998b,
0x8b5408ff3f776f23,
0x660300418e69ff31,
0x9901c9243ec4c80c,
0xffe2b5878f82f7b3,
0xb6d0c10191bc80cd,
0xa17e45f7143ff833,
0xc15add98cef78180,
0xd66d28bff19e999b,
0xc819f8a579c49bf0,
0x51142894c5f5a051,
0xddc00fdda3686e0b,
0x5cc2a4871900102d,
0x9d11e610c053ab6a,
0x1011fe0ba019374a,
0x972f7421d8fc04ea,
0x234d017c92f3a80f,
0xca225a6088a0352a,
0x44088ec2ae75c3af,
0x66e067f550003fd0,
0x85c7e5f60c40dfea,
0x9bfb02d28b938cdc,
0x9488277870bcff39,
0xa9f62a460c78e2e1,
0x13b06b87ff8e7f10,
0x6060d0199eedafe3,
0x202ece97111b78ce,
0x804200fb49800304,
0xffe20509f0533751,
0x6e71f3283783e9da,
0x001927142e1ac11d,
0xffb12362acae1302,
0xffe0e0e35f7b4674,
0xdb385010c0bb2ce3,
0x3060888c44f58700,
0xc89e057bacdfd638,
0x00278020e60e1f77,
0x8275931b5004d41f,
0x0628f9ff2fdb0090,
0x20159e09029315c0,
0x00630429fdf628e2,
0xfa7fff838aa30000,
0x0605afff8020c5e5,
0x3494eea6d9ef4bfe,
0xbf80d243fb6fd17f,
0xf02a803632707c09,
0x85311f143fe0f7b8,
0xda1903680ae03fbe,
0x8e56cc6102648e7e,
0x42f9fb420748a000,
0x4dfef3196320fe8d,
0xcd727ef500f30f30,
0x0aaec9158080bfe6,
0xd73cb84e01b6867f,
0x082ff332fc005038,
0xedc2b33b9ccda497,
0x20dd0c92fd0329df,
0xe379423da6f808fe,
0xa0d8d3714f05cf5b,
0x9ce3a58e19e333f1,
0x153b08e6fe88c850,
0xb00ec8411781fb71,
0x0e007e76183cbef3,
0xf77a06032b3bdc6c,
0xfe021bee7e8e61c0,
0xa92026abc24aacef,
0x7355cec50ce6530c,
0x4efcd8e7b3ec7663,
0xfa4740895b3aa0fe,
0xdcf68ee52b6d7337,
0x33e643201934bef6,
0x8a401cbabb697867,
0x80c369805b9deebb,
0x73bee9f5f70fd061,
0xffa479d9c84eeecd,
0x0459480a6021e782,
0x3c4140cc3f96c0be,
0xf3d1bdeef008bf37,
0xe855293bd33f01b3,
0x9bf51290c77700ce,
0x3e0b33327e731814,
0xffff012a8251f9e9,
0x8c9f2b3aaba17cf3,
0x6f687606b5158600,
0xd159f17534b2def7,
0xb2726f89ebbe1663,
0xab1f5739fffadf7d,
0xbdbd1831f3f28f08,
0xb53fbbcf77130c89,
0xe0c0813704dc284d,
0xaeffd43a06b8f6cd,
0xc0a0db53f3c8c473,
0x030fffcd8cb02880,
0x0088fa49357ddb01,
0xe5ac3fe93a1a7f14,
0x3480c28a58cca66f,
0x46c10ec032296eb6,
0x357471da10eb4e37,
0x9c8f35237f8f36d5,
0xfdddfc124e3f66d0,
0xec107634f088b46d,
0x6eede1c051420622,
0x035d831869ec9259,
0xb09a2ea83e7fdede,
0x40022bf633102bfd,
0x363aedce17f1ec7f,
0x53294f2db8c04988,
0x67befd8d5789b238,
0x022393d39cb393fe,
0xd64ec40a2e21313f,
0xde7be500bef43f4b,
0xdbf6308044597304,
0x56b5564dc30c3a3b,
0x8f680f3c36aa1000,
0xe11581819407d7c1,
0xecedc0fca0cc100f,
0x8f0defec8709453b,
0xfefe16c699047f51,
0x7faf98d4400ff810,
0x7bb236f6128ef7c8,
0x82b72c1c0e06e6f9,
0x16f53cb90bfd7398,
0xfff8b29722109ff7,
0x70cebff573fbfb3f,
0x624459047b9bbabb,
0xf7cf08172d2d06a2,
0x88025402f54bbd08,
0xc6772731901edf73,
0x743c8393ceee0079,
0xa354b67dee5377ad,
0x7e892ce8eef5e7fd,
0x86dc8a9da99107f6,
0xe7b7e2e6876cc6ed,
0x2600aaaf364ef810,
0x89134fe342481dfd,
0xf9d1a6bfa03a0fed,
0xabefb49856b13efb,
0xf18bbd693d11affb,
0x6ac02001501ea93f,
0x6808383c2adf8f01,
0x05ee544420224279,
0x7cc1cf9884a1118f,
0x3dfe8e9c01d59676,
0x8000fe7a5c03e688,
0x7a6be3676223a804,
0x14a3061be7331b92,
0xcad42800a934814b,
0x6ff4d0738bf46113,
0x1115ffbe77e2fffc,
0xa33b36374c5b3fa8,
0x8175054106caf17b,
0xb7efc5f70fd06014,
0x2f591fe08b0538ac,
0xebd04c1c564cf5af,
0x75c8403853fade0e,
0x78caef90bb24cf8f,
0x64a39b0c9776cd6c,
0xccd0e8cb488ded28,
0x58b9f4f5594a3dba,
0xd8c0f24eabfbe4ed,
0x464455928505018d,
0x8288f9f8154b4e14,
0xa0de0e795f03576c,
0xdcadaac80c4df9c7,
0xddd1ba7675ed7950,
0x8ef45797fa6dfdd9,
0x1128ee2117613ee0,
0x4b44f5dcffa0af10,
0xe0064ee6252a975b,
0xe70089b125083891,
0x1a46e57bf34d8cb9,
0x718972e26c1816c1,
0x18482d57f8c04ff3,
0xd9cf5a8cedcb1984,
0x0bdfbfc96016888f,
0x5323de3e271fc4ab,
0x44ea3300feba34b0,
0xded4698954f45fb2,
0xa51689a06c43c179,
0xf00253b171fb2ab0,
0x62cfc637ff84a035,
0xbe2054f880a8c897,
0x3d47c649b1089f72,
0xed001c2089a3032e,
0x0dccf264ff881114,
0x4807711f7deef21b,
0x89127a3fc7f30282,
0xda4dfc671738a5bc,
0x15856f1dc090a33d,
0xa9edfbac60f5f558,
0x0ef1e21b4f87d3f5,
0x3e92f9985560cfd0,
0x52088c3ddb685a88,
0xc513ac8018d439fa,
0x2eaaab77f9f81eee,
0x7408f5c922282b6f,
0xf502cc1fd1b8ccfc,
0x40ebcb630cea2bbd,
0xd62a13c58b4a0840,
0x3026280e2b8d6c87,
0x39e3ca60373af1cb,
0xefec1d5e44fe78c0,
0x6ac1f390300813f5,
0x52dbbbecba0edffe,
0x2272166570e2cecc,
0x4c2363086fe48199,
0x40df7b6184c69db7,
0xf01080fbfe8fbdef,
0xcef5fe3b238db1fb,
0xefcf264d8cc6b298,
0x01033bb3f1583413,
0xff4da37b2bdd3546,
0xe37e1fd0a4678e3b,
0xf7d4a35dcedaf7e2,
0x7f448ca2f88b3080,
0xc65f1008ffc86d96,
0xf08af3299b2d94fa,
0xb7f2ec8c40ef0104,
0x16ea26d6cc44c7bd,
0x70fc1b7be2c85ec9,
0x3e047c1446359d72,
0x310feee3c4f5ffa3,
0x911561a7a6e31ff7,
0xfb1ffb32af71fffc,
0xffd74223e04e4d4e,
0x889614360db9965f,
0x483ba157974bbb12,
0xb9d7351422f7a197,
0xf359c2b07671a0de,
0x35de2684c3f6a7ff,
0x3a38020d023bfef7,
0x4258a590af4ee7c3,
0xc9817fef3f72902a,
0x0062eadfc0823ba3,
0xf2186f00fcc1866b,
0x5fe1c770d512800d,
0xcfa7d5b038e8de05,
0xfe4fa057977b2310,
0xdad25be38880d2ec,
0xbeeec2d7c87f00c2,
0x756fa65d091fc040,
0x0aeb4fc88479d0d1,
0x092df3317e5ceec4,
0x4b91ec652d88e490,
0x987fe66806cce479,
0x6e811812ed1a2fe1,
0x7cf5ba0dff009409,
0xe309ee2b09ddae21,
0x3b8eaf2e35c0102e,
0x6966eeab3eff3ee2,
0x4ced948f3a4f5eba,
0xa19cbfb3ba6f038a,
0xe948b4c5ee4f1aa1,
0x4bb13727237571c8,
0xe203ef99cdf3b137,
0x1df80d7028f367eb,
0x07080fdeca262cdf,
0x85765d4d3f680966,
0x3f3eabb0fc36ff7c,
0x911f85ecc487212e,
0xe628dff9e776beb7,
0x1b8c001688cebea0,
0x815e28752666627e,
0xfa13c42c2c7588c4,
0x21d58199f76edc86,
0x904d001e6eb8c876,
0x380f1b7920c632f8,
0x5181ec9c01577769,
0x8f2ed90d211d0c91,
0xf9d9fdb6b49fb606,
0x4a24c94fe20abd47,
0x3f1ab9d8fffe587d,
0xf6743054c9b0051b,
0xed60f7ffa4f80c74,
0xfdfb5491f45b0920,
0x8fe4c32261d56b31,
0x98b7dfed44e90ef7,
0x07fedcee0fce0400,
0x66151ebc4551d319,
0x254402e89ecde13e,
0x913cdddbbf33b882,
0xde872e03aaf0111c,
0x580316b8415486bf,
0x3fd0c8446e020a28,
0xd5ff7e46506207ca,
0x5bb4280579a7b035,
0xa5d16ba280f11d8b,
0xac547b0ed3218c64,
0x70ff6e6461a9f62c,
0x8ce11e6dfae0fdf9,
0x6df86250a1591912,
0xfe69b80dc280cce7,
0x754d2cef0735abc2,
0xfe0894a12ac0c8a8,
0x30a381ec71fb4766,
0xae64630294160446,
0x2aa8e43b309bc0e5,
0x03fd7b890630d8e7,
0x9ba3f11e582b0f19,
0xeea15a439211c0cc,
0xfb07ed3d359c8d84,
0x32fffb6005e00416,
0x3880f8b744029bd9,
0x65b70b23842eea7e,
0xbcbfea7a45b64108,
0x7171c909fe040efe,
0xce2a082af44a919d,
0x3c406282d6f087f0,
0x35d8c07663f0cd46,
0x665612b772900101,
0x5cf82eae19b17304,
0xb0394292c460902b,
0xfc48d3a85d0e1da0,
0xb1a2b875d6531c22,
0x20b133fb2313289f,
0x43b96e654b01e28d,
0xc2e4b619a27cd865,
0x5e587276ff74720e,
0x69fecd9d550b78d4,
0x842f2aafbc14a035,
0xc5c2cc994033afe2,
