Word fp_conv_wt[] = {0xf8dc018a,
0x01e4ef45,
0xe981fe48,
0xfe74ffac,
0xd6cef3ff,
0xfd994490,
0xf233ff34,
0x012800a1,
0x00290730,
0x2a63feeb,
0xfd5ff4d6,
0xffe9fe9c,
0x4870fd98,
0x11db02f0,
0x16951244,
0xfdcefff2,
0xfeb9002a,
0x0516f822,
0xffe900be,
0x00e5ffcb,
0x017ff117,
0x01051e3e,
0xf441f99f,
0xfff910b7,
0x0152e3b4,
0x0188ff4d,
0x009d0357,
0x01e5fa78,
0xffe00147,
0x045b0309,
0xfeb5ffc1,
0x06180803,
0xd3c40392,
0x4ee33590,
0x73b58536,
0x4b6111c5,
0x733fda74,
0xe036cf89,
0xecb91dd6,
0x43954f81,
0xde6ef986,
0x9bf903ef,
0x439bfe42,
0x7328c16b,
0xfa6e562c,
0xcb0676df,
0xae4df817,
0xb936d93f,
0xbf2d467c,
0xbf1ff352,
0xef13afc0,
0x2d67270c,
0xc6c88625,
0x38bdc8fe,
0xea09ed79,
0x15c4358d,
0xfe397ed1,
0x572e12c0,
0xc7bccf17,
0x3de4d8ff,
0x793b3e39,
0x33cfb8fb,
0x9c6aaa73,
0x1e01c49f,
0x0259acd2,
0x02ef61b0,
0x04b65bc9,
0x069b48a7,
0x013cc9e4,
0x04e67329,
0x013c0e4f,
0x0013fe0f,
0x0791c24f,
0x036591d8,
0x043e9dc8,
0x06918a0f,
0x016a3536,
0x03350ba5,
0x00bc1e0f,
0x06331a8d,
0x01d801ff,
0x061c03c9,
0x047a351a,
0x058ec763,
0x03fffc04,
0x0271389e,
0x012bbe4a,
0x03271b27,
0x04b61b2d,
0x0786c327,
0x01389dc8,
0x06c3661b,
0x0691da4d,
0x043a1fc8,
0x07ff6a00,
0x07a00847,
0x072793c9,
0x013a9dcc,
0x03c3ec36,
0x049e5369,
0x0168f534,
0x007c3e1f,
0x013c99ec,
0x009e4f27,
0x07fc0141,
0x03603c1e,
0x049c4927,
0x04d078d9,
0x03258ba4,
0x034ba437,
0x00be5bc8,
0x00dc4e27,
0x071880ff,
0x07ec71fd,
0x0003be9f,
0x074ba417,
0x07270b27,
0x0743a1d8,
0x027578dc,
0x07e3f1fc,
0x00180fff,
0x00d9fcd8,
0x07c16233,
0x04d86c76,
0x0369ac36,
0x01b4d8ec,
0x02d16ad9,
0x00da6df0,
0x02371b85,
0x0760303f,
0x04ea345a,
0x046e370b,
0x016c363b,
0x013d9de4,
0x04d8e45a,
0x036db601,
0x05a6532d,
0x0741ac17,
0x01b0d86c,
0x01b0fa6c,
0x00be51e8,
0x03633c1e,
0x043e1bc9,
0x0743a1f0,
0x069b49e4,
0x065b259a,
0x03198cd6,
0x006e73b4,
0x000a6db2,
0x036c92d9,
0x01ee772b,
0x0683ee27,
0x0361f05c,
0x04da61f0,
0x0194cbe1,
0x04cae453,
0x009e5e27,
0x005dadd0,
0x046c361b,
0x02974ac9,
0x009e4be0,
0x006d67b0,
0x06371a8d,
0x03371ba4,
0x0662341b,
0x06371b8c,
0x053a8d4e,
0x012f9da4,
0x04ba9dca,
0x03350ba5,
0x02657bb0,
0x07a2522f,
0x01349e0f,
0x059bc4cb,
0x05a6512f,
0x0791c8cd,
0x01a4fb64,
0x060f2783,
0x059ac74b,
0x02d17ad8,
0x034f25b2,
0x03e1b0f8,
0x060f0793,
0x07c36037,
0x00bcd9e8,
0x03c0e237,
0x07fc01c2,
0x026c139b,
0x0523be49,
0x005f2fd0,
0x0733190f,
0x07f800ff};
